#version: 0.2
a n
e r
e n
Ġ d
a r
Ġ m
Ġ p
a t
i n
Ġ s
an g
Ġ k
l a
a k
Ġ b
Ġ t
s i
e m
u n
Ġd i
g a
Ġm en
t a
k an
a d
t u
y a
a l
a m
o n
Ġ S
Ġs e
a h
a s
Ġ y
Ġ P
Ġy ang
Ġ A
e l
Ġ B
Ġd an
j u
o r
Ġb er
en g
Ġk e
in g
i k
Ġ M
a p
i s
e s
a la
Ġ K
Ġp er
Ġt er
u s
i l
ar i
u r
a si
t i
Ġm em
Ġ ju
e la
ad a
ak an
Ġ h
i t
b u
Ġ I
o l
Ġ D
e k
Ġ 2
eng an
Ġ l
ar a
n ya
i r
Ġ un
Ġ (
Ġju ga
Ġd engan
i m
tu k
Ġ R
Ġ T
u m
un g
Ġmen g
Ġ C
Ġ in
Ġun tuk
Ġ J
u k
a c
Ġ r
g i
u l
i d
Ġ2 0
o m
i tu
Ġ L
ĠI n
Ġ la
Ġp ada
b a
at a
Ġd ari
i h
r o
Ġp en
i a
e t
si a
an d
ac a
ar ta
ala m
u d
Ġ G
e b
Ġ20 2
ĠB aca
e d
Ġ g
Ġ 1
Ġin i
u t
Ġ itu
e p
â Ģ
Ġ N
ad i
m a
l u
Ġ H
r i
ang an
at an
on e
a i
u p
Ġ F
em b
T A
ĠIn d
t er
p er
R A
Ġd alam
a ya
am p
N TA
Ġb a
NTA RA
Ġ n
Ġm er
bu t
s e
Ġ f
Ġ c
Ġmen j
Ġ202 3
ĠInd one
ĠIndone sia
o k
Ġ U
al i
Ġ j
Ġ w
ak arta
e w
u a
r a
Ġ E
Ġ akan
Ġ W
ap at
k u
Ġp em
ala h
i ta
u h
o t
a b
an t
ela h
e g
Ġp eng
em en
e h
en d
i an
Ġm ela
am a
w a
Ġ a
p at
ing ga
id ak
Ġp ro
se but
er i
ba ga
an ya
Ġmenj adi
j a
a at
i si
Ġter sebut
t r
Ġmem b
Ġt ah
Ġb is
Ġt idak
Ġ O
baga i
eb ih
ang k
an a
Ġ ak
a in
Ġp o
la h
Ġ âĢ
Ġmen y
Ġ -
at i
R I
Ġbis a
Ġm as
Ġk ata
Ġk ar
Ġm u
at u
y ak
A NTARA
Ġmen d
Ġk on
am i
Ġ ata
o s
Ġtah un
ĠA NTARA
Ġd apat
Ġl ebih
en a
ol eh
d it
Ġata u
Ġs em
ĠC O
ar u
âĢ Ŀ
c h
o p
on g
ĠâĢ ľ
G H
ing k
0 0
h an
Ġt im
ar an
Ġ Â
ĠCO P
ĠÂ ©
dit or
i p
Y RI
GH T
ĠCOP YRI
ĠCOPYRI GHT
o b
u b
E ditor
m an
Ġs aat
ĠJ akarta
ĠP er
Ġ ad
g u
Ġ u
i ga
Ġ oleh
r e
ĠC h
e ta
d a
ek a
g un
ud ah
al an
Ġ 3
Ġs er
in a
ta ma
ĠA n
en t
a y
Ġb ah
i la
d uk
Ġmen c
j ar
Ġper s
o ta
Ġse k
i c
ew arta
on al
Ġs atu
l e
Ġse bagai
Ġse t
k a
Ġse b
ik a
J akarta
Ġm el
o la
a w
es ar
Ġba gi
Ġ ga
Ġb an
il ik
y ar
ta s
asi l
ang kan
as a
Ġke p
d i
u an
Ġber k
p an
ing an
h ir
Ġmer eka
Ġmu si
Ġp el
am b
Ġkar ena
h ad
Ġ V
ung an
el um
im a
Ġt elah
Ġh ingga
ku kan
Ġh ar
em pat
o d
ang g
at akan
) ,
c ara
m i
Ġber s
Ġad alah
on s
er a
r an
in ya
Ġk em
lu i
Ġmen ga
Ġ v
in i
P ewarta
w an
ingk at
, âĢĿ
Ġ at
Ġke d
i b
Ġ ada
s a
Ġ 5
n i
ang at
il an
Ġmem bu
per ti
Ġk ami
ilik i
Ġ Y
un ia
Ġdi a
t and
Ġb aru
u la
Ġk er
g r
p or
Ġ as
ap a
ap i
Ġla in
Ġs udah
Ġse perti
Ġmela lui
o v
ar kan
Ġpem ain
Ġse la
Ġ Z
Ġmem per
f or
Ġbah wa
t or
in ta
ta l
Ġd ua
ĠS ela
Ġpro duk
Ġser ta
asi h
t ara
Ġmem iliki
t em
Ġset elah
Ġse cara
ju t
Ġmeng atakan
Ġse l
p a
Ġ o
or ang
Ġdi k
ĠA l
ita s
Ġs aya
un c
Ġ 4
ak at
Ġse h
ma in
Ġg ol
e c
Ġp ara
ĠA S
ĠM en
? ?
s es
en si
Ġpo in
Ġpers en
Ġper tama
Ġr es
emb er
ah an
eta p
il m
an jut
Ġk om
ĠA r
ol o
2 0
Ġba ik
asi onal
Ġmemb eri
am un
in d
Ġs angat
in al
ul an
a an
j ak
ti f
g ar
m b
ĠP ro
am an
Ġh ari
s ung
yar akat
tu r
ung k
b ak
u ar
ur an
e v
i v
Ġ ek
Ġkep ada
up akan
j ang
Ġber h
Ġked ua
o si
Ġpen y
h e
Ġmusi m
) .
Ġmas yarakat
Ġmer upakan
ik asi
s t
ul it
ta si
Ġ an
an i
ĠM ar
ir i
e kan
tand ingan
Ġban yak
ĠK e
Ġh anya
Ġn eg
Ġw ak
emen tara
Ġdi s
Ġat as
t ing
Ġmemberi kan
Ġb eb
g us
ah kan
ĠU n
at ih
Ġter b
Ġb esar
for m
ur ut
ĠS e
Ġm asih
Ġke s
Ġdi b
lu b
Ġs ama
Ġp as
ĠB er
Ġt etap
a bu
ap an
Ġk u
Ġper tandingan
gun akan
Ġ ant
u kan
an an
as an
Ġhar us
el ar
us ah
Ġbers ama
Ġmembu at
i g
ĠS ep
Ġla lu
o g
an ti
ĠR p
ĠP en
ap kan
u ti
ing gu
ang sung
Ġres mi
ep at
Ġseb elum
a j
er apa
ĠS el
Ġt iga
Ġmela kukan
ĠS h
Ġse d
ĠL iga
Ġs en
ga h
Ġk el
ar n
m as
c k
u ju
ĠP em
ar ga
Ġk emb
ĠCh ina
ĠP ol
Ġk ali
Ġpo si
Ġ 6
Ġs alah
Ġwak tu
er n
ĠA p
en c
un ya
Ġf ilm
a g
t ri
o w
ĠB ar
Ġd unia
r es
Ġ orang
ga l
Ġy ak
emen angan
em p
ĠT im
olo gi
Ġp es
Ġdi p
ya h
Ġk ita
Ġt r
Ġak hir
un d
m lah
Ġbeb erapa
Ġkemb ali
u ang
Ġmen it
Ġke c
Ġmend apat
h a
it ar
Ġpeng gun
Ġa gar
Ġseh ingga
ĠD i
ai kan
im p
in t
ĠSela in
Ġk lub
ara an
i ala
l i
ing gi
i kan
t ember
Ġpen d
Ġba bak
Ġs i
tu s
e a
e f
p e
Ġ 7
gr am
ĠSep tember
Ġp emb
er ja
ĠM an
Ġ1 0
ep an
la i
Ġse p
um at
en er
angk a
Ġdi l
Ġber b
ur uh
ela s
Ġu jar
ran s
ĠS ab
Ġh ad
Ġ i
Ġm a
ek si
ila i
at kan
Ġt amp
Ġmen ingkat
ing in
ti v
o h
w al
ed ia
Ġk h
Ġmu lai
Ġs k
Ġk emenangan
Ġ ya
Ġyak ni
e but
Ġber bagai
Ġneg ara
Ġk ulit
is ata
Ġmem ba
n as
ar ang
ga s
u si
Ġt inggi
Ġdi la
Ġkon s
Ġsela ma
ungk in
il i
Ġh al
Ġg r
Ġke t
ek n
gi tal
re si
i f
la s
ĠP iala
ĠK om
Ġ ap
ĠS ementara
a ga
ak si
Ġb ola
m er
ba ik
en gah
Ġin d
t on
er inta
Ġmeng had
ĠM inggu
et ak
ud ian
Ġt an
Ġter j
Ġter us
Ġf inal
e al
Ġber p
Ġke b
Ġter d
Ġun g
2 3
Ġber l
us us
Ġla ga
Ġlain nya
Ġber main
ir kan
Ġ 0
ĠK emen
Ġd epan
Ġp an
Ġs amp
Ġmeng h
ter n
j i
Ġ al
ar k
eng k
il ih
and a
j alan
u i
Ġmen ya
ĠS en
Ġ20 1
itu r
Ġposi si
a ih
Ġ 8
Ġt ak
ap ai
Ġju ta
t en
Ġp ela
es t
Ġter s
ta han
Ġ1 5
Ġa ir
Ġp un
p en
um ah
Ġsem ua
erinta h
Ġp r
ak hir
Ġmeng gunakan
Ġmendapat kan
en al
ĠT he
ud a
ĠSab tu
om i
Ġya itu
Ġ ar
Ġdi gital
Ġke ter
Ġ X
Ġt ent
Ġdi per
ĠP ada
is t
ar d
ud i
I B
Ġ ia
er s
Ġpeng g
u sia
em ar
or i
had ap
m e
Ġt ur
Ġter hadap
ur a
ut ri
e o
Ġ ac
er ah
ĠG r
ang un
Ġt ekn
ĠK ep
m p
un j
ala y
ĠJ umat
t ar
Ġs a
ek erja
ed a
Ġn amun
00 0
Ġdi m
ih at
Ġbagi an
Ġpenggun a
alay sia
er si
Ġb i
ĠK ota
ĠAn d
y o
um um
ĠL a
c i
Ġ empat
an tu
Ġse jak
ĠD unia
ir an
Ġ202 2
ons el
ĠSel atan
c e
angk at
Ġan ak
ang i
ati f
ik uti
ĠK ami
w i
Ġb en
ti m
Ġker ja
Ġm in
Ġj adi
k i
an yak
Ġt rans
Ġl uar
Ġ202 4
E A
Ġd em
Ġla gi
amp u
s u
ar is
Ġh asil
bu ah
al ing
up un
Ġsel uruh
?? ??
Ġant ara
f f
Ġ 9
Ġm ampu
ĠM alaysia
ra ga
Ġberh asil
us tri
ai an
Ġkh usus
y anan
ĠS er
ti si
ĠD alam
ĠN amun
at er
ju k
Ġpen ting
ila yah
Ġmeningkat kan
c om
ĠA sia
Ġke se
Ġper n
Ġter baik
Ġr umah
âĢ ĭ
Ġsebelum nya
Ġdila kukan
ĠA s
ju mlah
Ġl ima
Ġl angsung
Ġhad ir
eng g
lah raga
ba b
up aya
Ġac ara
f i
m en
at ang
Ġs uk
Ġke k
ĠK am
Ġa wal
form asi
Ġsk or
Ġtent ang
ĠA d
Ġter l
it y
Ġket ika
Ġpengg emar
a v
h one
ĠP S
ik ut
uk ung
ali tas
Ġsek itar
Ġkem udian
g ulan
Ġs tr
Ġtekn ologi
h o
l at
Ġ1 9
Ġ ingin
Ġdi t
Ġmem en
Ġas al
an nya
Ġdi r
ĠI a
ih ak
ter i
u j
ti kan
ek s
Ġpen ga
Ġterj adi
on omi
Ġber ada
d en
Ġmen amb
am but
Ġ1 2
Ġmemba wa
Ġp onsel
on a
Ġse buah
ĠD engan
Ġf itur
ant o
Ġmusi k
usah aan
a f
id up
i ti
mas uk
Ġsa ja
us at
il is
ur kan
ti ap
ka it
Ġ em
ĠR os
at is
ak in
l an
Ġd es
Ġm od
Ġdi d
Ġmeng g
Ġkese h
ak a
ĠS eb
ĠD ir
Ġtamp il
e gi
l et
u tu
Ġmeng ak
ot o
ot ensi
Ġk ota
por t
Ġind ustri
f er
s an
ang ga
ĠS aya
ĠM ad
is asi
Ġter masuk
om or
and ang
Ġg elar
Ġmas a
ĠPer si
Ġsek ali
ĠSen in
er man
Ġp ol
un i
asi s
ĠT er
Ġw ilayah
pat en
Ġkeseh atan
Ġp ak
Ġmem as
ĠD ia
ĠO pen
l ikasi
r is
v es
it ik
Ġpel atih
Ġek s
arn a
ĠKam is
c el
Ġs eri
ad an
al l
ĠM es
ĠM ari
ob il
Ġ3 0
abu paten
Ġsamp ai
Ġp ekan
ĠP r
is tr
Ġl ok
Ġla p
Ġc epat
a ik
e e
in e
Ġl anjut
Ġg im
Ġpro gram
Ġmemb antu
b er
b ang
b or
o ur
en is
Ġm an
Ġk as
bu h
ĠW IB
da g
ar t
Ġb elum
ud ara
âĢĭ âĢĭ
ĠMen urut
g gr
h am
em ah
Ġdi ri
ah am
Ġla gu
ĠG am
enc ana
ggr is
Ġd aya
Ġma upun
1 7
Ġb ulan
Ġmela wan
Ġtim nas
osi al
ar ap
Ġo f
ĠS ta
Ġke ti
Ġr i
ĠO l
Ġmend ukung
Ġi P
Ġtan pa
er ta
Ġk am
Ġr ek
ĠIn ggris
atan ya
Ġju ara
ĠR eal
Ġ1 6
f aat
u as
gi atan
ĠF a
unj ung
g e
l o
ĠP as
um p
usah a
M K
en tu
in an
ul ang
aya an
ok o
a erah
b an
o ba
ar ik
Ġp ihak
ĠR o
Ġu tama
ĠAn da
Ġmenc apai
ula i
ĠUn it
Ġsed ang
Ġ angg
an y
Ġb ela
ĠC ity
uh an
ingga l
Ġhar ga
Ġek onomi
1 0
e z
l ik
r id
Ġ e
en am
Ġse tiap
Ġla yanan
Ġketer angan
ĠiP hone
er ang
Ġb u
Ġt amb
un juk
Ġse jumlah
ĠM as
ter ian
tr ak
Ġberh arap
resi den
v in
Ġk atanya
us e
h i
Ġt api
Ġo lahraga
K I
ĠA gus
ik ian
ĠI s
emb angan
amp ilan
ola bor
Ġ udara
Ġd ol
Ġs osial
ĠP eng
or ong
Ġber d
ĠN asional
at ur
ĠS eri
Ġin tern
Ġpen c
ĠBar at
m ad
n is
Ġd ata
ĠP utri
it ra
ĠJ erman
ĠL iv
ĠG o
a Editor
e tu
Ġk ur
on d
Ġse su
Ġper lu
per asi
Ġsem akin
ĠUnit ed
i j
p o
Ġp aling
Ġs is
ĠP T
ik at
Ġter kait
bu ka
ĠJ ep
Ġa jang
angk ah
tiv itas
i o
Ġk end
Ġdi g
ĠB ay
Ġsi ap
si st
ol eksi
Ġtetap i
k o
at eg
uk up
1 5
I M
an c
ĠP ewarta
ĠK abupaten
us ai
id eo
et er
ut an
Ġmer aih
Ġpem erintah
ĠSela sa
Ġku alitas
Ġdol ar
Ġ im
Ġm uda
Ġk ini
Ġter k
ĠD wi
Ġgr up
istr ik
e si
ĠS et
Ġke giatan
es ter
ala u
Ġper usahaan
ĠIn ter
Ġpas ar
Ġdem ikian
olabor asi
n a
s el
Ġ and
ĠR om
Ġw isata
jar ah
EA N
n am
Ġs t
Ġt engah
ĠA h
ĠR abu
ra b
Ġmenc etak
ran c
ib at
Ġberl angsung
dag angan
a gi
c ap
Ġs end
Ġb ukan
Ġdi h
ĠIn i
Ġla ma
ĠH al
Ġkon d
pan jang
b ung
Ġg el
amp ak
Ġc ukup
Ġw arga
Ġmeny ebut
ĠKemen terian
use um
Ġm udah
Ġm ungkin
la mi
Ġt u
Ġber tem
uk i
Ġpel uang
Ġkas us
vin si
w ang
ĠP el
ul i
Ġban tu
Ġ upaya
in asi
Ġt ingkat
Ġter akhir
ĠJ aya
ba gi
ud aya
Ġw arna
ant an
Ġpro ses
Ġant ar
Ġketi ga
at as
la man
ik et
ĠM ilan
Ġmem p
ĠD es
Ġv ideo
port s
Ġkam era
ĠJep ang
i ons
p le
Ġs ementara
ĠI tal
ĠR I
id ang
ro pa
Ġmenj alan
unc urkan
ĠMari a
Ġ Q
Ġb ak
Ġper main
Ġl istrik
and ing
ku at
Ġmenga lami
ĠDir ek
ĠGam es
l ob
Ġmen er
ĠM er
Ġj alan
ati on
Ġseb esar
ĠMen teri
ĠUn tuk
lat form
ĠAgus tus
an o
ĠS em
Ġber ju
ĠD KI
Ġmeng en
id ikan
emb ang
ĠE ropa
Ġkon trak
ingk ungan
od e
1 9
l im
er an
um an
ĠJ a
ul u
Ġn omor
ew at
end a
Ġsem pat
Ġkom p
Ġmenghad irkan
Ġpern ah
Ġmenamb ahkan
Ġt uju
tu a
ĠS t
el i
ĠK al
ĠK or
Ġper angkat
ĠH a
Ġkel uar
jalan an
lob al
1 2
c o
Ġ ob
an k
Ġter p
um en
Ġ1 4
anjut nya
t o
Ġm alam
Ġp uk
Ġk aw
or m
ĠM et
Ġn aik
Ġseb anyak
aw at
ĠSta di
unjuk kan
n e
in j
ĠU S
ĠU ni
eta h
Ġterb aru
f o
Ġp ut
la y
ak i
Ġb ekerja
Ġt epat
ĠP residen
ĠM e
ĠK ong
uk ungan
ter ima
Ġn ilai
Ġj ika
ch ester
Ġmenc at
ili un
Ġkend araan
ĠItal ia
Ġp otensi
Ġs isi
ĠS in
ĠA t
Ġla wan
Ġn asional
alah an
Ġmas uk
Ġga wang
Ġsela lu
ili ar
Ġap likasi
Ġkond isi
Ġpermain an
Ġ enam
Ġdi gunakan
it men
Ġr ambut
Ġla man
op i
ota l
Ġproduk si
ĠMan chester
d ul
u c
Ġ usai
ar at
or d
Ġper jalanan
ung gulan
elas kan
k om
n y
ar g
Ġm iliar
at e
ta m
ĠA ri
Ġber si
ur un
Ġl ewat
ed i
Ġ1 3
Ġpel angg
ĠTim ur
Ġpenga laman
ĠRos ari
ĠMad rid
u tus
Ġm ana
Ġm obil
Ġb udaya
si an
em a
un t
ĠK ar
ĠR ed
engk api
umum kan
A S
j emah
Ġt empat
Ġse g
Ġper c
Ġper d
Ġ2 1
ĠCh amp
ĠAS EAN
Ġsend iri
i ch
la m
tu han
ĠS am
ĠA ir
Ġmem ang
Ġ1 8
ĠE n
Ġpeng h
ob er
Ġsek tor
ev el
pe tisi
if inal
ĠPS G
Ġmemen angkan
ĠBay ern
r ad
Ġmen arik
Ġse jarah
il l
ĠChamp ions
9 9
N I
e bab
Ġm es
Ġp latform
in fo
ga bung
ĠH ong
Ġc ara
Ġmenj elaskan
ok us
pan y
ves tasi
Ġdig elar
Ġpuk ul
Ġ apa
at ar
Ġk oleksi
Ġt iket
em i
ĠP usat
Ġju mlah
ol i
ĠR am
Ġpen ampilan
Ġsem ifinal
las emen
Ġsuk ses
Ġangg ota
ĠJa wa
u f
z z
Ġ um
an ta
Ġd aerah
Ġd ukungan
Ġm edia
Ġk lasemen
si r
Ġmen unjukkan
al u
ĠA k
ĠB r
ĠB el
Ġper dagangan
ĠJ an
Ġ1 1
Ġmenj aga
ub ah
cel ona
P O
m in
w ah
Ġ id
ĠS ur
ĠS aat
ju araan
Ġke unggulan
ĠM a
il kan
bu m
Ġ2 5
uk a
and ung
uh i
ub ahan
Ġset empat
ĠAp ple
Ġbi asa
f ir
g ul
i per
Ġ op
Ġd in
Ġk al
Ġmen ang
el ang
ĠL e
Ġ1 7
Ġa g
ip s
emp atan
ilih an
uj an
Ġem as
Ġsekali gus
faat kan
Ġbantu an
t an
Ġmen urut
ĠS o
as s
Ġke h
il ang
Ġga me
Ġpes erta
Ġri bu
ĠSet elah
Ġd r
Ġd ar
Ġt otal
on el
Ġh ujan
ek at
Ġj am
ot or
angg ung
Ġpela ku
h t
y at
Ġd ew
on o
bu han
ba ya
ĠN ur
ĠU m
ingk atan
20 23
imp in
ris ti
Ġintern asional
f ikasi
u g
an s
Ġm ew
ĠA mer
ĠB e
Ġla yar
up er
ub lik
unc ak
ĠKe tua
Ġbela k
ĠAmer ika
en ar
at or
Ġs ur
as arkan
Ġper k
ĠT an
Ġba wah
Ġj elas
ay ang
ĠY o
ĠBar celona
Ġakhir nya
Ġsep ak
aksi m
1 6
k s
k et
v ersi
Ġs itu
Ġk en
el es
ju alan
ĠN ov
eg ara
Ġak ses
Ġmel ihat
ater ai
Ġsesu ai
2 1
e am
f a
Ġ is
Ġ ef
ta h
Ġh idup
Ġ20 0
ĠL i
ep atan
Ġbis nis
Ġtim nya
Ġmenghad api
ĠKep ala
Ġkhusus nya
Ġkaw asan
P ener
s ta
Ġm ed
Ġp ri
at s
Ġs ini
Ġk aki
ak s
ga m
Ġse pat
ĠA sian
Ġber m
ĠT ur
ul er
Ġg lobal
up a
Ġc h
Ġmas alah
Ġ5 0
asis wa
ĠKor ea
ĠStadi on
Pener jemah
P R
g er
s p
w it
x y
Ġk opi
Ġt end
al ik
Ġber la
Ġke bu
ti on
Ġh uk
ĠR a
ĠJ adi
Ġku at
ĠSeb elum
nam en
ranc is
ĠDirek tur
Ġsepat u
ar Editor
Ġm ah
at unya
Ġk or
tu ju
ĠS at
ĠP O
is h
ĠK em
um ber
Ġg ener
ĠE d
yak it
Ġu cap
Ġpan as
Ġmenya mp
ĠMet ro
Ġbelak ang
t akan
Ġ ik
tu m
al kan
ĠA c
ap un
ul is
ia ya
ĠG ala
ĠAn g
mb il
ĠPem erintah
Ġberb eda
Ġbertem u
pany ol
Ġtend angan
er d
in c
ĠM useum
ĠK ed
Ġper ubahan
ela pan
Ġl ingkungan
om p
ep ak
ĠF ilm
Ġkon ten
ov ic
ĠSh op
ĠPol da
Ġtr iliun
Ġterd apat
t e
t ra
Ġ el
Ġs o
ĠS a
ĠK an
Ġ2 4
Ġpen ingkatan
Ġj ar
end er
ĠO k
Ġdib anding
pe si
ateg ori
ĠGala xy
P U
Ġ es
ar l
in tas
on ton
ĠS al
ĠP rancis
Ġba gus
Ġf okus
ĠU tara
Ġmend orong
Ġal bum
Ġsis tem
Ġseg era
C O
o c
s ama
at angan
Ġs u
Ġb aterai
Ġin f
ĠPro vinsi
ĠSeri es
e y
v e
Ġdi terima
Ġmen amp
ik m
ol os
ĠT idak
Ġmembu ka
angun an
ĠUm um
h on
Ġ ed
Ġs aham
el u
Ġber usia
us ta
ti p
ol d
Ġl angkah
isi an
Ġga ya
Ġters edia
Ġdes ain
utu p
Ġmengak u
Ġmemas tikan
Ġlok asi
Ġdew asa
Ġm at
Ġk alah
Ġk olaborasi
Ġk ategori
Ġt angan
un ga
ĠA rab
Ġber tahan
Ġla por
Ġad anya
Ġkom petisi
Ġkes empatan
Ġmenyamp aikan
B A
c a
Ġ on
Ġm ul
ĠB o
ĠB ali
Ġmem an
Ġl em
ir im
ĠH ar
Ġmenga mbil
mas ing
int ang
Ġkons er
Ġrek or
Ġtamb ah
g an
k ap
l ine
t ober
Ġper m
ĠT h
ĠT ah
Ġin formasi
ac h
Ġr o
Ġn anti
Ġj a
Ġterb esar
Ġsen ang
uju d
Ġtur un
Ġben tuk
MK M
Ġmenjalan i
ĠOk tober
G B
l us
u tama
Ġk asih
ĠS ed
ĠS panyol
ĠP B
Ġper ingkat
ĠR us
Ġr aih
Ġpen jualan
ew a
Ġak ibat
for ma
Ġmin yak
d o
e gas
p asi
u anya
Ġ alam
Ġm akan
Ġp et
ad e
ĠS ek
or o
ĠD ari
Ġr ilis
Ġpen er
Ġg un
amp uan
Ġf es
Ġmas ing
ip takan
ĠGr and
Ġantar anya
kom info
i y
p ura
ar o
Ġb idang
Ġt ro
Ġse panjang
Ġber gabung
eng ar
ari an
Ġin ov
ĠE s
tr al
Ġmemper k
ting gi
mer ce
Ġtur namen
ura baya
egi tu
ĠMer eka
Ġum pan
2 4
S I
k y
t op
y an
y ata
Ġm aka
at us
ĠP aris
es s
im b
ĠJ uli
Ġpen uh
Ġw aj
ĠW or
ub ungan
Ġu sia
Ġbah kan
Ġkem ampuan
Ġat let
Ġsed angkan
Ġposi tif
Ġdir inya
Ġtuju h
I D
l ing
m ent
r asi
u angan
Ġp ekerja
Ġk r
Ġb ek
Ġdi c
Ġdi ku
al is
on t
ĠS w
Ġter c
Ġter utama
il u
Ġl evel
ĠR es
Ġmeng ikuti
tr uk
Ġtah u
Ġmend atang
Ġsek arang
Ġpend idikan
Ġkur ang
Ġbersi h
h ari
y i
Ġ ot
Ġ umum
en ti
Ġd elapan
Ġk iper
Ġmen uju
ta mb
Ġse orang
ĠB en
Ġke bak
ĠM ed
Ġmeng ungk
ep as
ra f
ab is
Ġpeng embangan
Ġak u
Ġpo p
aw an
Ġpan jang
ĠGr up
Ġmencat atkan
Ġkebu tuhan
Ġlapor an
Ġkebak aran
h kan
l d
p ada
q u
Ġd ebut
Ġm inggu
Ġp or
ang gal
si s
Ġl olos
ir e
ĠJ uni
ro duk
ĠN ew
ri ck
Ġn ama
end ah
gu e
Ġbah an
Ġkom un
aga m
ĠPel atih
Ġpelangg an
Ġperd ana
Ġmah asiswa
Ġgener asi
tum buhan
ĠSa udi
ĠTah un
1 4
d ang
u al
y anto
Ġp ar
ĠS alah
ĠS ain
ĠS iti
ĠS urabaya
ĠA b
ik sa
is al
Ġ2 2
im ana
et ik
ĠF C
ok ter
Ġdes a
Ġlap angan
ĠSin ga
Ġmenamp ilkan
Ġmeman faatkan
l uk
er o
tu p
ĠS ant
ĠB udi
or e
ĠM uh
ĠK el
Ġpen yakit
ĠU MKM
Ġj enis
engk ap
enal kan
Ġpol itik
Ġmengen ai
etah ui
ĠSebelum nya
M I
k ar
w isata
Ġp uncak
Ġs ang
Ġk ap
Ġb ur
Ġdi si
el an
Ġber t
Ġber jalan
ĠK u
ĠK es
Ġper forma
ir akan
Ġmeng ur
Ġ202 1
Ġujar nya
tiv al
ĠSer ikat
ho u
ĠDes a
wit ter
ikm ati
Ġja uh
Ġ usaha
an ak
Ġd ekat
ar in
Ġm aksim
at angkan
Ġdi j
tu di
ĠS p
ĠA us
ĠI r
ol usi
Ġr asa
eb ar
emb angkan
angk aian
Ġu ji
Ġdil engkapi
Ġung gul
Ġung kap
???? ????
Ġbak al
arg et
ĠSed angkan
1 3
E S
K ami
o lah
Ġs ta
Ġt anggal
ya s
ĠS uper
Ġke las
ĠK on
Ġmeng u
ĠC o
om o
Ġmer asa
Ġc at
ĠE rick
Ġpers onel
ig ht
Ġsen i
arn ing
Ġpenggun aan
Ġung gulan
Ġben ar
Ġtro fi
P S
r y
Ġ ulang
Ġd atang
Ġp ilihan
Ġs pesi
Ġk an
Ġk alau
Ġb and
Ġdi tem
Ġber n
bu at
ĠI I
ĠD an
ĠJ un
ac k
amp ung
ub ung
ib uran
tem uan
ĠTim nas
ĠPO CO
A M
i z
k ip
en ang
ar e
ar apkan
Ġs atunya
Ġb iaya
Ġdi ikuti
ĠM at
il itas
ari wisata
it er
Ġ202 0
lu ck
Ġf oto
Ġmenc iptakan
Ġhuk um
Ġdiku tip
kip un
P luck
d y
t yas
v en
Ġs ulit
ang sa
Ġt uan
Ġt urut
as ar
ĠP L
ĠP al
ju al
Ġber at
ĠD j
ĠT ong
Ġin vestasi
âĢ Ļ
ĠW ak
ant or
lah kan
Ġga gal
Ġker as
Ġkons umen
Ġdim ulai
Ġtrans fer
engg ara
Ġlok al
ij akan
ĠWor ld
ĠSinga pura
ĠSant os
3 0
P B
b aru
k r
t in
y ek
en o
in er
Ġk ari
Ġb uk
Ġb unga
Ġb egitu
am atan
ĠS u
ĠB andung
ik it
es an
ĠN ot
Ġc ed
Ġmemb angun
Ġmeny atakan
Ġberk at
anti kan
ĠAp ri
Ġtamp ilan
ungkin kan
ĠAd apun
atis ha
ĠSam sung
ĠTan ah
Ġt itik
Ġt ulis
ga han
al ti
ĠS ya
as anya
ĠB adan
ĠM eng
Ġper tumbuhan
Ġter la
Ġmem inta
Ġmem ungkinkan
it h
ĠT rans
ĠN atisha
ĠE v
ĠE x
Ġkar ya
ĠV al
Ġneg eri
Ġdib eri
Ġsed ikit
arga an
imp i
ĠAnd arning
Ġmener ima
ĠMuh am
ĠAndarning tyas
1 1
Ġ ala
an ita
er ita
Ġp unya
at ik
la si
Ġmen em
ad ia
as akan
Ġdan a
ju kan
Ġke ku
Ġper si
Ġmem ulai
Ġin t
id ik
ĠIn tern
Ġmer ek
ĠE ka
Ġak un
Ġak tivitas
ong an
aw atan
asa an
Ġmenga lahkan
Ġmemper kuat
anjut an
ĠPem ain
Ġput ra
1 8
G A
t h
en ch
ĠS im
ĠA I
Ġter tinggi
ela j
Ġmeng umumkan
Ġr uang
ay akan
Ġberk om
ĠAr n
osi s
ĠPol ri
Ġterl ihat
ĠShop ee
Ġmengungk apkan
b o
b on
m at
t is
ak it
Ġt emb
ĠS an
Ġse si
ĠP lay
ĠB esar
ĠL A
Ġpen alti
ĠPer s
ent ina
duk ung
anjut kan
atih an
ĠKom un
Ġmenya m
Ġters angka
Ġpak aian
ĠMes si
Ġkal inya
Ġdibanding kan
Ġmengur angi
Ġced era
p s
r et
u ari
Ġ ikut
Ġp etu
Ġp agi
Ġk re
Ġb ala
Ġdi had
el ola
ĠB as
ĠB ank
ik ha
is a
ĠK T
Ġper awatan
Ġter h
ĠJ on
ĠJ ung
Ġc om
ku ad
Ġberk embang
unc ul
Ġkom itmen
iv o
ĠPen y
ĠPol isi
any i
e i
e ga
k san
Ġ or
Ġp utri
Ġp usat
in o
in ar
Ġmen ilai
am u
Ġber ita
ro id
ra g
aw arkan
Ġga mb
amb il
ula ikha
ĠZ ha
ĠZ ulaikha
unc uran
Ġgr atis
bagi an
Ġperc aya
Ġpengh argaan
Ġdar ing
ĠEs ports
ksan akan
2 2
5 0
j ir
y en
an sir
ĠS n
ĠM u
Ġper i
ur u
Ġh ak
Ġh ubungan
bu l
ĠD r
ĠR onal
ĠC on
ĠG en
ed ung
Ġ1 00
lu kan
lu as
ĠH er
ali fikasi
eg ang
ula si
Ġas sist
Ġdik enal
Ġseh ari
Ġpes an
ĠUni versi
L I
M N
M P
T S
h ya
j en
p ek
z ig
Ġ angka
Ġs emb
Ġt i
ĠA di
ĠM ela
ĠK ec
Ġper temuan
ur o
Ġl intas
ĠJ ika
Ġr endah
Ġla han
arta i
ud uk
ĠF ed
ĠE l
Ġpro f
Ġmeny ebab
ena ga
ip zig
Ġkek alahan
Ġmod el
Ġkeluar ga
ĠNov ember
sta gram
omp ok
Ġterla lu
Ġmenyebab kan
h ut
l ok
y s
z io
Ġm om
Ġs aling
ak u
tu hkan
or k
bu d
Ġ2 3
Ġl atihan
ĠR O
ĠT engah
ĠJ u
and ia
Ġf ak
ab arkan
ic ara
Ġsel anjutnya
Ġpeny el
ĠKe juaraan
ĠBer ikut
int ar
tahan kan
ist ik
tisi pasi
Ġmemen uhi
Ġmenamb ah
Ġpol usi
Ġtu buh
ĠHa e
Ġop tim
Ġdr ama
eles aikan
Ġperi ode
A K
b adi
m pa
Ġd ini
Ġm ata
Ġm antan
Ġt ab
Ġse but
ik ir
ĠK h
ĠD u
im pan
ĠR ah
id hya
ĠL ebih
ĠL ea
ĠN BA
ĠInd ra
ok oh
ab at
ant ara
isi ko
ub ern
Ġwak il
og le
Ġdil ansir
âĢĭâĢĭ âĢĭâĢĭ
fir aEditor
Ġkor ban
ujud kan
Ġfes yen
Ġinov asi
ĠArn idhya
ĠZha firaEditor
ubern ur
E O
g o
m art
o ot
q iy
r om
Ġm il
Ġm eter
Ġp intar
at ch
Ġk a
Ġt ip
Ġmen inggal
ad ah
ĠS ul
ju r
or itas
ĠM em
ĠM al
ĠD ua
ĠC om
uk uran
amp ir
Ġba ga
Ġpro yek
tand ar
ĠSel anjutnya
Ġkec il
Ġkeb ijakan
unj ungan
Ġsuk u
fer ensi
ĠPas al
ĠGo ogle
ĠAri fa
edi akan
zz a
ĠLe ipzig
Ġef ek
ĠRus qiy
Ġmaksim al
ĠRusqiy ati
N one
d ani
e ad
j angan
l is
r ik
Ġ aman
er po
Ġm arat
Ġm uncul
at ian
Ġb ar
Ġmen awarkan
al ur
ĠS um
ĠS uh
ĠS IM
as t
ĠP emb
el uruh
Ġper an
ti c
ĠT el
Ġr ekan
Ġg er
ĠH arga
per an
ab ar
ain kan
Ġban jir
Ġpel uncuran
tur ut
Ġtr en
Ġterd iri
ist an
ci al
ĠMes ki
Ġbu at
Ġon line
tamb ah
ĠWak il
Ġkeku atan
erpo ol
I n
k on
l ip
s h
Ġ &
Ġb intang
Ġt em
Ġt um
Ġt he
Ġmen urun
ĠP or
ĠP ep
ĠB ul
or eh
ĠM ah
ĠM ana
Ġper h
it e
bu si
ĠD in
ĠD ep
Ġl ini
Ġl uas
ĠN us
ĠH and
ĠF IB
ĠU s
eg uh
ĠO P
ati onal
Ġmel uncurkan
Ġo perasi
Ġdik abarkan
Ġ4 0
Ġ201 9
Ġpak ai
Ġdih arapkan
ĠSur yanto
eam ing
ĠPL N
ĠFIB A
j ek
l in
p ar
la im
ak ter
Ġt el
Ġmen ikmati
ad wal
ĠS us
ĠS tr
as pada
ĠA da
Ġber ubah
ap res
ela m
ĠI tu
ol an
ara i
ĠJ am
Ġr encana
ĠG ubernur
eb at
ic e
Ġsi aran
Ġsep eda
Ġlap top
unjung i
Ġtamb ahan
ĠLiv erpool
Ġmenyebut kan
Ġsur at
rag on
Ġbaga imana
C L
b ia
d ian
g en
n er
r as
t ik
Ġ z
Ġ era
Ġp asi
Ġs umber
Ġdi tu
as aran
ĠP am
el se
Ġber ikut
Ġber usaha
Ġber agam
ĠM o
ĠM on
ĠI l
Ġl eg
ĠR usia
ĠT eguh
Ġr eg
Ġr angkaian
Ġkar akter
emp uan
Ġkec epatan
Ġpemb angunan
resi asi
Ġtan ah
ĠRom a
enar nya
ĠJon atan
ĠRonal do
else a
d us
e gah
l es
o ga
Ġp and
at uran
Ġk usta
Ġb arang
un an
Ġdi buka
as e
Ġber upa
ĠM in
ap d
Ġter tu
us ul
il la
Ġ2 6
om a
ĠH asil
ra fi
ab el
eg an
angk ap
Ġmeny i
asil kan
ib atkan
por kan
ĠSh o
Ġma u
Ġgel andang
ES F
Ġcat atan
ĠSn apd
B RI
D M
I C
a iran
d e
g ung
m ar
n ing
r ah
Ġm otor
Ġp ed
Ġs al
ak ai
ak yat
Ġt entu
al en
el anjutan
ĠM el
ĠM ul
ĠK eb
ĠK ons
Ġper empat
ĠI m
ĠT i
Ġmeng ing
om bang
ĠIn f
ĠG ol
ok ovic
Ġj alur
Ġw anita
pat i
Ġkon sist
os ok
ch er
ĠCh elsea
Ġmel anjutkan
Ġkep ala
tand ing
Ġdik on
Ġseh at
ĠAr g
ĠAr s
aman an
ani el
Ġbeb as
Ġstr eaming
Ġsitu asi
ender al
Ġpekerja an
Ġdiberi kan
Ġpersi apan
ĠDin as
ĠSnapd ragon
C T
F A
F P
a z
l or
m asi
w ar
Ġp anggung
Ġk unjungan
Ġb r
Ġb us
ĠS on
es tival
ur ah
Ġmem ainkan
ĠI ESF
ung gu
Ġmeng embangkan
id e
ĠL uk
ĠL alu
et ika
ĠW apres
Ġsem p
re en
Ġga m
Ġmenga jak
Ġv ivo
Ġar ea
Ġmengg elar
angga p
Ġpihak nya
ĠKan ada
elu arkan
Ġkomun itas
ĠNot e
Ġtip is
I N
M L
U n
l y
o kan
s yah
Ġd ampak
Ġp am
in kan
Ġt o
Ġt inggal
Ġdi ta
ĠP R
ĠB l
Ġber akhir
Ġke per
ĠM aru
ala p
bu k
ir o
ĠR ep
ĠJ enderal
uk ur
Ġg inj
adi si
adi ah
ĠE zza
ĠW h
Ġpem ilik
Ġak tor
Ġmeny elesaikan
Ġmeny ediakan
Ġsem angat
ch ni
gun a
le y
aw ab
Ġ5 00
ĠZ aro
olo g
iv e
Ġkel ima
tri busi
Ġhad irkan
ungkin an
Ġgr am
Ġpr ia
af tar
ĠLiv e
utus an
Ġken aikan
ĠSat ri
Ġpop uler
roduk si
ĠDj okovic
ĠSya chni
Ġpetu gas
Ġmenyi apkan
ĠArg entina
ĠMaru f
Ġginj al
ĠSyachni arEditor
e j
w ak
Ġ nya
Ġ ev
en ter
Ġs tandar
Ġk ri
Ġt ri
Ġt arget
Ġdi dukung
ad ang
Ġke empat
ĠM usi
ĠM obil
is ah
ĠK ita
asi tas
Ġl i
Ġun it
ĠJ alan
uk asi
Ġr am
Ġr ingan
ĠIn stagram
Ġg anda
Ġf or
Ġf orm
Ġc oba
ĠW isata
Ġmenc oba
Ġsek olah
uti h
Ġ6 0
tahan an
Ġem isi
Ġman usia
MK G
Ġberd asarkan
uman ia
urun an
ĠBel anda
ks ana
ĠKem udian
yata an
ĠSain t
engkap nya
Ġbuk ti
Ġmenem ukan
osis tem
ĠLA LI
ĠUniversi tas
ĠLALI GA
4 5
B L
s en
s on
s ek
s tr
u gi
an j
en s
Ġp angg
Ġp res
Ġs us
Ġb as
Ġdi ak
al on
ĠB og
ĠB ach
Ġber as
Ġmem er
ek raf
ĠT r
ĠT api
um i
ĠL o
ĠG un
ut h
ĠN egara
ri ani
ĠF r
ĠF estival
ĠInd eks
Ġpem er
ja u
ong k
Ġkem ungkinan
ĠSela ma
unc i
Ġpeny erang
ĠSe bagai
Ġku alifikasi
Ġtr adisi
Ġberp otensi
Ġkeb er
Ġal at
Ġ201 8
Ġbi asanya
ĠLa ut
Ġdem i
Ġput aran
ĠJan ji
Ġjar ingan
egas kan
Ġmakan an
Ġwaj ah
Ġprof esi
F adia
S aya
U MN
z hou
an ad
Ġd asar
ang gu
Ġk anan
Ġb es
Ġb angga
Ġt ekan
Ġmen and
ĠS y
ĠS tar
ĠA m
Ġber in
Ġber peran
ĠM us
ĠK ap
Ġper l
ĠT enggara
ba ikan
ĠH am
Ġmer asakan
ĠW id
uh nya
ant ung
Ġpeng end
end ra
ĠO r
Ġberk elanjutan
ĠV in
ula uan
por a
Ġo per
Ġdiper k
Ġtrans formasi
ĠRos a
ĠRo y
Ġes ports
oc ok
Ġgun a
Ġor gan
ĠLea gue
ĠRep ublik
ĠBach ti
8 0
A p
c ayaan
k op
v id
er at
Ġd om
Ġm itra
at egi
Ġk ot
la ma
Ġdi main
am kan
Ġse bagian
ah as
ĠP C
ĠP ara
ĠP end
ĠP ark
el iti
or ia
eng gar
ĠK as
ĠK BRI
us an
ur i
Ġmem ilih
Ġh iburan
Ġh adiah
ĠD aerah
ĠR umania
ĠT ak
um si
om b
and er
ĠG B
ĠG ar
ĠH ot
ĠF il
ra z
ita si
Ġpeng unjung
ĠâĢ Ķ
atu an
ip ta
ĠV i
ĠY ork
por tasi
Ġek osistem
og rafi
enc e
imp inan
Ġberb asis
Ġkh as
ark as
ĠSer bia
idup an
ĠOl eh
ĠFa jar
Ġim bang
Ġwisata wan
Ġst atus
ĠAh mad
inj aman
Ġlem baga
tral ia
Ġbern ama
Ġgamb ar
ĠMela lui
ĠHand oko
ĠOP PO
ĠArs enal
Ġdimain kan
enggar akan
2 5
A R
T ok
b enar
d ak
e ch
h ati
v a
Ġ up
Ġ ener
an tas
Ġd e
in erja
Ġs tudi
Ġk andang
tu si
ya l
al angan
on ik
on om
ĠS ri
ĠP ri
Ġke juaraan
ala l
ĠK en
ĠK antor
ur na
Ġh abis
Ġh ampir
ol isian
ung gal
ac e
Ġr isiko
alam an
ĠN eg
Ġba wa
Ġc u
Ġc ocok
ant inya
Ġmela ju
ĠO perasi
ib li
Ġmembu tuhkan
ind ung
ind ungan
oh on
Ġind eks
Ġmod e
Ġob at
ĠRed mi
ĠJan uari
ĠBe at
Ġmed is
ĠMuham mad
Ġberkom itmen
Ġberas al
R p
e x
e ar
n ers
o ord
r ak
en tuk
Ġd ah
Ġs akit
Ġb adan
Ġdi ra
ad han
ĠS ak
ĠB a
ĠB UMN
Ġber ta
Ġper ju
us ung
ela ka
ĠD en
ĠD adan
ek tr
Ġl uncurkan
ir a
ĠR e
uk ai
Ġr ut
Ġla ut
Ġpen onton
and i
ab i
Ġak tif
âĢĿ ,
Ġmenc ari
od o
Ġv ersi
Ġsela ku
ind akan
ĠAnd ar
Ġpern yataan
Ġterl ibat
Ġstr ategi
hi on
ond on
tam anya
Ġmew ujudkan
ĠRa uf
epak atan
truk tur
ĠAus tralia
Ġmengu at
ĠAdi pati
hut la
Ġfak tor
Ġprofesi onal
Ġkot ak
ĠAdipati Editor
P K
a ing
f t
w anto
Ġ ang
Ġ engg
er main
Ġm ain
Ġm ilik
Ġp ula
Ġp ember
Ġp ublik
Ġk il
Ġt ema
Ġt ayang
ĠS uk
as on
as hion
ing i
ĠM b
is ti
Ġper ek
Ġper empuan
il e
ir asi
Ġ( @
im antan
ĠT ik
um a
ĠC ar
om ba
ĠL ump
ba wa
ro s
ud in
ĠF F
Ġba yi
Ġf asil
ant angan
Ġser angan
ic i
Ġseb enarnya
Ġmel epas
Ġmenga p
ini x
Ġas uhan
osi asi
tasi un
Ġpas angan
Ġkel ompok
Ġsep akan
Ġpela yanan
Ġbela jar
ĠRam adhan
Ġperk embangan
Ġpri badi
ĠAc eh
Ġso al
Ġjar ak
Ġmenyam but
Ġcom merce
impan an
ĠSul tan
ĠInf inix
Ġkeper cayaan
Ġener gi
ĠNeg eri
elaka an
ĠLump ur
B B
k er
l ow
v el
at asi
Ġb atik
Ġt op
Ġt enaga
kan nya
ĠS k
ĠS umat
ĠS lam
ĠA mb
ĠA FP
el enggarakan
ĠB i
ti an
ĠD o
ĠT ot
ĠJ o
Ġpen angan
Ġpen urunan
ĠN et
ĠF at
ĠW anad
Ġpem impin
ab ang
eg rasi
ja ga
isi k
Ġkar bon
Ġkon t
Ġu ang
le c
ind ari
ĠPro gram
Ġpeny ebab
st an
ĠSe cara
Ġpend ek
Ġi bu
Ġma ju
ĠKemen kominfo
Ġdim ana
av i
Ġdid apat
ĠOl y
ĠMas ter
ateg is
ĠRom ano
ĠAh n
Ġmenjalan kan
unt ung
fir masi
Ġkeh idupan
Ġpet enis
impi ade
Ġpasi en
ĠMobil e
Ġberta juk
ĠWanad riani
C h
g n
m ark
y le
er se
Ġd u
Ġs ana
Ġk amp
Ġk inerja
Ġt unggal
Ġt antangan
ah ari
as ta
ĠA C
ĠB ur
ĠB agi
Ġber ger
ĠK im
ĠK risti
Ġmem utus
ĠD on
ĠD is
ĠD it
ĠD PR
Ġmeng isi
Ġin di
ĠL ap
ĠN U
ĠN ah
ĠH ad
ĠH yo
Ġj elang
ita m
Ġpro vinsi
ob atan
jar lah
pan jangan
era j
Ġmenga d
ĠY ang
inta an
ind ak
ĠBer d
enc an
ten ham
ĠKep ulauan
yo Editor
tim ewa
ĠOl impiade
Ġsesu atu
ĠKal imantan
Ġed ukasi
Ġalam i
Ġsta b
ench en
ĠMu enchen
elam atan
ĠBl ibli
Ap p
ĠTot tenham
ĠOly mp
Ġberger ak
3 6
P L
b i
c aman
o perasi
p on
t inya
at al
in s
Ġs h
Ġmen utup
Ġmen egaskan
ta p
ĠA M
ĠB or
Ġper panjangan
Ġh utan
ĠT ab
ung si
Ġr ef
ĠL ay
Ġla yak
ĠF ran
ĠInd ia
ok asi
ew an
ĠE m
ĠW ire
ĠW atch
ita l
Ġpro dus
Ġtahun an
dit ya
âĢĿ .
re e
Ġser ing
le x
Ġmel ew
Ġpel ari
Ġat uran
Ġpeny impanan
Ġpas ti
Ġmengh asilkan
ĠPersi ja
ĠSem ua
Ġmes ki
ĠRam dani
ats App
ĠTur ki
Ġtambah nya
Ġala san
bul kan
Ġti ba
Ġmom en
ĠRO G
ras truktur
9 0
b es
e or
j akan
u ji
en akan
Ġd ulu
Ġm o
at at
at uh
at ama
Ġmen un
ah a
ĠP e
ĠP ap
ĠA K
Ġke lah
ĠM ak
Ġper t
Ġper airan
ur g
ur asi
ti a
Ġju mpa
Ġh itam
ĠI N
ĠI b
ĠD okter
Ġl ari
Ġl ive
ir u
ĠR AM
ĠT ok
Ġla kukan
Ġpen j
lu si
ĠF A
Ġf in
ĠU lama
ali an
ku si
Ġpem buka
Ġkar tu
ip ina
man Editor
Ġkem arin
Ġker ap
ov er
Ġmemper tahankan
etap kan
Ġpeny anyi
ĠKe jarlah
Ġkes epakatan
Ġpes ta
Ġkec elakaan
ark oba
Ġtrans portasi
uj ian
ĠMes kipun
any e
Ġberju dul
ĠYo u
ĠTur k
ĠKed ua
Ġro da
Ġkap asitas
elan ja
ĠKh usus
par ekraf
ĠWh atsApp
Ġnya man
Ġpangg ilan
Ġindi vid
Ġkelah iran
2 7
H O
k lusi
n o
p ut
w ard
er it
Ġp ic
Ġp utih
Ġs w
Ġs osok
la wan
Ġb encana
em at
Ġmen ekan
ĠS olo
ĠA ku
ĠB aru
or t
or an
Ġber c
Ġke amanan
il angan
ti co
ĠD a
Ġmeng ubah
Ġmeng unjungi
ĠJ oko
ul ih
ĠL y
ut rad
Ġc apai
ab ri
Ġpeng isian
eh atan
man kan
ola k
Ġmenga mankan
Ġked uanya
ulit an
Ġkes eluruh
Ġkes ulitan
Ġyak in
und ang
Ġ7 0
Ġmin im
Ġdir ilis
Ġpelatih an
Ġseri es
ump ul
ĠIs lam
Ġberd ampak
Ġtuju an
Ġmencat at
ĠKar ena
Ġef isi
Ġinf rastruktur
ĠKes ehatan
ĠIntern ational
ĠKomun ikasi
ĠSatri yoEditor
ongk ok
Ġdiperk irakan
ĠBeat les
ĠSumat era
Ġpenangan an
ĠKristi anti
C A
V ID
a el
c ar
f um
l er
n egara
p h
r ist
y ani
Ġ :
Ġ ab
er ahkan
Ġp ariwisata
at istik
Ġs ig
Ġk unci
Ġt okoh
Ġt oreh
Ġdi buat
Ġse se
el e
ĠB ahkan
Ġber ku
ap pe
ĠK alau
Ġper g
us kan
Ġh i
Ġh alal
bu atan
Ġl o
ĠT ekn
ĠT witter
Ġmeng e
Ġmeng in
ĠC el
Ġr un
Ġr uangan
ĠL ia
ĠL ight
et r
ĠH ari
ri g
ĠF er
ĠU l
ĠE k
ab atan
ab rik
Ġmemb ela
Ġtah an
ĠAn ak
Ġkep utusan
Ġberk olaborasi
ec ahkan
Ġan caman
Ġterb atas
Ġpr om
Ġ9 0
men istan
Ġkek er
Ġterl ebih
ĠPersi k
Ġman faat
Ġgel ombang
ĠAt le
Ġik lim
Ġel ektr
ĠSantos aEditor
Ġsemb ilan
ĠKec amatan
Ġsemp urna
Ġpam eran
Ġkri sis
Ġbas ket
Ġtekan an
ĠBachti ar
Ġang in
Ġengg ak
ĠMb appe
ĠPap ua
ĠTurk menistan
Ġkeseluruh an
E D
e ek
j adi
p ro
s or
u ch
v er
z ag
Ġ api
Ġ anda
er e
er ahan
en tr
Ġd aftar
Ġp ulang
Ġmen im
tu al
al o
Ġse bab
ĠP M
ĠP P
ĠA ditya
ĠB at
Ġber g
ik er
ĠM od
is et
es u
ĠK ut
ĠK eh
Ġter t
Ġter buka
us ak
Ġh ati
ĠI BL
Ġ2 8
ir aan
ĠR R
ĠR umah
ĠT V
ĠL ondon
ĠIn form
ĠN omor
se op
Ġf isik
Ġc alon
ĠU p
ĠU CL
Ġw in
Ġw eb
ĠW ar
ĠW ats
udah an
ay di
Ġv ir
Ġv oli
Ġv arian
Ġsela in
Ġdik etahui
ern and
edia an
Ġpr ak
ĠAnd roid
ĠPr atama
Ġri asan
ĠFa ir
Ġmengen akan
anta i
ips et
tah un
Ġsu atu
ont oh
Ġbur uk
ĠJun aydi
ĠSus wanto
Ġtertu lis
sek itar
ĠTik Tok
Ġmemutus kan
ĠBerd asarkan
Ġberku alitas
ĠAtle tico
zag hi
ĠKut cher
. .
A C
A P
I S
P M
S G
U N
l and
p hone
r en
t y
v ar
w ari
x i
Ġ angk
Ġ imp
ar anya
Ġp la
Ġs tar
Ġs olusi
Ġs inar
Ġs mart
Ġk and
Ġt angk
ga la
Ġmen empat
ĠS il
ĠS tasiun
ah aman
ĠP a
ĠP h
ĠP ut
ĠA B
ĠA IM
ĠB eb
ĠB MKG
Ġber tambah
ĠM ay
ĠM ill
ĠK emenangan
ĠR eno
ĠT etap
ĠT aman
ĠT our
ĠJ ak
Ġr angka
ĠIn zaghi
ĠG uang
ĠN o
ĠN ich
ĠF lip
Ġmer ah
Ġf ase
Ġpeng u
Ġtah ap
ĠO p
Ġpo la
Ġkar hutla
Ġmenc egah
Ġhar apan
Ġbers aing
tor at
mb angkan
ĠPro duk
ĠSe ason
ce gahan
ff a
Ġstr ategis
Ġpak et
art emen
ĠLiv ia
Ġtu gas
ĠUS B
Ġag enda
Ġkeh ilangan
sp irasi
Ġperm intaan
Ġbur sa
Ġditem ui
Ġoptim al
Ġmil iter
Ġtum buh
Ġditu tup
ĠFil ipina
tusi as
Ġdah ulu
ĠKristianti Editor
Ġsese orang
ĠWats ons
ĠAIM A
A h
G ermain
T T
b all
j ah
j ung
o und
z a
Ġ gi
en ama
ar tisipasi
Ġm useum
Ġp ung
Ġs und
Ġs upaya
ang erang
ak ar
Ġb ang
Ġt oko
un jukan
ta i
ta in
ĠS i
ĠP es
ĠP ela
ĠB and
Ġke had
is me
ĠK r
ur n
ĠD ay
Ġ2 7
ir w
ĠT ho
Ġmeng angkat
ĠC EO
Ġin ter
Ġin ci
ĠG P
eb ra
Ġg edung
amp aikan
Ġn antinya
Ġj awab
aran kan
man an
Ġban k
ĠV ers
Ġmemper panjang
Ġterb anyak
ĠSe jumlah
ĠSh in
Ġsen ilai
ow i
ow o
Ġdip as
Ġtr eb
if t
ten tu
ĠGr eg
Ġpenting nya
com merce
engg araan
Ġseri al
ĠPas ar
Ġbu ah
ĠMe i
Ġmed ali
Ġberla ga
Ġdic etak
ubung i
Ġtemb akan
ĠBas uki
Ġgam ing
wak ilan
indung i
Ġfasil itas
tap pen
Ġmelew ati
ĠTok yo
ĠNich ol
Ġsund ulan
Ġkehad iran
ĠTho hir
ĠVers tappen
2 9
b el
t witter
w arna
z er
Ġd etik
Ġm inta
Ġp ad
Ġp apan
Ġp artai
at ika
in ing
Ġs aksi
Ġs ambut
Ġk ala
la ck
Ġt aj
Ġt arik
Ġt amu
Ġdi ad
Ġmen ak
Ġmen tal
ad ar
al and
ĠS tor
ĠS umber
ĠP etu
ĠP ariwisata
ĠA u
ĠB ima
ĠB aj
ĠB ag
ing g
is an
ĠK re
Ġper tamanya
il lah
Ġh angat
ĠD emb
ĠR B
ĠR od
ĠT en
Ġr akyat
ĠL ee
ĠG u
ut y
Ġmer ilis
ok umen
ra el
ĠW i
Ġpem ilu
Ġmenjadi kan
ja uh
tr ol
Ġmemb eli
ĠO n
Ġak si
Ġmend atangkan
Ġ3 2
Ġ3 6
ent ar
ent ingan
Ġmel emah
aw aran
Ġberk on
ĠV er
cara z
Ġas ing
Ġsel es
Ġsel engkapnya
ĠAl caraz
ec t
Ġan tusias
Ġdis ampaikan
Ġket at
Ġpela ksana
est inasi
Ġdim iliki
ĠAs hari
Ġ19 9
uas ana
ĠFa isal
ĠGo jek
Ġberju luk
Ġch ipset
Ġberla ku
ĠSal ma
Ġraih an
Ġwaj ib
ĠIr wan
Ġkan al
Ġditem ukan
Ġkari er
Ġbala pan
ĠBul l
Ġberikut nya
Ġkonsist en
Ġli pat
Ġtradisi onal
ĠSak ina
3 5
H K
T I
f r
l iga
n u
p ing
Ġ #
en angkan
Ġd estinasi
Ġp iala
Ġp abrik
at asan
Ġs kuad
Ġs asaran
ak sa
Ġb angsa
tu gal
ĠS ig
ĠP U
ĠA lex
or it
Ġter asa
Ġmem impin
Ġh ebat
Ġl atar
ir ing
im an
ĠC lub
id a
om eter
ba u
ia omi
ĠH o
ĠF or
ĠF itur
ok owi
angk it
Ġkon ferensi
os kop
Ġsem uanya
Ġkep entingan
Ġberk unjung
Ġmusi si
ĠZ ebra
Ġo ff
Ġ4 5
ĠMar c
ĠSe ti
Ġku arta
arn ai
ow er
Ġtamp ak
oh am
ĠKom isi
Ġberp artisipasi
Ġterd ampak
Ġar ah
ĠX avi
ĠLa zio
Ġeks por
Ġe uro
Ġbu atan
Ġtu tur
Ġberju ang
alu asi
Ġid ola
ass r
Ġsitu s
tuju h
arl y
atangan i
Ġmat ahari
Ġro ck
Ġpener ima
Ġmemperk enalkan
qu e
iksa an
isal nya
luk kan
Ġdisi arkan
ven tus
Ġkari r
Ġkre atif
ĠHer u
ĠSuh irw
Ġperh atian
Ġpand emi
ĠSho ffa
ĠTi ongkok
Ġorgan isasi
Ġcu aca
Ġrut in
isti wa
Ġmengap resiasi
ĠFat h
tain ment
Ġtaj am
ĠDemb ele
ĠSuhirw andi
T C
c epat
h en
h awat
i ah
i el
k es
m on
o y
s at
w ai
Ġd uduk
Ġm ist
Ġs ar
Ġs amb
Ġb y
Ġt un
Ġt ua
si apkan
ga ma
al in
ĠS eh
Ġse gala
ah aya
ĠP at
ĠP av
ĠP lus
el ian
ĠB ek
Ġber j
ĠM U
ĠM all
ĠK un
ĠK etika
Ġper b
Ġmem f
ĠT ips
ĠT angerang
Ġmeng etahui
ĠC ol
ĠC risti
ĠC enter
Ġr el
ĠL u
ĠL at
ĠL eg
ĠL ingkungan
Ġpen eliti
ud ukan
ĠG el
ĠG ro
Ġ1 20
ĠN an
emb ak
ok wari
Ġj aj
Ġj angka
Ġpeng obatan
aru an
ĠAr ena
ĠPem ilu
Ġpes awat
ĠDi gital
Ġdila ksanakan
Ġtan aman
ĠX i
Ġlanjut an
Ġman is
ĠIs rael
Ġbertem a
Ġmes in
Ġmes kipun
Ġch ip
tuju an
ĠKan e
Ġterc atat
PB D
ret aris
ĠJu ventus
Ġmarat hon
Ġleg enda
str u
ĠBog or
ĠKap ol
ĠVin ny
Ġmelepas kan
Ġmengad akan
Ġindivid u
utrad ara
ĠEk onomi
Ġprom osi
ĠInform atika
ĠBeb erapa
ĠMill s
ĠGreg oria
ĠSalma Editor
2 00
A Y
E R
F C
P A
e et
i wa
j as
m o
r u
r il
v asi
z in
Ġ /
an sia
Ġd ukung
Ġd orong
Ġd okter
Ġm us
Ġm akin
Ġp at
Ġp injaman
Ġs y
Ġb oleh
Ġb enda
Ġb uka
Ġt es
Ġt ari
Ġt egas
Ġdi w
Ġdi sebut
Ġdi ranc
Ġmen engah
Ġmen onton
ĠS ar
ĠP et
ĠB B
ĠB ang
ĠB lu
ĠB ea
ĠB idang
ĠB raz
ju an
Ġber upaya
ĠM c
ĠM aj
is s
ĠK er
Ġter g
us akan
il le
ur at
ada an
Ġl ansia
ĠR ek
ĠC re
ĠJ oh
ac am
id i
id ana
ĠL eo
ba y
ro p
ud ut
ĠG a
ĠG an
ĠH ak
ĠH idup
ĠF ashion
Ġn on
Ġn arkoba
Ġj arang
Ġpem enang
ian syah
ĠO s
ĠPer usahaan
eta il
ĠY uni
Ġker ing
Ġmemper oleh
Ġsel atan
ungk as
Ġpas okan
og y
ow n
emp ang
Ġkec amatan
ĠSab alen
ingin kan
if a
aksi kan
Ġberl anjut
Ġsamp ah
yo ff
ĠAd e
ĠDes ember
ĠDirek torat
ĠHa aland
ĠMa x
Ġis timewa
Ġsu ara
Ġpar fum
MI I
ĠKu ala
omo tif
Ġtab let
Ġmenurun kan
ĠMana ger
ĠPam ela
onom ian
oord inasi
Ġperek onomian
Ġkamp anye
Ġfin is
Ġmenim bulkan
ĠRR Q
Ġberkon tribusi
Ġseles ai
ĠSakina Editor
Ġdiranc ang
ĠSabalen ka
2 6
D I
J RI
N U
T H
c reen
f e
f oma
j o
j am
j id
p ons
r at
s et
s aham
v ia
v ed
w akan
z i
er al
Ġd a
ar ti
Ġp ot
at m
in ess
Ġs ik
Ġs udut
Ġk lasi
Ġb alik
Ġt ol
Ġt ips
Ġt utup
ah ami
ĠP i
ĠP onsel
ĠP ihak
ĠA g
ĠA min
el l
ĠB ah
ĠB und
Ġber bagi
Ġber terima
ĠM ac
ala gi
Ġper p
Ġper ayaan
il ing
ur en
ur ahan
Ġju stru
ĠI bu
ĠD ikuti
ĠD ort
im foma
ĠR aya
ĠT ai
Ġmeng eluarkan
Ġmeng usung
ĠC up
uk ses
ac o
om end
Ġla hir
and y
alam i
ĠG er
ĠH y
ĠF inal
amp ingi
Ġj angan
Ġj iwa
Ġpem eran
uh kan
emen t
Ġmela ksanakan
ĠâĢ ĵ
ch o
ĠCh i
Ġ3 3
Ġ3 5
asil an
ib ur
ĠY us
ula u
Ġas pek
Ġmemper siapkan
Ġseh arga
20 24
ind ah
tif ikasi
ev isi
st on
Ġdis elenggarakan
Ġdib ander
Ġmemba gi
Ġseri us
ĠPr emi
ĠRo ch
Ġim buh
Ġpelangg aran
Ġso cial
irim an
Ġgun akan
Ġspesi al
bo ard
Ġpenyel enggaraan
ĠPor tugal
adwal kan
Ġbus ana
ĠSon y
Ġram ah
Ġpemer iksaan
Ġmenand atangani
Ġpengend ara
Ġoper asional
hati kan
eraj at
Ġpert unjukan
klusi f
Ġpung gung
ĠKre atif
ĠSig it
ĠCristi ano
ĠDikuti p
Ġdibander ol
O L
T ub
a ir
f ikan
g ak
k ra
l ian
m und
o ok
s us
t eng
er b
er ti
Ġd erajat
ar uh
in h
Ġs uh
Ġs uasana
Ġk abupaten
ak e
ak up
Ġb atas
Ġt id
Ġdi bu
Ġdi ter
Ġmen u
Ġmen ju
Ġmen angkap
am ai
ĠS E
ĠS aham
as h
as tian
ĠP artai
ĠB us
ĠB ud
ĠB atur
ĠB rig
Ġber turut
Ġber arti
ĠM y
ĠM aka
ap atan
ĠK ali
Ġper tahanan
Ġper baikan
Ġper wakilan
Ġter tentu
ĠD av
ek tur
Ġl iga
ĠR empang
ĠT ek
Ġmeng ga
Ġmeng ant
ĠC an
ul angan
ĠL en
Ġpen cegahan
et h
ed ar
Ġini si
ut ar
ĠH ingga
angan i
ĠF itra
ĠU tama
ali kan
ĠW ol
ab ilitas
Ġpeng embang
Ġmeny usul
Ġkon f
os t
ĠCO VID
Ġser upa
Ġbah asa
ingkat kan
ni fikan
Ġker usakan
Ġas li
ĠZ hou
Ġdik laim
ind ahan
Ġkes alahan
ĠBer b
ĠBer k
ĠPen ga
res s
Ġpemb alap
Ġpemb elian
ĠMan okwari
Ġmenghad iri
apai an
ĠX iaomi
Ġtent unya
Ġbi oskop
Ġsuk a
Ġmod ern
Ġeks p
itra an
ij ing
ĠQ atar
ĠKal teng
Ġterp ilih
etah uan
unt ungan
ĠEn ter
rad en
ĠAk tor
Ġ25 6
Ġop si
Ġpri oritas
sp ur
Ġed isi
ling ham
truk si
ĠAb dul
Ġtem an
ĠNus antara
ĠIm am
Ġsus u
ĠSy ifa
Ġperl indungan
ĠHot spur
Ġkil ometer
ĠFF ML
Ġprodus en
Ġpembuka an
ĠYou Tub
Ġsw asta
Ġsig nifikan
Ġwin ners
Ġsmart phone
Ġtreb le
Ġkuarta l
ĠFath ur
Ġjaj aran
ogy akarta
ĠDort mund
omend asi
ĠRoch manEditor
kra ina
Ġtid ur
ĠBatur raden
ĠYouTub e
7 0
7 5
D aniel
b ar
d in
e u
e ja
h ton
j aya
l ed
m ala
o od
p roduk
r us
u e
u ga
u gr
y ono
z en
Ġ @
Ġ ????
er ina
Ġp residen
at ing
Ġt ra
Ġdi se
Ġdi umumkan
Ġdi bawa
Ġmen tah
al ph
ĠS EA
ĠS tudi
ah abatan
ĠP ar
el uang
Ġber f
Ġber ad
Ġke la
Ġke tujuh
ik ro
ĠM il
il angkan
ur angan
ĠD ec
ir ku
ĠR S
ĠR i
ĠR iz
um bang
Ġmeng atasi
ĠJ okowi
uk kan
Ġr ob
Ġr ent
ĠL ib
ĠIn vestasi
ia u
Ġg anggu
ĠN or
ĠN ic
adi o
ĠF ar
Ġn yata
Ġc abang
Ġw aspada
ĠW eek
Ġpem ahaman
Ġmemb ahas
ĠO lahraga
Ġmeny er
op si
ĠPer dagangan
re al
udah kan
asil itasi
Ġker eta
Ġdik enakan
20 22
ani tia
Ġdis kusi
unya i
ag ang
ow s
res h
Ġpes epak
elas an
Ġi zin
ingin an
Ġdila porkan
Ġ201 6
Ġ8 0
akhir i
lat ul
Ġmengak ui
Ġangg aran
Ġproses or
Ġmemp unyai
ank er
Ġmana j
Ġis u
alik nya
Ġik lan
kr im
Ġint ensi
âĢĭâĢĭâĢĭâĢĭ âĢĭâĢĭ
Ġger ai
ĠMon aco
Ġmenging atkan
Ġev aluasi
ĠPend idikan
ĠGar uda
ĠLy on
Ġtoreh an
Ġhi jau
ĠPut ra
Ġbang et
ĠAshari Editor
hawat iran
ĠHak im
Ġmembagi kan
Ġsuh u
ĠEnter tainment
4 0
A n
D i
G P
M en
O TA
S M
a jak
b our
e gal
h y
i or
l eksi
o ti
r ut
s o
v ok
w at
y ev
¸ ı
ï ¸ı
Ġ ah
er gi
Ġm ati
Ġm arkas
Ġp ilih
Ġp ikir
at o
Ġk iri
Ġk anker
Ġb elanja
on er
Ġse luas
Ġse iring
ah i
ĠP ulau
ĠA wan
Ġber encana
Ġber ukuran
Ġber warna
ĠM ur
ĠM oto
ĠM antan
ap tasi
ĠK lub
Ġper istiwa
us nya
ur uan
asi f
ti ga
Ġmem ad
Ġmem akai
Ġmem ecahkan
Ġju al
ela p
ĠI k
ir ian
ĠT ri
ĠT MII
um as
ĠC op
ĠC arl
ĠJ ef
ul ar
ĠL angkah
and alkan
Ġg em
ut ing
ut anan
ĠN ik
ĠN ey
ĠH ang
ĠH end
ĠF ujian
Ġmer es
ĠU kraina
ĠE r
Ġpem buatan
Ġpeng elola
Ġa jak
ĠO ff
ĠO ne
Ġmeny enangkan
Ġata upun
ĠCh risti
ĠAn t
ĠAn war
Ġmel ibatkan
Ġv isi
Ġked udukan
Ġker ugi
ĠMen pora
ĠPro f
bak ar
osi si
Ġpeny er
Ġterb ang
ĠSe jak
ĠSh erina
Ġkali an
Ġtr ad
Ġdil uncurkan
ebut kan
Ġkons ol
ĠKom info
Ġdiper lukan
Ġpengg anti
av orit
Ġdid atangkan
ĠTer ima
ĠMenurut nya
ĠFa ish
entu kan
Ġgel aran
Ġkomp on
99 9
ĠBel lingham
ĠSo ci
ĠYo ung
Ġdij adwalkan
ĠIntern asional
ĠDu ta
Ġdikon firmasi
ĠMus lim
ĠPri x
ĠBur sa
ĠNah d
Ġstab il
ĠAM D
ĠTekn ologi
Ġmenge jar
Ġvir tual
Ġkand ungan
ĠPetu alangan
fr ika
jas ama
ĠBraz il
Ġah li
ĠNey mar
Ġkerugi an
ĠFaish al
7 8
A I
H SG
N E
b it
d ayaan
h ai
h ana
o per
s ur
w arkan
y ang
z e
Ã ©
Ġ ikuti
Ġ ukuran
Ġp in
Ġp il
Ġs ub
Ġs utradara
ang gi
Ġk un
Ġk antor
Ġb iru
Ġt angga
si t
si di
em udi
Ġdi jual
Ġdi ambil
ĠS ula
ĠS andia
ah lawan
ĠA kan
ĠB ant
ĠB antu
ĠB TS
ĠB umi
Ġber tanding
Ġper gi
Ġter ima
Ġter bakar
il y
il and
ur t
Ġmem udahkan
ĠD e
ĠD ar
ĠD em
ĠD im
ĠD aniel
ĠR y
ĠR ob
ĠR ober
Ġmeng andung
Ġin stan
ĠJ ul
ĠJ os
ĠJ af
Ġr ep
Ġr eal
ĠL os
ĠL ith
ata an
and o
ud uki
ĠG edung
eb r
ed ik
Ġg o
Ġg ula
ĠH as
ĠF ind
ĠInd ustri
ĠInd oro
Ġj atuh
Ġw ith
ĠW ater
ĠW ilayah
end s
Ġmela inkan
tr is
Ġmeny erang
ati ve
os an
ip oti
ay u
Ġpers ahabatan
Ġmel engkapi
Ġga s
Ġga un
uan ia
had apan
ons umsi
Ġkem atian
ĠY ogyakarta
ĠZ h
Ġsaya p
Ġ4 4
Ġan ti
ĠMar cel
ĠMar ket
ĠSe tiap
Ġdib angun
ĠBer ita
Ġmembuat nya
ĠPol res
ĠAp ril
angka u
las h
Ġberp eluang
Ġpela jar
est ari
Ġar us
Ġdiper kuat
Ġdit ingkatkan
eks p
Ġmemas ukkan
istr asi
ban k
ĠPeng guna
Ġkur si
Ġob or
Ġum ur
Ġdin ilai
Ġkal angan
ĠLi onel
Ġhuk uman
Ġucap nya
ĠMed ved
Ġseni or
ĠSantos o
Ġmeninggal kan
Ġmarat on
Ġsal uran
Ġmenging at
ĠWid odo
dak nya
ech n
ĠIb nu
erit akan
Ġmenempat i
ĠSil va
ĠOp po
Ġdiad akan
ĠRod ri
ĠLat via
Ġpeneliti an
ĠBB M
Ġklasi k
Ġmenju arai
ĠLib ya
Ġganggu an
ĠNahd latul
ĠSandia ga
ĠLith uania
ĠIndoro ck
ipoti roid
ĠMedved ev
3 8
K B
K P
L O
a juan
d an
f itur
k us
k ota
l ih
o u
y ukur
Ġ ????????
Ġd ingin
ar en
Ġm ir
Ġm atang
Ġp e
Ġp ita
Ġp ec
Ġp ark
Ġp uas
in ting
Ġs ingkat
Ġk abar
Ġk isah
ak kan
ak ah
Ġt indakan
em as
Ġdi alami
ad inya
ĠS ub
ĠS idik
ĠP ekan
ĠA v
ĠB an
or a
Ġber tu
Ġber hadapan
ik ri
ĠM P
ĠM i
ĠK ud
Ġper se
Ġter tahan
il ater
ur us
ur uk
Ġmem ori
Ġh id
Ġh alaman
ĠD ev
ek tivitas
Ġl engkap
Ġl iter
Ġun d
Ġun ik
im inal
ĠR un
Ġmeng ar
Ġmeng ec
Ġmeng irim
ĠC A
ĠC ak
ĠC all
ĠJ us
om atis
ĠL ew
ĠL isa
ĠH U
ĠH ans
ĠF old
Ġmer ayakan
Ġf avorit
Ġc uma
Ġmenj elang
Ġmenj amu
Ġj o
ĠW est
Ġpeng etahuan
Ġtim ur
ĠPer tandingan
eka an
Ġ3 1
Ġ3 4
ent ari
ila l
Ġmenc akup
Ġsek su
Ġset ara
di um
amb ang
era gam
Ġmemper luas
ĠAl di
unc ur
Ġ4 6
ĠMar at
ĠMar oko
Ġdis abilitas
ĠUn dang
ĠPen er
ĠSh ang
Ġkec antikan
ha iland
int egrasi
Ġkons ep
baik i
Ġdepan nya
Ġpr emi
ĠKep a
ĠKep olisian
Ġtrans aksi
Ġkek hawatiran
Ġstr iker
Ġmemas uki
ĠMari o
Ġpenc apaian
Ġmener apkan
Ġ200 8
erd asan
Ġmat eri
ĠSek retaris
Ġfes tival
engar uhi
ĠSw ift
Ġot ot
enti tas
ĠTrans fer
ĠKT T
Ġterh ubung
adah al
Ġbar el
ĠDep artemen
ĠUs aha
ĠMul ti
Ġmemer lukan
Ġperju angan
abri zio
Ġefisi ensi
Ġstar tup
ĠTetap i
ĠGuang xi
iel d
Ġmemf asilitasi
Ġsy uting
ĠTai wan
ĠPremi er
irku it
/ /
: //
H z
O N
R T
T h
T he
X PO
b angan
d ilan
h al
j olan
n ografi
o ul
s atunya
t ps
u it
Ġ ul
er ing
Ġm and
Ġm isalnya
Ġs ol
Ġs ila
Ġs ilang
Ġs ambil
Ġb utu
Ġt adi
si k
Ġdi man
Ġdi bagi
ga man
am anya
on c
on i
ĠS l
ĠS atu
ĠS DM
as ang
ĠP o
ĠP ed
ĠA frika
el lo
ĠB anyak
Ġke uangan
Ġke untungan
ing atan
ĠM end
ĠM uda
ĠM oham
ĠK ond
ĠK JRI
ari a
Ġmem egang
Ġju di
it an
ĠD aya
ĠD ewan
Ġl imfoma
im bau
ĠT iga
ĠT NI
Ġmeng end
ĠC ip
Ġr e
Ġr up
ĠL ima
et an
ĠG inting
ed akan
Ġg en
ĠN ugr
ri c
up uk
Ġn g
Ġf il
Ġf ot
Ġj asa
Ġw e
ua w
ĠE ko
ot akan
ab ila
ian i
ian o
Ġmela porkan
Ġa gama
Ġmeny arankan
ip uti
ĠPer m
Ġad egan
Ġmel iputi
ĠV en
Ġked atangan
Ġproduk tif
Ġdik embangkan
ĠAl l
Ġdis ambut
Ġdis erta
ĠBer sama
abu an
ĠBar ca
int angi
Ġpend uduk
ĠMan e
tiv asi
Ġmengh ilangkan
Ġ201 0
Ġdiper dag
ard o
tar ik
Ġdim inta
umum an
Ġtrans p
aris an
Ġpenggemar nya
uj ung
ump ang
Ġst atistik
Ġdih ubungi
ĠKal tim
ĠStadi um
Ġperk iraan
tra it
Ġinf eksi
Ġinov atif
Ġterc ipta
Ġkomun ikasi
ĠSain z
bo x
Ġdihad iri
oot ball
Ġefek tif
ĠIl ham
Ġbr and
Ġdita warkan
Ġpres tasi
Ġdira ih
ici al
Ġdidapat kan
ĠMaster son
encan akan
ĠBor us
Ġkeker ingan
Ġelektr onik
ernand ez
ĠStor e
Ġpelaksana an
ĠGro up
ĠPet enis
bay aran
ĠCarl os
ĠRy zen
ĠJaf ar
ilater al
Ġseksu al
ĠMarat hon
Ġpremi um
Ġdiserta i
Ġdiperdag angkan
B S
E XPO
F i
H L
P er
S e
S IM
i at
k e
k en
l ar
m u
o uth
y u
y ana
y angkan
er asi
en tikan
Ġd okumen
Ġp ip
Ġs at
Ġs un
Ġs uper
Ġk ul
Ġk lik
Ġt h
si p
un tu
Ġdi isi
Ġmen jual
al ih
ĠS is
ĠP an
ĠA ward
ĠB ot
Ġber ani
ik o
ĠM L
ĠM un
ĠM ini
es liga
asi t
Ġju dul
Ġh ot
Ġh ilang
ol l
ĠD y
ĠD iv
ĠD ewa
ek u
ek ali
Ġ2 9
Ġl ihat
Ġl iburan
Ġl omba
ĠR ay
ĠR iv
ĠR ich
ĠR iau
ĠJ e
uk u
Ġr um
om e
ĠL uc
ĠL intas
Ġpen jaga
ĠG eta
ĠG lobal
ĠF I
Ġn ar
Ġc erah
Ġmenj alin
Ġw asit
ĠE mp
ĠW ali
Ġpem egang
Ġpem bayaran
ant ang
Ġpeng umuman
ian jur
isi h
isi al
Ġmemb en
Ġmemb entuk
Ġmeny aksikan
Ġmend uduki
os er
ub es
ĠPer tam
da y
Ġ3 8
duk kan
Ġmel atih
Ġmel indungi
Ġmel uncur
Ġga bung
yar at
Ġkep em
angg ar
ov e
ov asi
Ġmemper cepat
Ġmemper ebutkan
Ġproduk tivitas
Ġsel uler
ec tor
mb at
osi kan
ĠMar et
Ġdip roduksi
Ġpend apatan
Ġpemb aruan
tiv e
Ġhal us
Ġ201 7
est ina
mp u
ĠLa ura
com m
Ġterbaik nya
ĠSeb anyak
Ġrek aman
ĠQ ual
Ġjalan nya
Ġbersi ap
AS EAN
Ġid entitas
ĠPO N
Ġmemperk irakan
Ġot omotif
Ġot omatis
Ġdebut nya
ĠKon ferensi
elaj ari
elaj aran
Ġassist s
bud ayaan
rom osikan
ĠNus a
Ġreg ulasi
lor asi
ĠLuk aku
Ġpendek atan
ĠDit o
jadi an
Ġdipas tikan
ĠBaj o
ĠBek asi
ĠKun is
ĠLeg ends
inh ua
Ġinisi atif
Ġpark ir
ĠKud us
Ġmand iri
Ġdiman faatkan
ĠGeta fe
ĠPertam ina
0 9
7 3
A N
C S
C on
G T
K J
K emen
L aren
O S
P T
P od
S t
T E
U S
b ilitas
c ast
d es
g anya
h asilan
i que
l emen
m ara
m adi
m inya
n ama
o em
o alan
r ari
s ediaan
v itas
er y
en i
Ġd el
Ġd ek
Ġd ef
ar unya
Ġm et
Ġp impinan
Ġs l
Ġk abel
ak wa
Ġb ilateral
Ġt emp
Ġt anda
si pasi
un kan
Ġdi aman
Ġdi tambah
Ġmen aik
ad em
ad or
ad uan
al og
am era
on ic
Ġse baga
Ġse usai
ĠP ul
ĠP res
ĠA P
el is
ĠB am
ĠB ola
ĠB ukan
ĠB ig
ĠB anda
ĠB PBD
Ġber i
Ġber ak
Ġber isi
Ġber tujuan
ik ahan
ĠM ich
ap ar
is k
ala s
ĠK C
ĠK a
Ġter ang
asi a
it s
ĠD el
ĠD ubes
ara b
ĠR M
ĠR ad
ĠR ub
ĠR af
ĠR alph
ĠC or
ĠJ er
Ġr ata
Ġr ate
Ġ20 00
om an
om inasi
ĠIn formasi
Ġdari pada
ro ses
et z
et is
et nam
and al
ĠG ul
ĠG ener
ĠN as
ĠN ap
ĠH ind
ĠF E
amp us
Ġmer ebut
se ille
Ġc el
Ġc ontoh
ĠU E
ĠU V
Ġj enama
ew as
alah kan
Ġpeng iriman
end o
angk apan
ĠâĢ ĭ
yak ini
Ġkon gen
Ġdapat kan
ĠPer h
ĠPer aturan
ĠCh arl
Ġpers a
Ġsek s
ic u
Ġkep olisian
di es
Ġberk es
ĠV ir
Ġbers eragam
Ġas uhnya
for d
Ġdik eluarkan
ĠAl v
Ġres olusi
Ġres minya
ĠAr da
uar di
ĠMar tin
ĠMar seille
ĠKe budayaan
Ġbeb an
gus t
Ġterb arunya
Ġkes an
ig h
anti sipasi
ag li
Ġkec erdasan
Ġsi ang
Ġi alah
Ġmemba wakan
ĠKom ite
Ġap ik
Ġberp end
Ġ0 8
Ġpan tai
Ġmengh indari
Ġters ebar
Ġketer sediaan
Ġmin um
Ġpern ikahan
bab kan
Ġdit etapkan
Ġmengak ses
likasi kan
any akan
Ġintern al
Ġintern et
Ġsis wa
anc am
Ġim por
Ġterk ena
Ġterk enal
ĠSt eam
ĠHa ag
awat ir
anta u
Ġdin am
Ġag ensi
aksim alkan
aks ud
aks ono
ĠEd y
Ġinf lasi
ey ang
Ġmat ch
Ġlem but
ĠHar ry
ĠPB NU
Ġpet ern
Ġpener bangan
engar uh
ĠNew cast
ĠAus tr
PS G
ĠPal embang
ĠPal estina
ĠSim ons
ĠPers atuan
ĠKT P
ĠCom m
ĠKas oem
Ġref resh
ĠFran k
ĠPe arly
ĠAK HL
etr on
Ġtert inggal
Ġpla yoff
ĠPa ul
ĠFor um
ĠSeh ingga
ĠBund esliga
vok al
ĠMoto GP
Ġkompon en
ĠSoci ed
ĠCak ra
ĠShang hai
Ġsila m
ĠBorus sia
ĠQual comm
Pod s
Ġdiaman kan
agli ari
ĠNewcast le
ĠAKHL AK
5 3
6 8
6 9
E N
K C
P D
b ek
b ack
c an
f at
i e
i asaan
n an
o lahraga
p em
p op
s creen
t el
Ġ â
Ġ ilm
Ġ umumkan
en om
Ġd o
Ġd etail
Ġm ar
Ġm elah
Ġm impi
Ġm ikro
Ġp ay
at ori
in k
Ġs olo
Ġk ain
Ġk ampung
ak aran
Ġb ila
Ġb angkit
Ġt aman
em an
un da
al s
am at
am eyang
ĠS M
ĠS ky
Ġse gi
ĠA ub
ĠB L
ĠB ung
ĠB ro
Ġber se
Ġber awan
Ġke enam
ing le
is ar
es m
ĠK end
ĠK az
Ġper ingatan
Ġter m
Ġter atas
ari bu
ti e
ĠD ek
ĠD ata
ĠD OTA
ir mala
Ġun sur
im er
ĠT O
Ġmeng uc
Ġmeng andalkan
ĠC itar
Ġin s
Ġin ti
Ġin ves
ĠJ A
ac ara
ul l
ul unya
om as
ĠL as
and eng
and ra
ĠG us
eb asan
Ġ202 6
ed aan
ut o
ĠN TT
ĠN irmala
ĠF ak
ĠF adia
emb us
Ġc ap
Ġc amp
Ġj adwal
Ġw ater
ĠE ur
ĠW ic
Ġpeng aturan
ĠO b
ĠPer c
gun aan
aw al
angg ulangan
Ġkem udahan
Ġkem ajuan
ov o
20 19
ĠKe giatan
Ġneg atif
ĠBer lin
Ġbersama an
og an
Ġsed er
Ġsen tral
ag o
Ġpend amp
Ġsi apa
Ġsi apkan
Ġpemb eli
Ġhad api
Ġkh awatir
Ġsk ema
ĠKom bes
Ġind ah
ĠKemen parekraf
Ġjuta an
Ġsekitar nya
kait an
Ġpol isi
ham dul
ez u
ĠMas yarakat
Ġpenc etak
Ġsis a
Ġand alan
Ġtingkat kan
Ġmemp roduksi
Ġmemp elajari
Ġmemp romosikan
Ġbak teri
Ġpenampilan nya
Ġmew ah
Ġberm arkas
oro ti
kar mat
ĠPeny erang
ĠRah man
Ġger akan
alen ta
Un dang
olog y
ej ala
Ġdiak ses
ĠSultan Editor
ĠAmb on
mark t
ĠLay anan
ĠWire Editor
eor ologi
Ġpenj ara
ulih an
pro v
ĠAu gust
Ġsar ana
ĠNan ning
Ġtari f
ĠDav id
Ġkonf lik
Ġmanaj emen
Ġintensi tas
bour ne
ĠHang zhou
ĠHend ri
Ġpenyer apan
edik si
ĠTransfer markt
ĠML BB
Ġkongen ital
ĠCharl es
enom ena
Ġmelah irkan
ĠAub ameyang
Ġberse jarah
ĠCitar um
ĠWic aksono
hamdul illah
3 2
4 9
6 0
H ilal
I A
I I
K u
P ers
S D
T B
W I
X GT
c ed
e at
j in
k ot
n ilai
r ol
t tps
w o
w ali
Ġ x
Ġ ur
Ġ ok
an anya
en ga
Ġm e
Ġm m
Ġm urah
Ġp idana
Ġp ajak
at ek
in da
Ġs up
Ġs ayang
Ġs imb
Ġb end
Ġt al
Ġt awaran
Ġt alenta
Ġmen unggu
am in
ĠS P
ĠS ev
ĠS pesi
ĠP ok
ĠP upuk
ĠA T
ĠA ur
ĠB ala
ĠB ill
ĠB CA
Ġber unt
Ġber olahraga
Ġber kaitan
Ġke adaan
Ġke jadian
ik e
ik ah
ik el
ĠM ir
ĠM ali
Ġper tahankan
ur ing
Ġmem ahami
ela k
Ġh ipotiroid
Ġh ttps
ĠI var
ek atan
ir k
ir ona
ĠR akyat
ĠR AP
ĠT a
ĠT hailand
ung g
Ġmeng k
Ġmeng uas
Ġmeng imbau
Ġmeng ancam
ĠC ianjur
ĠC agliari
ĠJ en
uk um
ac ket
Ġr angk
Ġ20 30
ĠG arn
eb ak
Ġg ro
Ġg aris
ĠN int
ĠN assr
adi un
ĠH on
ĠH uaw
Ġba ju
Ġw adah
ew s
ra ja
ĠE ks
ĠW al
Ġpem an
end iri
Ġpro t
Ġak rab
Ġkon ektivitas
ĠPer se
ĠPer etz
Ġmel anggar
aw asan
uan sa
Ġberk ari
Ġbers yukur
Ġkem itraan
Ġkem eja
ov en
Ġsel isih
20 20
ĠMar co
Ġdis apa
Ġkes elamatan
ĠPen j
aj al
Ġsen sor
ĠPem prov
ĠMan ila
Ġsep akat
Ġap akah
Ġkeb iasaan
ĠKemen kes
Ġal ih
Ġ201 4
est ik
est yle
Ġtekn is
Ġsa ing
ĠLa uren
wi atek
Ġmin uman
eks tur
af e
Ġmengak ibatkan
our n
lo x
ĠPas aribu
Ġsosial isasi
atur al
ĠSem arang
ord an
ĠAri e
Ġmobil itas
ĠSam sat
NI Q
ĠBe ijing
Ġberm otor
ĠAng g
ĠKed iri
te in
PU P
ĠHar apan
Ġpener apan
Ġbert anggung
angsa an
Ġtemb us
Ġmenyam akan
ega si
ĠIndra wan
ĠMal ut
sh ip
ĠVi etnam
ohon an
Ġperju dian
ĠOlymp ique
esu aikan
PM G
ĠAB K
Ġgi gi
Ġmenak lukkan
ĠJoh n
ĠBus iness
Ġdise babkan
ĠMur yono
anggi h
ĠRob lox
echn ology
Ġul tra
Ġkul iner
Ġhot el
lemen tasi
Ġmenaik kan
ĠBig etron
ĠNap oli
ĠAlv iansyah
Ġberpend apat
Ġmenguc apkan
ezu ela
Ġsimb ol
Ġberunt un
Ġmenguas ai
ĠNint endo
ĠHuaw ei
4 6
5 00
7 7
B P
E C
I Z
N F
N M
c t
c ak
c al
d ana
f et
j ib
o ol
r utan
y or
Ġ urut
an usia
en e
ar y
ar ya
Ġp indah
Ġp anitia
in jau
ang ku
Ġk os
Ġb o
Ġb asis
Ġb ulu
Ġb eli
Ġt it
Ġt eg
si te
em outh
un ting
un yi
Ġdi ga
Ġdi anggap
Ġmen ahan
Ġmen arget
Ġmen embus
on ya
ĠS ari
ĠS om
ĠS kuad
ĠS wiatek
as inya
ĠP ak
ĠP resi
ĠA j
ĠA wal
ĠA ji
ĠA gam
ĠB NI
ĠB lack
ĠB ourn
Ġber angkat
Ġke tahanan
ik on
ĠM ic
ĠM adiun
es la
ĠK ag
Ġper ila
Ġter in
Ġter ny
us t
ti b
Ġh ere
it ung
ĠD ilan
ek ad
Ġl ebat
Ġl uring
ĠR iset
ĠT u
ĠT or
ĠT entu
ĠT iket
ung gah
ĠC l
ĠC adi
ĠC ow
ĠJ ud
ac u
Ġr apat
Ġr iset
gi o
ul uh
ĠL og
ba yar
ro t
ud din
ĠG as
ĠG ov
eb arkan
eb ook
ed it
Ġg uru
ĠN CT
ĠH ead
ĠF abrizio
amp G
Ġn amanya
Ġmer usak
Ġf ungsi
Ġc itra
ĠE A
Ġpem ad
Ġpem as
Ġpem ulihan
Ġpem angku
ant ik
Ġpeng usaha
Ġa yat
Ġpro tein
ĠâĢ ĺ
Ġmeny esuaikan
Ġtahun nya
ĠPer ju
ĠCh rom
ina an
ent ing
ay angan
ĠV ic
era zz
Ġ5 12
Ġas et
ĠAl d
ĠAl mer
Ġ4 8
ĠAS IC
ĠAS US
Ġres tor
Ġkom edi
20 17
20 21
tif kan
Ġhari an
ev an
ĠKe uangan
Ġdib ekali
Ġpas ang
Ġpas tikan
ig o
ĠPen ang
aj ah
ĠSel uruh
Ġdip akai
li x
Ġdil ihat
Ġkons umsi
Ġap resiasi
erinta han
Ġterj adinya
Ġung gahan
Ġberl ari
Ġpan tas
Ġters endiri
Ġar tis
Ġmin at
ĠAs osiasi
Ġmod al
ĠDir ector
Ġeks klusif
ĠPr am
ee tie
Ġlanjut nya
Ġman uf
ĠGam e
ĠGam ing
entu m
Ġketerangan nya
po in
Ġterk ini
ĠSem oga
ĠMet eorologi
ne y
ĠKar ya
Ġperc epatan
ĠEn g
ĠBr emen
fa atan
ĠLi gue
unga i
Ġmul us
Ġmul ti
Ġperm ohonan
yan mar
ĠSw eetie
ĠJuni or
Ġkap ten
Ġspesi alis
baru i
ĠMuham madi
Ġdihad irkan
Ġaman kan
ĠStr eet
aspada i
ĠMel bourne
buk ti
Ġdiak ui
Ġbes erta
Ġberin isial
Ġdom estik
ĠVi ew
Ch ina
umpul kan
ĠFer rari
ĠMay bank
Ġpengu asaan
ĠKr iminal
ĠPU PR
Ġperb edaan
Ġrel evan
ĠMc Laren
Ġda ur
ukses an
Ġimbuh nya
Ġmengant arkan
ĠLen ovo
krim sus
ĠIk lim
ĠAnt hon
ĠBant en
ebr uari
ĠMarket ing
Ġbutu h
Ġdibagi kan
Ġberak tivitas
ĠRaf ael
ĠGul karmat
ĠUE FA
Ġpersa ingan
Ġilm u
IZ E
ĠBourn emouth
ĠKag endra
Ġterny ata
ĠDilan sir
ĠCadi z
ĠAlmer ia
ĠASIC S
ĠMuhammadi yah
2 8
3 3
7 4
9 5
W F
b angkan
c aya
d ent
d ers
d uc
e ed
f urt
f lix
j ata
j ikan
l om
o ft
r ata
t ung
u el
u ff
v an
y atakan
z on
Ġ amb
Ġ umat
en tasi
ar usnya
Ġm isi
Ġs yarat
Ġs ingle
ang it
Ġk emen
la k
la gu
ak tur
ak ili
Ġb angunan
Ġt as
Ġt uk
Ġt ulang
Ġt ewas
em bab
Ġdi tahan
Ġmen elan
Ġmen etapkan
Ġmen angani
ad u
tu re
am e
on j
on is
ĠS U
ĠS un
ĠS uj
ĠS af
ĠS PO
ĠS ayang
Ġse jalan
Ġse jauh
ĠA z
el atan
ĠB h
or al
Ġber untung
Ġber operasi
eng arkan
ik in
ĠM or
ĠM ungkin
ĠM erah
ĠM ode
ĠM yanmar
is u
ĠK ampung
Ġper ti
us a
il d
ur ang
ti r
Ġh ewan
ĠI M
ĠI HSG
ol t
ĠD C
ĠD er
ĠD uty
ĠD KJ
Ġl engan
Ġl emah
Ġl anc
ĠT uhan
ĠT own
um ur
um bu
Ġmeng atur
Ġmeng oleksi
Ġmeng eksp
ĠC S
ĠC y
ĠC ap
ĠC ukai
ul us
ĠL uh
ĠL ec
ĠL aga
ĠL ions
ĠL abuan
ba i
Ġpen ya
Ġpen utup
Ġpen umpang
ĠG eor
ĠG uardi
Ġg ejala
adi kan
ĠH P
ĠF ir
emb atan
Ġdalam nya
Ġn atural
Ġf enomena
Ġc urah
Ġc anggih
ĠU N
ĠU NIQ
Ġj erse
ĠE mas
ĠW in
Ġpem buat
end ara
end arEditor
tr y
ebih an
ain ya
Ġsem oga
ob i
man en
Ġad min
re ad
Ġpers oalan
ic a
Ġberk oordinasi
ĠV igo
Ġhar ap
Ġv is
Ġv ari
Ġmembu ahkan
Ġsela mat
ĠZ en
Ġdik irim
Ġseh arusnya
ensi f
ĠAr is
mb ung
Ġkes uksesan
Ġdib aca
Ġpas ca
og o
Ġmelakukan nya
ĠAp ep
ag n
res krimsus
aga ma
Ġdigital isasi
ist is
Ġben jolan
Ġawal nya
Ġterl etak
Ġmemen angi
Ġdir ek
lan tas
lan tasi
egi onal
ĠMad ura
Ġeks tr
ĠRo ck
ĠPutri Editor
ond o
ĠSet yor
rab owo
Ġkomp oser
Ġob jek
Ġmobil e
ĠBr un
ĠBr ent
Ġag en
ass ador
Ġmew akili
ĠTan jung
wit ch
iaya an
erd ekaan
inc ang
Ġperm uk
ĠTh ur
ĠPB SI
ĠSek arang
imb angan
ĠRes erse
Ġumum nya
abis kan
Ġspesi fikasi
Ġdihad api
ĠFed er
Ġmom entum
ĠSuh endarEditor
ĠPemb angunan
In ter
Ġz ona
CT V
ML BB
ĠBog dan
Ġkeber hasilan
ĠKen ta
ĠSuk ma
ĠSk or
ĠNet flix
Ġmo tif
Ġminim al
Ġab sen
Ġperg uruan
Ġlo gam
ĠUl tra
ĠMod el
ĠUp aya
ingg inya
ĠGan jar
atm iko
ĠTek ken
ĠPenga dilan
eu er
ĠFar han
asif ik
lih atkan
Ġbertu gas
ĠKond isi
Ġfot ografi
ĠVen ezuela
ĠSocied ad
atori um
Ku ala
Pers ero
ĠSev illa
ĠSpesi alis
ĠGarn ida
ĠHon da
anusia an
Ġmenarget kan
Ġperila ku
ĠPerju angan
ĠAld ila
Ġmanuf aktur
Ġlanc ar
ĠGuardi ola
ĠUNIQ LO
ĠSetyor ini
. âĢĿ
1 00
3 00
5 4
6 00
8 6
A F
G O
I K
J K
N il
P em
T EA
a o
b y
b ungan
b ahan
b inasi
b urg
d er
f ud
g itar
h op
i ang
j ana
n um
p ol
p res
p lay
q lo
r uk
r ining
s er
t le
t ine
u ali
y ong
y rad
Ġ ut
Ġ isi
ar ge
Ġp ik
Ġp engan
Ġp re
Ġp ungkas
in ci
Ġs c
Ġs ah
Ġs ore
Ġk ol
Ġb atu
Ġb akat
Ġb arat
Ġt indak
si on
si de
em aran
ga ya
ad angan
ad aran
Ġse ti
ah aEditor
ĠP la
ĠP il
ĠP ur
ĠP and
ĠP rabowo
ĠA cara
ĠA ston
el in
el la
ĠB ak
ĠB RI
ĠB udaya
Ġke inginan
ĠM is
ĠM ol
ĠM emb
ĠM edia
ĠM ondo
is ahkan
es ta
es anan
ĠK P
ĠK ri
ĠK ini
Ġper ed
Ġper asaan
il li
Ġmem aksimalkan
it land
ĠD ah
ĠD ik
ĠD ian
ĠD evel
ĠD PUP
ĠR en
ĠR eg
ĠR ating
ĠT inggi
Ġmeng ed
Ġmeng inginkan
Ġmeng akhiri
Ġmeng antisipasi
ĠC al
ĠC ur
ĠC CTV
ĠJ AK
Ġr a
Ġr agam
gi a
Ġ20 45
om od
ĠL an
ĠL ampung
Ġpen dukung
ia Editor
et ro
et eksi
ĠG arin
ĠG irona
eb as
eb ack
Ġg ug
ut er
ĠN ice
ĠH amb
ĠH ernandez
ĠF ah
ĠF oot
ĠF ebruari
emb ahkan
aya h
Ġmer ata
Ġc etak
Ġc atur
Ġc erd
Ġc ender
Ġc erita
Ġmenj elaj
ok ok
ali as
Ġj aga
ĠE V
ĠE ra
ĠE st
ĠE uro
ita min
Ġpeng aruh
ingga lan
isi on
isi han
ĠO t
Ġak ting
Ġmeny umbang
ati Editor
Ġkon tra
oleh an
op ment
re am
ina ah
ent ang
ila ian
Ġmenc eritakan
ic k
Ġmel es
Ġga bungan
amb ahan
angg il
inya l
Ġkem anusiaan
Ġmembu kukan
perti mbangkan
ĠY ah
Ġpemain nya
Ġgol f
ec il
Ġkom entar
ĠAr han
ind o
tif ikat
tur kan
uar ter
iv ia
ĠSe oul
og er
ĠPen yakit
Ġsen tuhan
tri an
Ġpemb entukan
Ġpemb elajaran
Ġberb ahan
Ġberb icara
Ġsk rining
ĠKom pon
Ġap abila
eal th
Ġberp ikir
Ġberl atih
Ġmengh abiskan
tern atif
ji ang
Ġ201 3
Ġar t
udi o
ers on
Ġac uan
ersi f
ĠAnd ri
ĠSer gio
ĠPS SI
Ġem osi
Ġdid ampingi
ĠPersi raja
ĠTer kait
Ġmemas ang
ĠPr as
Ġe SIM
ĠPeng embangan
ĠGo C
etu l
ĠPT N
Ġim ersif
sel l
ĠAh li
ĠRI IZE
Ġkontrak nya
lim at
ank si
Ġtepat nya
ill ar
Ġid e
ĠMa ju
Ġribu an
Ġdar ah
Ġsur ya
Ġis ti
Ġel it
Ġkalah kan
ĠRes tu
ĠMed an
qu es
Ġpor t
ĠKel iling
Ġband ara
iner gi
ĠEv a
ĠPlay St
ys tem
ĠRO M
Ġfak ta
Ġka yak
ĠMem ang
kon i
ĠMah fud
ĠUs man
Ġkonsist ensi
tanding kan
IN K
Un tuk
ĠFr ed
Ġkeber l
ĠVin ici
ĠRamadhan Editor
ĠEm pat
ĠKeh utanan
Ġprak tis
Ġimp lementasi
Ġpengu atan
ĠSeti awan
Ġberj angka
Ġdiw arnai
ĠYuni anto
ĠPihak nya
Ġmenu turkan
ĠWol ves
ĠBerb icara
Ġpin tu
Ġpil ar
Ġkun ing
estari kan
ĠNugr ahaEditor
Ġfil ter
ĠBot ani
ĠRich ard
ĠEmp oli
Ġdek ade
ĠMich ael
ĠHind ia
ĠVir na
ĠFrank furt
Ġseder hana
Ġtal ent
ĠPerse baya
ĠIndrawan Editor
ĠAgam yrad
Ġterin spirasi
ĠAnthon y
Ġkemen terian
ĠSuj atmiko
ĠSaf ri
Ġjerse y
ĠSetyorini Editor
Nil es
Ġcender ung
ĠPlaySt ation
ĠVinici us
ĠAgamyrad ov
5 6
6 7
8 8
A D
A l
B I
F F
F ootball
L HK
M er
M alaysia
P en
X inhua
c ess
d is
e ur
e ba
f ek
g ol
h ika
j aran
l ek
n ect
r ia
r eh
s asi
s inya
t atus
w esi
y ur
y ikan
z ah
â Ħ
Ġ amp
Ġ ile
Ġ arab
Ġ alias
en uhnya
Ġd en
Ġd on
ar angan
Ġm ak
Ġm ay
Ġm ini
Ġm ega
Ġp esi
at ta
at angi
Ġs p
Ġs ensi
Ġs port
Ġs abar
Ġs inyal
Ġs anksi
Ġk eri
ak apan
Ġb oc
Ġb lok
Ġb icara
Ġt eb
Ġt ub
Ġt andang
Ġt enang
si h
un a
un yikan
Ġdi as
Ġmen antikan
Ġmen ikah
ta u
ya manan
ĠS ap
ĠS itu
ĠS ud
ĠS mart
ĠS witch
as uki
ĠP op
ĠP engg
ĠB intang
Ġber gaya
eng gam
Ġke jut
Ġke indahan
ing at
ĠM ag
is tor
es ain
es aan
ala upun
ĠK y
ĠK ek
ĠK ow
ĠK iper
ĠK PU
Ġper tuk
Ġper awat
Ġter ob
Ġter tarik
Ġter bukti
il ir
Ġmem aksa
Ġju ri
Ġh emat
it or
ĠI st
ĠI PMG
ĠD ana
ĠD ani
ĠD AY
Ġl un
Ġl epas
Ġl angit
ĠR is
ĠT ol
ĠT ra
ĠT op
ĠT rad
ĠT esla
um lah
um bangkan
Ġmeng und
Ġmeng enal
Ġmeng anggap
Ġmeng undang
Ġmeng umpulkan
ĠC ara
ĠC epat
ĠJ ar
ĠJ at
ĠJ ack
Ġr usak
id yat
id rasi
ĠL ev
Ġla mpu
ro v
Ġpen si
et akan
and ro
ĠG i
ĠG ian
ĠG eo
ĠG old
eb ri
Ġ202 5
Ġ202 8
Ġg ar
Ġg ue
ĠN g
ĠN ug
ĠN ight
ĠN atal
ĠH an
ĠH el
ĠH all
ĠH endra
ĠF re
ĠF erd
aya san
se si
Ġc ore
Ġmenj abat
ra y
ĠE fek
ĠW en
ĠW ah
ĠW arga
ĠW ard
Ġpem injaman
ot ti
ant e
end aris
Ġmela koni
wa jib
Ġmemb er
lah an
Ġmeny impan
Ġmeny eluruh
Ġ- -
Ġkar go
Ġmend ominasi
ch i
op a
ĠPer k
ĠPer tama
Ġu jung
ĠCh ris
ĠCh rist
Ġser ba
ent ak
duk tor
Ġseb aliknya
Ġberk ata
Ġberk arya
amb i
ĠV illar
angg uhan
Ġbers tatus
Ġmenga jukan
Ġv ia
ib er
sa ge
ĠZ he
Ġmemper lihatkan
Ġdik atakan
ĠAl i
ĠMen kominfo
ĠAr k
ĠMar tine
Ġbanyak nya
ĠSe buah
Ġku ota
ig ran
anti an
aj in
ĠSel engkapnya
ĠPem ilihan
Ġkemb angkan
ĠPol andia
Ġ6 4
ĠAp alagi
ĠTim es
Ġdip ilih
Ġkec ewa
Ġkec erahan
Ġpend ah
Ġ7 5
Ġsep enuhnya
Ġma af
usi m
Ġkons ul
if estyle
Ġmengh uni
Ġmengh arapkan
Ġal ternatif
Ġ201 5
Ġar en
Ġar oma
utri si
ĠLa gu
ĠAd nan
Ġlap isan
ge Con
ĠRo se
ĠMas jid
anc ong
Ġbukan lah
Ġberju alan
Ġkomp et
orm al
ne X
ĠUni qlo
ĠMe tion
ĠMe idyat
ĠKar bon
Ġperd ananya
ĠAir Pods
ĠMa itland
Ġdin ikmati
ĠSo uth
enti an
Ġpor nografi
ĠAb d
Ġdisi apkan
ĠII I
Ġbuk u
Ġkarya wan
Ġint egrasi
ĠKomun al
Ġkre ator
pek tasi
Ġtab ir
ĠMal uku
ĠMana j
Ġleg endaris
ĠMin yak
ĠKeb akaran
ĠKons er
ĠKons ul
Ġdikon versi
ej abat
ĠMusi k
ugi kan
Ġpember ian
ĠBi ak
untung kan
ĠOlymp ic
Ġmo tivasi
Ġmenekan kan
ler c
Ġweb site
Ġtangk is
ĠPav iliun
ĠKapol da
ĠMaj elis
Ġpot ongan
ĠBerk at
Ġberad aptasi
ĠChristi an
ĠSula wesi
ĠRober to
ou cher
Ġmir ip
Ġmengirim kan
Ġtransp lantasi
ĠSis tem
Ġkepem impinan
Ġmet ode
Ġsl ot
Ġinves tor
ĠAur el
irk abel
ĠJen ner
ĠAj eng
ikon duktor
ĠVic tor
ĠLec lerc
Ġvis ual
Ġekstr em
ĠThur am
ĠDevel opment
Ġcerd as
Ġile gal
Ġarab ika
Ġpertuk aran
ĠZhe jiang
ĠMartine z
ĠAdnan Editor
geCon neX
ĠMeidyat ama
. ,
3 9
4 7
5 9
8 5
8 9
B ang
B ud
B AS
C D
J ep
L a
M C
P P
U D
b ot
d ik
e ater
f ilm
g y
g ht
j ap
l ish
l indungan
n ami
o f
p lus
s al
s ch
w w
y anya
y eksi
z an
z uki
Ã ¶
Ġ eng
Ġ ambil
er kan
er ton
er jakan
ar m
Ġm acam
Ġp ul
Ġp sik
at t
in ga
Ġs api
Ġk is
Ġk era
Ġk irim
Ġk uarter
Ġb atangan
Ġt ek
Ġt amun
Ġt enis
Ġt ekstur
em asan
Ġdi re
ad ung
ad iran
al atan
am aian
on trol
ĠS akit
Ġse gar
Ġse sama
ĠP ac
ĠP eg
ĠP ember
ĠP ekerja
ĠP adang
ĠP urn
ĠP ower
ĠP asifik
ĠA ch
ĠA jang
ĠA bang
ĠA ero
ĠB N
ĠB ol
ĠB int
ĠB aik
ĠB io
ĠB WF
or or
or is
Ġber angg
Ġber apa
Ġber gul
ik al
ĠM eta
ĠM entari
ap in
is e
ĠK KB
ĠK limat
Ġper tamb
Ġper unggu
Ġper alatan
Ġter gabung
Ġmem etik
Ġh o
Ġh orm
Ġh ilir
Ġh oror
it is
ĠI D
ol ly
Ġl en
Ġl ebar
ir d
Ġun dang
ĠR ain
ĠR oger
ĠT ian
ĠT uju
Ġmeng han
Ġmeng elola
Ġmeng untungkan
ĠC ek
ĠJ ab
ĠJ ambi
Ġr ela
Ġr it
Ġr ub
ĠL et
ĠL ok
ĠL uar
Ġla h
Ġla bor
ih ara
ro ho
Ġpen indakan
ia ga
ĠG O
ĠG la
ĠG im
ĠG reen
ĠG ree
Ġg elap
ut ers
ĠN FC
ĠH D
ĠH e
ĠH anya
ĠH ukum
ĠF ree
ĠF ior
ĠF lash
emb apan
ter s
Ġn o
Ġn ormal
Ġn irkabel
Ġf ile
Ġf leksi
Ġc o
Ġc er
Ġc ari
Ġc le
Ġc egah
Ġw ujud
ĠE kuad
ĠE lec
ĠW ind
ĠW NI
Ġpem uncak
ot ong
ab le
Ġmela cak
Ġmemb ob
ĠO per
Ġmend ulang
Ġmend erita
os o
Ġsem ikonduktor
ong kr
ub sidi
ĠPer dana
ĠPer lindungan
ĠCh at
ĠAn di
ĠAn tam
Ġbah as
ic er
Ġberk isar
Ġberk endara
ĠV an
ĠV idi
Ġ5 2
ĠY ayasan
Ġmemper s
Ġdik elola
ĠAl im
ses u
ĠAr m
20 18
mb ilan
ev en
he et
ikasi kan
Ġan im
ĠKe tiga
ĠUn tung
Ġkes en
ĠPen c
ĠPen ampilan
ĠPen anggulangan
ĠSh en
Ġkel embapan
mas alahan
ĠPem uda
ĠAp likasi
ag e
res sage
Ġdip impin
imp unan
li pat
Ġdil atih
Ġmemba yar
las an
Ġap apun
Ġap alagi
Ġkeb angga
Ġ8 4
Ġtak ut
wi jaya
Ġmin eral
Ġhasil nya
ff ee
ĠAs hton
Ġmengg anti
Ġmengg antikan
ĠSeb astian
ĠPersi b
ĠPersi ta
ĠPersi ba
ĠPersi jap
ĠTer l
Ġeks ek
lo on
lo ck
ump ut
ĠRo ad
Ġe Football
ĠPeng urus
ĠSeri e
ĠJep ara
sel erasi
Ġst unting
ĠSt atistik
orm atan
ĠAt let
Ġseg men
tan ian
Ġsur plus
Ġken yamanan
Ġkor set
ĠSat ya
ĠEd dy
ĠAc tive
ĠAng k
ĠShop ping
Ġdesain er
ĠBo y
ĠTh omas
atus an
Ġatlet ik
Ġkr edit
ĠSw iss
Ġpor no
ĠKel urahan
kar ya
Ġbert ekad
ĠII Q
ĠSu ga
ĠApri yani
ĠEv erton
ĠVal ent
ĠSan ch
Ġpetu alangan
ĠRah ayu
oot h
Ġka us
ĠJam es
rah at
Ġped agang
Ġped esaan
ĠLuk as
olog is
Ġev ent
Ġform asi
Ġbes ok
Ġdom inan
ĠHot el
AR TA
Ġup acara
oord in
ĠBa x
ĠRe uters
ĠAmb assador
Ġdu o
ĠDPR D
ĠLap angan
ĠLap oran
ĠDa ily
Ġefisi en
ĠCel ta
ĠKeh adiran
AC KP
ĠBand ara
Ġsambut an
Ġkarier nya
Ġsamb ung
Ġpat ut
Ġsik lus
Ġperp aduan
ĠChi ef
Ġdibu tuhkan
omendasi kan
Ġrob usta
ï¸ı â
ĠJef ri
Ġpengelola an
Ġperse gi
Ġmengar ah
ĠCA EXPO
ĠPener jemah
Th inaah
Ġsun screen
ĠAward s
ĠMun as
ĠFI FA
Ġcel ana
ĠâĢĭ âĢĭâĢĭâĢĭâĢĭâĢĭâĢĭ
ĠBL ACKP
ĠKaz u
Ġpendamp ingan
ced es
ĠSP F
ĠBala i
Ġurut an
ĠGov inda
ĠLuh ut
Ġpered aran
ĠHamb urg
ques trian
Ġdon asi
Ġmay oritas
Ġsensi tif
ĠKow loon
Ġpensi un
ĠNug roho
Bud dy
Jep ang
nami c
Ġtamun ya
ĠAero Buddy
Ġberangg otakan
Ġbergul ir
ĠKlimat ologi
Ġlabor atorium
ĠFior entina
ĠEkuad or
Ġmembob ol
ĠBLACKP INK
3 1
4 3
7 9
8 3
B E
B G
B MKG
D engan
H D
H alo
I ni
K ep
N assr
O BAS
P ol
R TS
b al
b ola
c s
c os
d ar
d ara
d rop
e ologi
f an
f isi
h er
i x
i aran
i arkan
j ok
j ect
k ala
k ab
k tikan
l n
l ant
l eks
l angkah
m m
m udahan
o han
p u
p is
p apan
p lin
r n
r on
s ter
t s
v i
w asa
y adi
Ġ erat
er jasama
en tifikasi
Ġd er
Ġd ep
Ġm iliki
Ġm ekan
Ġm ump
Ġp ap
Ġp utus
Ġp ahlawan
Ġp ejabat
at let
in sip
Ġs eng
Ġs abu
Ġs antai
ang e
Ġk enc
Ġk afe
Ġb e
Ġb el
Ġb ob
Ġb angun
Ġb anding
Ġb umi
Ġt ata
si us
em baga
un ungan
Ġdi ungk
Ġdi tuju
Ġdi alog
Ġdi sesu
Ġmen ulis
Ġmen injau
Ġmen onj
ad dies
ĠS T
ĠS ir
ĠS os
Ġse baik
Ġse tuju
Ġse tahun
Ġy en
Ġy ear
ĠP ati
ĠP ay
ĠP latform
ĠP adahal
ĠA y
ĠA ma
ĠA pa
ĠB u
ĠB ap
ĠB up
ju b
Ġber jumlah
Ġber alih
Ġke si
ing atkan
ĠM ut
ĠM angg
is nis
ĠK us
ĠK oordin
Ġper ut
Ġper tar
Ġper ger
Ġper manen
Ġter angkat
us s
us un
us man
il ton
Ġmem uji
Ġmem antau
Ġmem pertimbangkan
Ġh y
Ġh and
ĠI S
ĠD I
ĠD ew
ĠD addies
ek ati
Ġl antas
ĠR ak
ĠR ic
ĠR PL
ĠT B
ĠT o
ĠT id
ĠT eh
ĠT uch
ĠC ul
ĠC our
ĠJ asa
ĠJ enama
ĠJ umlah
uk ir
uk im
Ġr evisi
Ġr adio
ĠL ove
ih an
Ġpen awaran
Ġpen ilaian
ĠG al
ĠG ay
ĠG ran
ĠG iro
ĠG low
ĠG ajah
eb ol
ep on
ĠN ilai
ĠN az
ĠH adi
ĠH atta
ĠH wasa
up an
ĠF oto
emb alikan
per usahaan
Ġn yar
Ġn uansa
Ġmer ugikan
Ġf antas
Ġc inta
Ġc amera
Ġmenj awab
Ġmenj amin
ĠIndonesia Pewarta
ĠU z
ĠU dara
Ġj antung
ra w
Ġpem en
Ġpem erintahan
end y
Ġmela yani
eri ahkan
eri co
isi t
angk utan
ana an
Ġak tris
Ġpo hon
Ġmeny atu
Ġmeny angka
Ġmeny elenggarakan
Ġmeny oroti
ati vitas
Ġmas ker
Ġmend engar
op tim
man n
ĠPer ti
ĠPer um
ĠPer ez
ĠCh andra
ĠAn ton
ila u
ic al
Ġset engah
Ġmel anda
Ġbagi kan
tas kan
di at
Ġpel uit
amb ar
od ok
mi kan
Ġmenga jar
Ġat asi
Ġmembu ktikan
ĠY our
ĠZ ER
ĠZ ikri
Ġmemper hatikan
Ġmemper baiki
ĠAl bum
ĠAl hamdulillah
ec ool
ĠMen parekraf
Ġkom binasi
Ġpeny isihan
Ġpeny iaran
ani um
Ġneg osiasi
ĠUn o
Ġkes adaran
ĠBer n
aj i
Ġsen jata
Ġ6 5
Ġpenggun anya
Ġsi fat
ea u
ef ak
ĠMan ahan
ĠMan usia
ĠMan uel
epan kan
Ġberb entuk
resi f
if e
if i
Ġterj angkau
Ġberp engaruh
Ġterd epan
Ġsamp ing
est arian
Ġpr omo
Ġpr imer
Ġketer t
ĠX abi
ĠX box
mp ilkan
Ġsa udara
Ġdim aksud
ĠAnd re
Ġkek ayaan
ĠPS BS
Ġmengg anggu
ĠPersi pa
ĠTer akhir
Ġeks pektasi
encana an
ĠReal me
ĠRo yal
Ġe y
ĠIs ma
ĠIs yana
atur k
ij ab
anc ang
Ġterk esan
ĠRom elu
Ġmemp engaruhi
ĠQ uran
Ġmener uskan
Ġterp asang
ĠAt h
ĠAt aturk
ema ja
unt ak
ĠRed emp
Ġperc akapan
atar am
Ġdin yatakan
ass ar
Ġdew an
aks asa
alik papan
ĠRa zi
inc ian
ĠSal uran
Ġsu ami
Ġmul tin
ĠPB B
ĠRus sell
ĠMed ali
Ġmengungk ap
Ġpor trait
Ġdisi plin
Ġdij adikan
ĠCo ffee
Ġcat at
ĠDan illa
ĠVal lec
ĠSim anj
ĠAI S
Ġberkom petisi
Ġkre ativitas
Ġterh enti
Ġhak im
ĠUniversi ty
ĠJu ara
Ġpenyel enggara
EO NE
ĠSul ut
ĠMem asuki
ĠMal ang
ĠSum sel
ĠTel kom
ĠBul at
Ġtel epon
ĠJam il
ĠHasil nya
Ġdita mpilkan
Ġli ar
Ġram ai
Ġform at
ĠAm eri
ĠHam ilton
Ġpengend alian
Ġoper ator
ĠPark ir
omb ol
Ġtop ik
ĠDo a
Ch arge
Ġdu ta
ĠAM OL
rist ek
Ġrun ner
Ġkeker asan
ĠBat am
ĠBat man
Ġberg antung
Ġprak tik
UN G
ĠAB C
jah ter
Ġinter aksi
Ġantusias me
ĠPU BG
oy ong
ĠMU I
ĠLu is
ĠGel andang
ĠBlu e
ĠRek tor
ĠOs aka
ĠRiz ky
Ġmemad amkan
Ġgem pa
Ġtrad er
Ġtrad ing
Ã© mon
ĠBantu an
ĠLew and
ĠHU T
Ġmateri al
Ġsol id
Ġrup iah
Ġdel egasi
ĠRub en
ĠGener al
ĠPerh impunan
ĠKend araan
ĠJA AS
Ġok num
ĠPok Ã©mon
ĠBill board
ĠTa e
Ġgro gi
Ġberkari r
Ġtit anium
ĠSPO RTS
Ġperti mbangkan
ĠGeor ge
Ġseti daknya
Ġmenjelaj ahi
Ġart efak
ĠGoC ampus
âĦ ¢
Ġpesi sir
Ġkejut an
ĠKy lian
Ġterob osan
ĠGeo fisi
Ġpendah ulunya
Ã¶ ln
Ġpertamb angan
Ġlen sa
Ġrub ber
Ġkebangga an
OBAS EONE
Ġmump uni
Ġkenc ang
Ġdisesu aikan
Ġmenonj ol
ĠSos ro
ĠBup ati
ĠMangg arai
ĠKoordin ator
Ġpertar ungan
Ġperger akan
usman e
ĠTid ore
ĠTuch el
ĠGay atiEditor
ĠZER OBASEONE
Ġmultin asional
ĠSimanj untak
ĠAMOL ED
ĠGeofisi ka
5 5
5 8
7 6
8 2
9 2
A T
B T
C C
D it
E L
E T
F or
J B
K ita
L iga
M O
M an
N K
N Y
O r
S em
T P
a gar
b e
b k
d ir
d apat
f ri
f one
f oto
g et
g antara
i am
j anj
k ata
l op
m et
m ed
m Ah
o om
p os
r am
r ediksi
v al
w in
w asan
Ġ entr
Ĥ ¬
an n
er min
Ġd amai
Ġp us
Ġp art
Ġp uji
at atan
Ġs im
Ġs adar
Ġs pons
Ġs irkuit
Ġk m
Ġk aca
Ġk ian
Ġk iat
la g
Ġb elah
Ġb lan
Ġb ikin
Ġt ud
Ġt anggung
Ġt ombol
si den
em angat
em ahan
Ġdi am
Ġdi ant
Ġdi inginkan
Ġdi yakini
Ġmen oreh
Ġmen indak
Ġmen olak
Ġmen antang
ad ari
ad ilan
on jak
ĠS ch
ĠS HK
ĠS adio
ĠS irkuit
ah ayaan
ĠP ang
ĠP us
ĠP ot
ĠP akar
ĠP ahlawan
ĠA R
ĠB M
ĠB ab
ĠB ila
ĠB any
ĠB egitu
Ġber ikan
Ġke wajib
ik irkan
ĠM V
ĠM ong
ĠM asa
ĠM ulai
is sa
es er
ĠK ing
ĠK ur
ĠK ev
ĠK erja
ĠK aka
Ġper ilis
Ġper iksa
Ġper olehan
Ġper masalahan
Ġper tanian
Ġter pa
us arEditor
ari tas
Ġju ru
Ġh ek
Ġh engk
Ġh ero
bu an
ĠI d
ĠI t
ol um
ol ia
ĠD om
ĠD AS
Ġl ul
Ġl emb
Ġl ub
Ġl upa
ara u
im oto
ĠR u
ĠR as
ĠR ian
ĠR oh
ĠT ay
ĠT ampilan
ĠT apin
ĠT bk
ĠC il
ĠC iti
ĠJ angan
ĠJ ordan
Ġr eb
Ġr int
Ġr emaja
ul ir
id er
ĠL in
ĠL ak
ĠL id
ĠL atif
ĠL RT
ĠL ebak
Ġpen entu
Ġpen yal
Ġpen angguhan
et es
ĠG e
ĠG or
eb alap
Ġg emb
Ġitu lah
ep ad
ĠN ish
ĠN erazz
ĠN euer
lu ar
ĠH ok
ĠH istor
ri p
ri z
up si
ĠF ac
ĠF utu
ĠF orm
ĠF ound
ĠF ull
ĠF XGT
ĠF eed
Ġn ot
Ġc as
Ġc adangan
Ġmenj ajal
ĠIndone sian
ok rasi
ali z
Ġj ari
Ġj eda
ĠW at
Ġpem ilih
Ġpem ilihan
Ġpem esanan
ot anya
ant oro
end ag
ama an
Ġa ja
Ġa udio
ja x
tr ans
tr onic
ĠO m
ĠO ri
ĠO usmane
Ġpo st
Ġpo dium
Ġmeny ukai
ati kan
Ġmend alam
Ġmend engarkan
Ġkon eksi
Ġkon tribusi
ena zah
Ġtim e
ob at
ĠPer ubahan
ĠCh air
eta bek
Ġser angkaian
Ġser entak
ĠAn tara
ĠAn cel
ent eng
Ġpers onal
ic ip
Ġmel onjak
aw isata
Ġga wai
yar atan
ĠV illa
empat kan
od y
od itas
angg anan
ran as
Ġkem asan
Ġmenga pa
Ġv i
Ġv itamin
Ġv oucher
Ġked ekatan
Ġ5 4
ĠY un
tand a
Ġdik alahkan
Ġ4 2
ĠAr dian
ĠPro duc
iv al
Ġpeny andang
Ġpeny idik
iri kan
ĠKe amanan
Ġdis kon
ĠUn g
Ġdib eli
ĠBer bagai
ig urasi
ĠSep erti
ĠPen eliti
uti p
aj ian
ĠSh ow
Ġsen sasi
Ġkel urahan
uju k
ĠAp p
gal anya
Ġdip inj
Ġdip roses
Ġdip lom
Ġtr end
Ġpend irian
Ġpend anaan
Ġ7 7
Ġ7 000
Ġsep uluh
Ġdil arang
Ġdil anjutkan
ĠKom p
Ġberp enga
Ġkeb ebasan
Ġsamp el
Ġmengh ibur
ĠSen tral
Ġ8 7
ersi han
ĠAnd hika
ĠSer um
Ġkese jahter
ĠAs s
Ġhadir nya
Ġterl arang
Ġpenga mbilan
af t
Ġdid uga
ĠDir gantara
utu pan
Ġpak ar
Ġkas ual
buh kan
entu h
ĠPeng end
Ġberd iri
Ġpenc ipta
Ġpenc ahayaan
etu aan
anc ing
ĠAh san
Ġdih asilkan
ĠHal im
Ġbak ar
Ġjalan i
ĠKal eb
Ġob r
Ġterp isah
Ġpotensi al
edi um
Ġperd amaian
Ġdar urat
ĠNur h
ks hop
Ġakses ori
Ġ200 9
sp ek
Ġkebu dayaan
ĠRa isa
Ġgener ator
Ġik on
ĠAng ka
ĠAng eles
inc ar
inc ir
inc are
omp i
ve i
ikm at
Ġmul ut
ĠHar ris
gan isasi
Ġturun kan
Ġpar tisipasi
ĠKel ompok
Ġmerek am
ĠSim one
Ġbala p
Ġcom eback
ĠFed erico
ĠDu bai
Ġbar unya
ĠDep uti
Ġtel evisi
Ġpasi r
Ġpand angan
anggap i
Ġtri but
ĠFr ench
ĠLaut aro
Ġstudi o
Ġdira wat
Ġrut e
ros s
ros oft
Ġkont es
lec tion
ĠHad id
eraj inan
Ġsh op
ĠLay ar
Ġprodus er
Ġmenun dukkan
ĠMak assar
ĠIN F
Ġberc ak
ĠPersik ab
esu aian
AC X
Ġimp ian
Ġtangk i
ĠPes epak
ĠAu ba
ĠTen as
ĠHo aks
Ġpenerima an
ĠPav ard
Ġdorong an
ĠSar r
ĠCre ative
ĠGan et
ell ig
ĠBrig hton
Ġtra vel
ows ki
âĢĭâĢĭâĢĭâĢĭâĢĭâĢĭ âĢĭ
egal luar
ĠEr ling
ĠOff icer
ĠBantu l
ĠJus tin
integrasi kan
ĠSl oven
ĠPed ro
ĠMoham mad
Ġng gak
ĠDy namic
eku tif
ĠRay o
ĠRiv an
Ġmemben tur
ĠKa usarEditor
Ġberkes empatan
Ġpetern ak
ĠAustr ia
Ġâ Ĥ¬
Ġins truksi
ĠWal ker
Ġpeman faatan
ĠAngg ota
Ġsimbol is
Ġteg angan
ĠPresi dent
ĠMic rosoft
ĠJud e
ĠZen fone
ĠFeder er
ĠMol ecool
ĠKP I
ĠDah ana
Ġmenged epankan
ĠJAK ARTA
ĠKompon is
Ġkeberl anjutan
reh ensif
ĠIst ana
ĠTra vel
ĠJar ingan
ĠVillar real
ĠManaj er
ĠLok awisata
ongkr ak
ĠChat elin
ĠSanch ez
jub kan
ĠGiro ud
Ġnyar is
Ġfantas tis
ĠVallec ano
ĠLewand owski
janj ian
Ġmenoreh kan
ĠMong olia
ĠKev in
Ġhek tar
Ġhengk ang
Ġlub ang
ĠNish imoto
ĠFutu re
ĠAncel otti
Ġberpenga laman
Ġkesejahter aan
ĠSloven ia
0 6
0 8
6 4
6 5
D en
D ir
D ia
H E
L A
N P
S um
S iti
T im
U G
b et
b arang
b rid
b intang
b ps
c on
c up
c ini
d eka
f ica
g es
h in
h or
i on
i anto
j ono
k ola
m us
m os
m etik
n ar
n ot
o ut
o se
r um
s ti
s ed
w ab
w ati
w ulan
w ujud
w atch
z ens
z hen
Ġ ib
Ġ est
ļ ½
er t
er v
er kus
en jar
Ġd emen
Ġd atangkan
Ġd agang
ar akan
Ġm alah
Ġm eta
Ġp aru
Ġp aham
Ġp lus
in isi
Ġk aya
Ġk atar
la d
la ku
la me
ak h
ak tif
ak aian
Ġb aca
Ġb ep
Ġb eta
Ġt ran
Ġt angkap
Ġt ingginya
em y
em uka
Ġdi ab
Ġdi ton
Ġdi jalan
Ġdi jaga
Ġdi lipat
ga ja
Ġmen ek
Ġmen embak
ta se
ta ct
ta fet
tu t
al at
am erkan
on gi
ĠS amp
ĠS end
ĠS ena
ĠS ina
ĠS usi
ĠS atuan
ĠS car
Ġse c
Ġse tim
Ġse galanya
ĠP ran
ĠP ord
ĠA tal
ĠA st
ĠA gung
el aran
ĠB I
ĠB on
ĠB angsa
ĠB ambang
ĠB etis
ĠB AF
ĠB adung
Ġber isiko
Ġber edar
Ġke g
Ġke w
ing ati
ĠM A
ĠM B
ĠM D
ĠM ate
ĠM otor
ĠM ats
ĠM ys
is m
is inya
ĠK ub
ĠK oleksi
ĠK PK
ĠK Ã¶ln
Ġper aih
Ġper ten
Ġper panjang
Ġper kuat
Ġper buatan
Ġper lahan
Ġper ajin
Ġter si
Ġter jual
Ġter integrasi
Ġter nama
Ġter wujud
us uri
ur ri
ti ba
ti me
Ġh igh
it ungan
bu lu
ĠI P
ĠI ku
ĠI ran
ĠD ab
ĠD ead
ĠD ream
ek i
Ġl ant
Ġl etak
Ġl utu
Ġl ibur
ir ina
im ul
ĠR em
ĠR on
ĠR up
ĠR ev
ĠT U
ĠT eam
ĠT echnology
ĠT HE
Ġmeng enalkan
ĠC am
ĠC abang
Ġin siden
ĠJ uan
uk uhkan
Ġr em
Ġr ad
Ġr adi
Ġr eh
Ġr ec
Ġr egional
Ġr atusan
om pat
Ġla bel
Ġla mbat
Ġpen eg
Ġpen da
Ġpen jual
Ġpen angkapan
and atangan
ĠG M
ĠG ri
ĠG iz
ĠG aku
Ġ202 7
ed e
ed ak
Ġg andeng
ut ik
ep eda
ĠN d
ĠN un
ma wan
one sia
ĠF K
ĠF eli
ĠF ernand
ĠF ikri
emb ilan
ĠInd ah
amp ton
Ġmer angk
Ġf ashion
Ġf lag
ĠU U
ĠU ba
ĠE C
ĠE SI
ĠW eb
ĠW ib
ĠW all
Ġpem ula
Ġpem asaran
uh um
ot ik
ant ren
Ġa zan
ja uan
ja wab
Ġmemb aca
Ġmemb akar
Ġmemb alas
ĠO tor
angk ara
Ġak ar
Ġak selerasi
Ġpo jok
Ġmeny erah
Ġmeny entuh
Ġmend ampingi
Ġsem ata
op e
ub ik
ĠPer lu
Ġad at
Ġu tamanya
Ġ3 7
Ġ3 9
Ġser tifikat
Ġbah u
Ġpers yaratan
ic arakan
le tic
Ġset inggi
ka wan
Ġga mer
di on
Ġberk ap
Ġberk urang
Ġhar inya
angg uh
), âĢĿ
Ġbers angkutan
Ġkem erdekaan
Ġkem arau
Ġked elapan
Ġker tas
ĠZ am
ĠZ ul
ĠZ ita
Ġmemper m
Ġdik unjungi
ec ah
ĠAS L
ĠMen ga
Ġres pon
Ġkom pat
ĠAr ham
ĠAr na
tif icial
ĠPro dus
ĠPro ject
tur es
uar ga
Ġpeny esuaian
st ik
Ġan tisipasi
ĠMar ina
ĠMar ino
ĠMar uhum
Ġneg aranya
Ġdis erahkan
Ġpas c
ĠSep atu
ĠPen jualan
angsung kan
aj ib
ĠSh ield
Ġsen iman
Ġkel enjar
arga i
Ġpes at
Ġdip esan
Ġdip icu
Ġdip rediksi
itar y
Ġpend erita
pe ti
Ġ7 9
Ġpemb iayaan
ĠMan cini
Ġberb elanja
Ġsk incare
Ġhal nya
ton o
Ġberl ebihan
Ġsamp aikan
Ġmengh entikan
tern al
Ġmenya jikan
Ġmenya bet
Ġtak tik
Ġtak lukkan
Ġdiper hatikan
ĠAs ri
ĠAs tr
ĠAs mara
engg ang
fi e
Ġkek urangan
Ġkek etuaan
ĠAd ri
ĠPS V
ĠSeb aliknya
ĠMad e
erman syah
ĠTer dapat
ĠSta ge
Ġketi dak
Ġrek omendasi
Ġrek rutan
inan cial
ĠIs timewa
ĠSeri al
Ġkur angi
ond ok
ij at
Ġkend ali
Ġterk adang
Ġterk emuka
Ġsend ok
ĠQ iang
Ġkomp uter
Ġkomp rehensif
ĠMe irina
ĠAt su
tam akan
ĠRam os
ĠAk hir
ĠAk tris
Ġid eal
Ġmenurut nya
ĠSo cial
ĠSo ompi
ans heet
Ġperk enalkan
Ġmah al
ĠSat gas
ĠEd geConneX
ĠAng el
Ġtendangan nya
ĠKed uanya
Ġel emen
Ġes port
Ġes tafet
ĠHar tono
Ġmemperk ecil
Ġkr itis
Ġbek erjasama
raf is
ĠKu alifikasi
ubung kan
ĠNot es
ĠTrans formasi
ĠEx po
ĠVal ley
Ġmenem ui
Ġmerek rut
ĠPlay er
ĠLA NY
ĠBas ket
ĠPeny el
ĠPeny anyi
Ġgamb aran
ĠMu ara
ĠFed eral
Ġprof il
bud ristek
mpa ui
ĠDu o
Ġbar eng
Ġrekan nya
In stagram
Ġtertu tup
ĠMul ia
CT P
Ġdita yangkan
Ġkri ya
ĠMusi m
Ġfor um
anj ikan
Ġmemer iksa
ĠLo ck
ĠGun akan
Ġbes utan
ĠKen ya
ex UG
rak irakan
ĠRe formasi
ĠCar aka
ĠRamadhan ti
ĠJo ao
Ġkont ak
stan bul
ĠDon nar
ĠHad ir
Ġstab ilitas
Ġsh ow
Ġab adi
entr asi
Ġangk utan
ĠNo or
Ġtugas nya
Ah mad
ĠPela ksana
Ġpad at
Ġmenak jubkan
ĠWi Fi
Ġoff line
Ġsamb ungan
ĠSar as
ĠKer eta
Ġterg el
ĠJoh or
ĠGa uff
Ġsik ap
ĠBud s
ĠBrig jen
ĠMy kola
ĠTek uk
Ġberf ungsi
Ġrent ang
ergi an
Ġmemad ukan
ĠChristi e
bit kan
ĠJul ian
ĠZh eng
Ġ???????? ????????
Ġliter asi
ĠDiv isi
Ġnar asi
Ġsebaga imana
ĠComm un
pem ain
ĠTO P
ĠEur opa
Ġbend era
ĠHarapan nya
Ġkos metik
ĠTu gas
ĠTor ino
Ġpemad aman
ĠSU GA
ĠSayang nya
Ġmengeksp lorasi
Ġdirek rut
ĠBrun ei
Ġpermuk aan
omod asi
ĠPras et
Ġtub ruk
ĠLev erkus
Ġpul uhan
Ġkis aran
ĠAch mad
Ġrit el
Ġcle ansheet
ĠElec tronic
Ġmempers embahkan
Ġmekan isme
Ġdituju kan
ĠGran ada
ĠAth letic
Ġspons or
Ġblan ko
Ġdiant aranya
ĠBab ak
ĠBany umas
Ġterpa ut
olum e
Ġlul usan
ĠLid ya
ĠNerazz urri
ĠHok ky
ĠPengend alian
Ġobr olan
Ġtribut e
Ġshop ping
ellig ence
Ġdemen sia
Ġkatar ak
Ġbep ergian
Ġditon ton
ĠSena yan
ĠSina ga
ĠPord asi
ĠAtal anta
Ġlutu t
Ġradi asi
ĠFeli x
Ġflag ship
ĠOtor itas
ĠLeverkus en
4 2
6 2
8 4
8 7
C are
D is
F ID
G C
I NI
K on
L U
N ews
R B
R S
S DM
U M
b in
c abi
d angan
e ori
g ot
j odo
l ung
l eg
l andia
m ur
n on
n ia
o ck
r ud
r ub
s y
s ul
s enang
u tasi
u ick
v ati
v est
w ire
w are
y um
z o
Ġ il
er ve
Ġd os
Ġd arat
Ġd ressage
ar ina
ar enakan
Ġm on
Ġm adu
Ġm oral
Ġp eta
Ġp lay
Ġp ega
Ġp ecahkan
Ġp adahal
at inya
Ġs idang
Ġs pek
Ġs inergi
ang s
ang ian
Ġk ad
Ġk im
Ġk amb
Ġk operasi
ak er
Ġb on
Ġt en
Ġt on
Ġt eh
Ġt iro
Ġt ayangan
Ġt angguh
si si
si cs
un uh
un ikasi
Ġdi f
Ġdi ju
Ġdi ap
Ġdi aw
Ġdi tand
Ġdi tur
Ġdi unggah
Ġmen emp
Ġmen ular
Ġmen entukan
ad emi
tu h
on z
ĠS ang
ĠS he
ĠS ton
ĠS osial
ĠS ports
ĠS MP
ĠS ungai
ĠS iber
Ġse tia
Ġse umur
ĠP re
ĠP ublik
ĠP FA
ĠP DI
ĠA G
ĠA yo
ĠA uto
ĠA lasan
el iner
ĠB P
ĠB uk
ĠB angk
ĠB est
ĠB encana
ĠB iro
ĠB uch
ĠB alikpapan
or s
Ġber man
Ġber tinggi
Ġber awal
Ġber agama
eng si
Ġke y
Ġke yak
Ġke jar
ĠM uk
ĠM ayang
ĠM ataram
is ter
is uka
ĠK A
ĠK ad
ĠK up
ĠK unc
ĠK ulit
ĠK ho
ĠK olaborasi
ĠK lok
ĠK lop
Ġper form
Ġper aturan
Ġter per
Ġter pan
Ġter bagi
ari o
ur s
Ġmem andang
Ġmem eriahkan
Ġmem ikirkan
ela yan
Ġh am
Ġh ulu
Ġh iper
it zer
ĠI ka
ĠI stanbul
ĠD A
ĠD il
ĠD um
ĠD ukungan
ĠD andy
Ġl eh
Ġl og
ir ik
ĠR T
ĠR ec
ĠR aj
ĠR uang
ĠT apan
ĠT otal
ĠT egalluar
ĠT CTP
Ġmeng on
Ġmeng esan
Ġmeng incar
ĠC F
ĠC in
ĠC as
ĠC atur
ĠC PU
Ġin spirasi
Ġr ah
Ġr ival
ul angi
id d
id at
id asi
ĠL am
ĠL ong
ĠL esm
ĠIn tel
ba g
ro w
Ġpen amp
Ġpen ola
Ġpen ikmat
and u
and akan
ĠG ang
eb alan
eb angsaan
ed om
Ġg anti
Ġg enc
ep hy
ĠH A
ĠH emat
ĠH umas
ĠF u
ĠF est
ĠF ire
ĠF ast
amp ur
Ġba ja
Ġn as
Ġn utrisi
Ġn elayan
Ġmer awat
Ġmer ujuk
Ġc elah
Ġc antik
ok si
ok rat
Ġj ern
Ġj enazah
Ġw ar
Ġw is
Ġw ew
Ġw awasan
ĠE questrian
ĠW imb
alah annya
ab il
Ġpeng urangan
Ġmela mpaui
wa y
ja jar
ĠO ut
ĠO KI
ĠO NF
angk al
Ġak adem
Ġpo und
Ġmeny eg
Ġmeny ebarkan
Ġmas jid
Ġmend atangi
Ġsem inggu
ĠCO DM
ch ina
ingk ir
ingk irkan
han n
ip il
ob olan
ub le
gu kan
re y
re at
ĠCh ild
Ġser at
Ġser ang
Ġser um
ay at
Ġmenc ontoh
jar ingan
ic araan
le ep
Ġmel estarikan
ola gen
Ġga ji
yar atkan
Ġkep indahan
Ġberk ebangsaan
Ġpel indung
Ġpel ancong
Ġpel estarian
amb at
ĠV o
ĠV ivo
Ġhar ganya
Ġbers enang
Ġbers ubsidi
Ġbers kala
ons o
Ġkem as
Ġv an
Ġked alaman
ĠY a
ĠY ud
gr asi
Ġas am
Ġas ap
Ġas usi
ĠZ eno
ĠZ ephy
Ġmemper barui
Ġmemper tandingkan
tal ent
Ġsel fie
Ġdik onsumsi
Ġdik arenakan
Ġ4 3
ec e
ec tion
ĠMen jadi
ĠAr ema
mb arkan
ĠPro cess
Ġek st
Ġberh ak
Ġberh arga
Ġpeny eles
he im
Ġan alis
ĠMar sel
ĠMar vel
Ġdis er
Ġdis elesaikan
ĠUn itary
Ġterb uruk
Ġkes embilan
ĠPen jaringan
aj ai
Ġsen gaja
ĠPem kab
ĠAp i
gal i
emp rot
Ġdip asarkan
und erb
Ġpend engar
Ġsep utar
ĠSab itzer
Ġkemenangan nya
Ġmemba ik
Ġap arat
Ġkeb ersihan
Ġkeb obolan
Ġterd ekat
Ġterd akwa
Ġ0 7
ĠKemen pora
ark am
ĠSen sor
Ġ201 2
Ġar tinya
Ġketer ampilan
Ġdiper caya
ci o
Ġanak nya
Ġben ing
Ġkek asih
av a
Ġdir ektur
Ġdid esain
Ġmengg andakan
ĠSeb lay
ĠSeb enarnya
isasi kan
Ġpol e
ĠTer baik
ĠOpen Pewarta
Ġjuara i
lo op
ez ar
ez mann
ĠSeri bu
Ġperlu asan
ĠPT S
sist en
anc arkan
ĠAh diat
ĠDes ain
ĠDes ca
Ġterp apar
Ġpuk ulan
Ġkaw an
ĠSin isuka
ĠAt man
ĠEn de
Ġpengh ujung
anta uan
ĠBel gia
Ġkeunggulan nya
ĠMa gu
Ġag ak
Ġkeh utanan
Ġjelas nya
eles kop
ĠNov ak
Ġakses oris
Ġis tri
Ġ200 2
Ġpri vasi
PR News
Ġberla lu
Ġel egan
Ġso und
usta in
ĠTh underb
imb angi
Ġkemampuan nya
ID R
alis me
ĠSw edia
Ġterc apai
ilu et
ĠRes erve
enti als
ĠSalah udin
ĠAb b
ĠKel uarga
Ġkap al
Ġberjalan nya
Ġmaksim um
ĠSp r
ĠSp ec
ES CO
ĠCo un
ĠTrans aksi
ĠEx p
ĠAndarningtyas Editor
Ġkeku asaan
Ġmerek omendasikan
Ġbala san
Ġterh ind
jen an
Ġsemb ari
Ġti ap
ĠEl kan
enaga i
lok asi
Ġoptim istis
ĠPasal nya
ĠSum ut
ĠTel in
ĠPor trait
ĠPam eran
ĠIl mu
Ġreg istrasi
rah im
ĠIm ran
ĠGol kar
ĠLuk eba
IN U
Ġtarget kan
ĠMusi c
ĠTr eb
Ġberin vestasi
Ġberin ovasi
ĠKap ten
ĠOr ganisasi
ĠBachti arEditor
Ġde bu
ĠSri wijaya
ex t
ĠSak ti
ĠCar lo
ĠFF WI
Ġmengap likasikan
ĠLap top
bi e
Ġlayak nya
Ġmenun jang
ĠAK BP
ulih kan
ĠWar s
.. .
var ez
ĠJak sel
Ġsambut annya
ĠAlex is
ĠAlex ander
ĠMarc iano
Ġmist ar
ĠPat rol
ĠCol lection
ĠGel ora
Ġmus tah
ĠBea uty
ĠMaj or
ĠGa un
ĠOs car
jam in
ĠMac cabi
ĠYus li
ĠKali jodo
Ġmengga et
led on
ĠStudi o
ĠDec k
ĠDec o
Ġrent an
ĠNic ola
ĠJef f
Ġgem ilang
ĠDem ikian
ĠDem okrat
ĠRober t
Ġpe tir
Ġpec inta
ĠAv iv
ĠBan jar
Ġund angan
ĠPo in
Ġrum it
Kemen kominfo
Ġdef isit
Ġsebaga inya
ĠPres tasi
ĠBam ed
ĠRad en
ĠJer emy
esm ian
ĠDek ranas
ĠLas em
Ġur usan
ungg uh
Ġmengk laim
Ġrangk uman
ĠPenj abat
Ġamb isi
ĠBogdan ovic
Ġpik iran
Ġra gu
Ġden im
Ġboc oran
Ġteb al
Ġlun ak
ĠNatal iaEditor
ĠVictor ia
ĠBol ivia
ĠBint an
Ġfleksi bilitas
ĠWind ows
ĠShen zhen
Ġseng it
Ġkafe in
ĠAma zon
Ġpemen uhan
optim alkan
ĠPerti wi
ĠRedemp tion
Ġtud uhan
Ġkewajib an
ĠTay lor
ĠCiti zens
Ġrint isan
Ġgemb ira
ĠFac ebook
ĠFeed loop
ĠINF INI
ĠSend ai
ĠMys tic
Ġperten gahan
ĠDab exUG
ĠGri ezmann
Ġberkap asitas
ĠZul k
Ġmemperm udah
ĠSaras vati
Ġtergel incir
vest ment
Ġpega wai
Ġkim ia
Ġkamb ing
Ġtiro id
Ġditur unkan
ĠSton es
Ġberman faat
ĠKlop p
Ġleh er
ĠTapan uli
Ġmengesan kan
ĠLesm ana
Ġjern ih
Ġwew angian
ĠWimb ledon
Ġasusi la
ĠZephy rus
Ġpenyeles aian
ĠMarsel ino
PRNews wire
ĠThunderb olt
ĠINFINI TE
3 4
5 7
6 6
9 6
9 7
A r
B e
B ar
B aca
B andung
D S
E W
E ET
H A
H M
H U
I T
K A
K M
K alau
K ato
L ED
M oham
N NE
O M
O O
P C
R D
S olo
S ON
T amp
U I
U P
U R
U MKM
W h
W ang
c ard
c ore
d ad
d rum
f oli
f ps
g k
g akan
g ant
h ar
h ip
i er
i ence
k ay
k ey
l it
l uki
m y
m ak
n m
o di
o ff
q sa
s aat
s os
s onal
s ki
t d
t ok
t ensi
t led
u w
u ta
v at
v okasi
w er
w as
w ide
z ar
z ema
Ġ +
Ġ us
Ġ ir
Ġ om
Ġ et
Ġ end
Ġ usah
Ġ ayah
an ulir
er un
er ik
er akkan
en ai
en heim
Ġd ap
Ġd eg
Ġd eal
ar ing
ar co
ar bud
ar udin
Ġm is
Ġm agn
Ġp ir
at alan
in n
in ang
Ġs int
Ġs pe
Ġs iluet
Ġk at
Ġk olabor
Ġk ode
Ġk okoh
Ġk laim
Ġk oordinasi
Ġk ayu
Ġk erajinan
la v
la gi
Ġb lu
Ġb uang
Ġb eda
Ġb ass
Ġt ep
Ġt olak
Ġdi res
Ġdi bayar
ga an
kan dar
ya war
al ang
al et
al di
al ith
am as
am aikan
am ida
ĠS C
ĠS S
ĠS tu
ĠS as
ĠS and
ĠS ut
ĠS ama
ĠS udah
ĠS ay
ĠS aka
ĠS po
ĠS kr
ĠS ystem
Ġse jajar
ah asa
ĠP eri
ĠP ena
ĠP ic
ĠP eter
ĠP AM
ĠP ega
ĠP utih
ĠP anitia
ĠP ondok
ĠA O
ĠA re
ĠA jax
ĠA sics
el it
el le
ĠB al
ĠB rid
ĠB aterai
ĠB lok
ĠB isnis
or gan
Ġber tah
Ġber tahun
Ġber ujung
ing gung
ik u
ĠM C
ĠM it
ĠM ila
ĠM ilik
ĠM uni
ĠM ohon
is tri
es a
es kan
ala ga
ĠK O
ĠK ro
ĠK elas
ĠK abar
ĠK awasan
Ġper ak
Ġper tem
Ġper annya
Ġper janjian
Ġter endah
Ġter buat
us atan
il iran
ur e
asi b
asi o
ti ban
ti tled
Ġmem a
Ġmem in
Ġmem icu
Ġh ijab
it ya
bu lan
ĠD w
ĠD jauh
ĠD ash
ĠD endy
ek al
ek tif
Ġl ong
Ġl ingk
Ġl angka
Ġl elu
Ġl imb
Ġl ifestyle
ara y
ir at
ĠR ef
ĠR TH
ĠR olly
ĠT I
ĠT ia
ĠT amb
ĠT ingkat
ĠT ers
ĠT embak
ĠT issa
um or
um annya
Ġmeng atas
Ġmeng erahkan
Ġmeng onsumsi
ĠC R
ĠC ik
ĠC ons
ĠC arn
ĠC emp
ĠC entr
ĠC ahaya
Ġin klusi
ĠJ ac
ĠJ UNG
ĠJ ava
uk tur
ac etan
Ġr ap
Ġr aya
Ġr ev
Ġr asanya
Ġr asakan
Ġr ayakan
Ġr aksasa
Ġr erun
ul ung
ĠL ori
ĠL ite
ĠL CS
ĠL embaga
ĠL enteng
ĠIn tan
ro und
ro fi
ro versi
Ġpen tas
Ġpen ataan
Ġpen ambahan
ĠG h
ĠG em
ĠG ab
ĠG amb
ĠG und
ĠG ermain
ĠG EL
eb us
Ġg e
Ġg iliran
Ġ1 23
ep is
ĠN A
ĠN ational
ĠN ajib
ĠN ezar
ĠH ag
ĠH ea
ĠH av
ĠH indari
ĠH TC
ĠH aji
ĠH ermansyah
ri zer
ĠF ur
ĠF TS
ĠF ood
per ience
Ġba g
Ġn er
Ġn onton
Ġmer a
Ġmer os
Ġc ita
Ġc ip
Ġc iri
Ġc ahaya
Ġmenj anjikan
ok wi
ĠU cup
ali sis
Ġw ill
Ġw alaupun
ĠE sta
ĠW A
ĠW eg
ĠW ond
ĠW alau
ab in
ab alaga
eg at
Ġpeng olah
Ġpro perti
Ġpro spek
eri ck
Ġmenjadi kannya
Ġmemb intangi
Ġmemb iarkan
ĠO ver
ĠO IS
ĠO LED
ebih i
Ġak sesi
Ġmeny adari
Ġkar yanya
yak inkan
Ġmend aftar
os a
Ġsem buh
ch a
op uler
aran nya
ĠPer b
ĠPer g
Ġad ap
Ġad opsi
re ich
ĠCh o
eta pan
da q
da an
ay ano
ay angkara
Ġmenc uri
Ġsek adar
ic o
ic s
Ġmel ebar
Ġmel ebihi
Ġberk umpul
ĠV iv
ĠV ideo
mi es
Ġbers arang
Ġbers emangat
Ġkem acetan
Ġv s
Ġv olume
Ġked alu
Ġ5 3
Ġ5 7
Ġ5 8
ĠY G
ĠY am
ĠY ul
ĠY ong
Ġker jasama
gr es
ov a
Ġmemper b
tem an
jut kan
Ġsel ebri
Ġo ut
ĠAl varez
Ġres pons
Ġkom peti
ĠAr riz
tif y
Ġberh ati
Ġpeny elamatan
st il
st ation
st ock
ĠMar k
ĠMar qu
ĠMar th
ĠMar sh
ĠKe unggulan
Ġdis ukai
Ġdis arankan
ting en
Ġdib ahas
Ġpas tinya
ĠSep ak
ĠSel ang
Ġkel embab
ĠPem kot
ĠPol itik
ern a
ern aan
ĠAp artemen
res tasi
emp uran
und er
und ur
Ġkec emasan
ĠDi e
li en
ef oto
Ġpemb icaraan
Ġ10 8
Ġberb akat
Ġberb ahaya
Ġhad apan
las s
ĠKom oditas
ĠKom arudin
Ġberp restasi
Ġkeb otakan
Ġkeb anyakan
Ġ0 9
Ġmengh ubungi
ark ah
Ġmenya pu
Ġters ingkir
Ġ15 0
Ġpr insip
Ġar ahan
ce tic
Ġjadi kan
com e
Ġstr uktur
Ġingin kan
Ġdit anya
Ġdit angani
Ġdit empatkan
Ġdir encanakan
Ġpenga wasan
Ġ12 8
lan cos
Ġdid orong
Ġmengg andeng
Ġmemas arkan
ĠDia z
all y
ĠPr ak
ber ra
our ce
ĠSta f
Ġketi daknya
ge j
ĠPas er
ĠPas angan
ban kan
ban ez
Ġangg otanya
Ġe x
ĠPeng elola
Ġberd aya
Ġpenc emaran
Ġpenc ernaan
Ġkur ban
buka an
ĠBay u
rab at
Ġsend irian
Ġgel ang
atas aray
Ġpermain annya
ĠMer deka
ĠSem i
eran si
Ġkomp osisi
Ġkomp leks
Ġob liga
Ġlawan nya
uc ci
arg an
ĠAri ef
ĠKar en
ĠRed s
anta h
ĠBr acket
Ġ11 1
ĠSur at
ĠSur akarta
Ġag resif
ĠSo f
Ġjam inan
ug uhkan
ans yah
ĠBe ar
ĠEd erson
epak ati
Ġel im
ĠSal e
Ġmenamp ung
BA R
ĠBo o
Ġmemperk aya
yan usa
Ġbek as
ĠRes ear
Ġot ak
ĠBen fica
ĠBen jamin
ĠBen zema
Ġminggu an
Ġpar uh
ĠKel ima
Ġbert olak
ĠKu tai
ĠIr jen
Ġsta dium
Ġsta dion
ĠSuper c
Ġbern ilai
ĠMat ahari
ĠMat epad
ĠPal mer
kr ug
ĠMeng enai
ĠEv ans
Ġala s
Ġpersi dangan
Ġint elligence
idik i
ĠSan e
ĠKomun itas
ĠCon trol
ĠCon tact
ĠKec il
Ġlintas an
Ġpenyel idikan
ĠPemb alap
ĠPemb aruan
kon ten
Ġtem uan
ĠMana g
Ġperh elatan
Ġperh entian
par el
elam atkan
Ġz aman
Ġz oom
ĠMo o
ĠMo is
ĠIl kay
Ġreg uler
rah man
ĠKeb er
ĠKeb ijakan
war sa
ĠSon okwi
IN G
buk ota
ĠSatri o
Ġtri wulan
str umen
ĠGun ung
ĠAm anda
ĠAm rabat
ĠMus yawar
ĠHam id
ĠOr atm
Ġup ayakan
ft aran
Ġmilik nya
ĠSk in
ĠSlam et
Ġkont roversi
gn osis
encan anya
ĠBlibli Care
bi otik
Ġpenj elasan
ĠFA NM
lawan an
VID IA
ĠUl reich
Ġberg engsi
Ġangk lung
Ġmenempat kan
Ġinter aktif
Ġdipas ang
ĠBaj cetic
ĠBag got
ĠTen nis
ĠVer on
ĠVer ge
Ġoff side
ĠMarc us
ĠSeti adi
Ġtutur nya
Ġsar jana
Ġtun dukkan
ĠNan on
Ġmus lim
ĠCre ed
Ġdibu kukan
ĠCan cel
ĠCan berra
ĠLen non
ĠSEA SON
Ġberf okus
Ġberad u
ĠMil k
ĠRi buan
Ġrob ot
ĠNor ris
ĠCop a
ĠCop pa
Ġsub sidi
Ġkun o
sit ektur
ĠDim arco
ĠJos elu
ĠMarcel o
Ġperse tujuan
Ġhid rasi
ĠLew is
ĠHU B
Ġmengend alikan
Ġre aksi
Ġgen re
ĠPerm endag
Ġrum or
eni al
Ġtemp o
ĠNas daq
Ġdinam is
Ġdinam ika
Ġpetern akan
Ġmar sh
ĠPerc epatan
Ġme yakini
Ġme yakinkan
Ġrangk umannya
Ġprot es
Ġbo x
ĠSari Editor
ĠCl are
Ġrestor an
ĠPram ud
ĠBh ayangkara
ĠIM X
ĠDer mies
ĠCy ber
Ġpenya lah
ĠUN ESCO
ĠWin ter
Ġut ara
Ġsc rub
Ġsah abat
ĠPla yoff
ĠKri yanusa
ebas kan
Ġgug ur
ĠYah ya
ĠAndri y
Ġdias pora
Ġmengund urkan
ĠWen zhou
ĠWah id
Ġkonsul tasi
ĠAbd u
bot ol
Ġtek stil
ĠPeg unungan
Ġho aks
ĠTerl ebih
Ġeksek usi
Ġbe asiswa
Ġkesi apan
Ġhy brid
ĠGal atasaray
Ġey eliner
ĠAmeri can
ermin kan
ĠRu jak
Ġpenyal uran
ĠForm ula
ĠFull krug
Ġnot es
aliz aEditor
Ġvi ew
ĠYun ani
Ġdipinj amkan
Ġtrend i
Ġpencipta an
ĠNurh alizaEditor
ĠPersikab o
ĠPedro sa
hor st
sed ur
Ġtran sisi
ĠScar let
ĠPran owo
Ġtersi sa
Ġlant aran
imul jono
ĠCam on
Ġpenda ftaran
andatangan an
ĠProdus en
ĠLock er
FID E
Ġdiju luki
Ġdiaw ali
Ġpenola kan
ĠHA E
ĠMagu ire
ĠExp ress
Ġterhind ar
Be ijing
EET ING
Tamp ilkan
alith aran
ĠSpo tify
ĠPega d
Ġbertah ap
ĠMuni ch
ĠDjauh ari
Ġlelu asa
Ġlimb ah
ĠCarn ando
Ġrerun tuhan
ĠLori ent
ĠGamb ir
ĠGund ogan
ĠFTS E
Ġmeros ot
ĠWeg horst
Ġkedalu warsa
ĠArriz abalaga
ĠMarth in
Ġkelembab an
Ġketidaknya manan
Ġobliga si
ĠResear ch
ĠSonokwi jenan
ĠMusyawar ah
ĠOratm angun
ĠFANM EETING
0 75
B ay
D A
I V
I HSG
J adi
K K
K ayano
L ondon
M o
N A
N C
P ri
P emp
R W
R om
S A
S T
S at
S panyol
T ek
W P
a us
b us
b ol
b eda
b iani
c u
c ing
c ia
c ita
c ic
c urkan
e in
e on
f ik
f ul
f are
g aran
h dad
i bu
j ari
k ara
k unya
k oh
k adang
l urkan
m ati
o T
o ali
o gram
p ong
r aksi
s entials
t il
u y
v ers
v ice
w ood
x ing
y un
y ati
y udi
y back
z el
Ġ en
er us
er ob
en ing
Ġd um
Ġd akwa
Ġm ark
Ġm undur
Ġp ra
Ġp ewarta
Ġp ag
Ġp ebalap
in amb
in jauan
Ġs angg
Ġs ind
Ġs tasiun
Ġs andal
Ġs ungai
Ġk ak
Ġk ir
Ġk anc
Ġk enalkan
Ġk ajian
Ġk not
Ġk ubik
Ġk olagen
ak um
ak eh
Ġb la
Ġb ara
Ġb ib
Ġb atasan
Ġb arisan
Ġt ali
Ġt aw
Ġt unjuk
Ġt ilang
Ġt elap
Ġt elak
si anya
em uk
em uan
un tuk
un jang
Ġdi ar
Ġdi tarik
Ġdi anulir
ad ukan
tu i
tu ran
al y
am en
on ia
on ologi
ĠS q
ĠS ol
ĠS eg
ĠS ec
ĠS pe
ĠS engg
ĠS ven
ĠS ustain
Ġse cepat
ah asan
ah lian
as ari
as umber
ĠP j
ĠP ad
ĠP art
ĠP uncak
ĠP impinan
ĠP NM
ĠA yu
el ing
el ut
ĠB eg
ĠB elum
ĠB ahan
ĠB av
ĠB all
ĠB ord
ĠB ono
ĠB PR
ĠB abi
or ak
or ca
Ġber tuk
Ġber per
Ġber ny
Ġber guna
Ġber bayar
Ġber obat
Ġke tur
Ġke tua
Ġke ahlian
ĠM K
ĠM T
ĠM ain
ĠM ika
ĠM uti
ĠM isalnya
es e
ĠK ela
ĠK ara
ĠK et
ĠK arn
ĠK laim
ĠK urn
ĠK LHK
Ġper inta
Ġper encanaan
Ġper lawanan
Ġter atur
ari m
asi en
Ġmem anggil
Ġju rn
ada i
Ġh el
Ġh obi
it z
it ri
ĠI van
ĠI banez
ol ok
ĠD am
ĠD ri
ĠD ita
ĠD esi
ĠD amai
ĠD ancing
Ġl ip
Ġl iv
ir c
im bang
ĠR id
ĠR ai
ĠR ama
ĠR io
ĠR iy
ĠR angkaian
ĠR ace
ĠT uan
ĠT ag
ĠT jah
ĠT PA
ĠT oner
ung kan
Ġmeng el
Ġmeng ukur
Ġmeng unci
Ġmeng emudi
Ġmeng emas
Ġmeng ering
Ġmeng utip
Ġmeng integrasikan
ĠC G
ĠC oto
ĠC old
ĠC erita
Ġin klusif
Ġin strumen
ĠJ or
ĠJ is
ĠJ abar
ĠJ ombang
uk us
ac tur
Ġr an
Ġr okok
Ġr asio
ul ator
om entari
ĠL ul
ĠIn t
ĠIn ovasi
ĠIn vestment
ba o
ro ad
Ġpen utupan
ia wan
et ooth
and uan
and era
ud ang
ĠG D
ĠG and
ĠG os
ĠG elar
ĠG ilang
eb o
ed ul
ed ikasikan
ed onia
Ġg etah
Ġg reen
Ġg rafis
ut ra
ut aran
ep it
ep ahaman
âĢ ĵ
ĠN io
ĠN atas
ĠN arkoba
ĠN VIDIA
ĠH Y
ĠH i
ĠH id
ĠH ello
ri e
up ayakan
ĠF ard
ĠF ei
ĠF low
emb unyikan
per in
amp P
amp ing
Ġn ol
Ġn etr
Ġn its
Ġmer i
Ġmer encanakan
Ġmer inci
se ok
Ġf r
Ġf lash
Ġc on
Ġc ok
ok u
ok er
ĠU r
Ġj e
Ġj embatan
Ġw or
Ġw arisan
ew engan
ua an
ĠE c
ĠE t
ĠW e
ĠW illi
Ġpem usatan
ot ret
ab ah
ab lan
eg u
eg on
eg aran
Ġa gr
Ġpro sedur
tr u
Ġmemb alik
angk ir
Ġak ui
Ġak urasi
Ġpo s
Ġmeny erahkan
Ġmend ekati
Ġmend ongkrak
Ġkon den
Ġkon trol
Ġsem ester
op an
op ang
op le
op ec
Ġtim bul
aran si
ip uan
ob le
ob atkan
ĠPer angkat
ĠPer anc
ĠPer tumbuhan
ĠPer temuan
Ġad u
gu chi
Ġu sianya
ĠCh art
Ġ3 00
Ġ3 50
Ġser u
Ġser agam
ĠAn i
ĠAn to
ay angkan
Ġbah agi
ila s
Ġmenc erminkan
Ġmenc olok
Ġsek edar
ic ation
Ġsatu an
ka ge
Ġmel arang
Ġmel enggang
Ġga et
Ġberk e
pan si
Ġpel embab
amb ah
ĠV el
ĠV ol
ĠV ersi
Ġhar apkan
od etabek
Ġbers epeda
ons truksi
Ġmenga wali
Ġv egan
Ġat rak
Ġat raksi
Ġ5 6
Ġ5 9
ĠY ak
ĠY uli
Ġas p
Ġas uh
Ġas osiasi
Ġas upan
ĠZ u
ĠZ ain
tem ukan
ĠAl ber
Ġgol nya
ec k
ec uti
ec ast
ensi ty
Ġpoin t
Ġbaik nya
mb ang
ĠPro ses
bak in
Ġek onom
Ġberh enti
Ġpeny erahan
Ġan j
Ġan yar
ani ah
Ġhanya lah
Ġdis ahkan
Ġdis ediakan
Ġdis epakati
Ġdib antu
Ġdib intangi
ĠSep eda
Ġ6 6
Ġ6 7
Ġ6 8
ow drop
ĠBar bie
Ġorang tua
Ġpes aing
Ġdip anggil
Ġtr ik
und angan
Ġmendapat i
Ġsi buk
Ġ7 2
Ġ7 6
Ġpemb aca
Ġpemb atasan
Ġpemb inaan
Ġpemb ahasan
Ġsep ekan
Ġberb alik
Ġi bukota
usi al
Ġkons entrasi
Ġgr and
if li
ĠKom petisi
Ġfinal is
Ġberp esan
Ġpan u
Ġmengh orm
Ġmengh argai
Ġmenya lip
ĠSen egal
ĠSen ior
Ġ8 5
Ġpela jaran
Ġpun ah
Ġpr ed
Ġmenggunakan nya
Ġar sitektur
Ġketer gant
Ġdiper luas
ori es
ori entasi
tar get
ersi hkan
Ġbi jak
Ġbi ji
ĠLa z
ĠLa gi
ĠLa Liga
tim en
ff enheim
Ġ9 3
Ġkese imbangan
ĠAs h
men it
ĠAd am
Ġterl epas
Ġstr es
Ġ19 80
Ġ19 73
Ġdit inggal
Ġdit unjukkan
teri or
Ġpenga manan
egi atan
ĠPr ia
our ism
ĠiP ad
Ġkam u
Ġkam er
Ġrek onstruksi
uas kan
ĠFa u
Ġe arbud
ĠIs kandar
Ġdol lar
Ġsosial nya
Ġpenc inta
ĠGo T
po int
sist ensi
15 0
anc aran
Ġim bal
ĠRom eo
Ġst iker
Ġbak u
ĠMer cedes
Ġjalan an
ĠSt ep
ĠSt ef
ĠSt ate
to is
ĠUni on
Ġterbaru kan
Ġmasuk nya
uc ation
ĠEn ergi
Ġpengh asil
Ġpengh asilan
ill er
gabung kan
ĠBr asil
Ġid EA
ĠLe on
Ġmew arnai
ĠYo ga
Ġ200 6
sta lasi
Ġberla buh
ĠSat ria
ish ui
Ġmenyamp ing
Ġik onik
ĠKed atangan
old er
ĠSek olah
oro bud
Ġkr onologi
Ġkr usial
Ġkurang nya
abis an
Ġpop ulasi
okter an
ĠAus tin
ĠKon ro
ĠKon trak
Ġmengu tamakan
ĠCo C
ĠJun e
iz inkan
ĠMat t
âĢĻ ),
ĠSu yudi
ĠEx ecuti
ĠPers erang
ĠPeny elamatan
inar y
ĠSn owdrop
ĠRonal dy
MN S
Ġti ang
Ġka um
Ġka but
jur nas
ĠCom ics
In d
ĠMah asiswa
ĠDep ok
ĠUs ai
Ġtel inga
ĠStr uick
ĠJam rud
dian o
Ġkarakter istik
Ġped uli
Ġped oman
Ġpam ungkas
Ġtri poin
sen tif
ens inya
Ġpangg il
Ġsus unan
Ġmemer angi
ĠGun awan
Ġmenand akan
Ġperl omba
ĠOr ang
Ġdiperk enalkan
ĠKas ablan
omb akan
antas an
Ġcu ci
ĠDen mark
Ġkil ogram
ĠSuk u
ĠSuk am
Ġperek aman
ĠBi onic
gn an
Ġkamp us
ĠBagi an
ĠDon i
ĠDon ny
ĠHad imuljono
ĠFran sis
ĠEm irat
atuh kan
ĠIb rahim
Ġfin ish
Ġindivid ual
Ġcapai an
Ġsig n
Ġtoreh kan
Ġperg antian
Ġmenge jutkan
Ġmengin jak
ĠCel sius
ĠLight s
ĠLight ning
ĠUl ang
Ġsebab kan
Ġsebab nya
ĠPP h
ĠMod ern
ĠWar fare
UN Z
Ġangk asa
Ġstar t
Ġbertambah nya
ĠTour ister
ĠGuang zhou
ĠProduk si
ĠBag hdad
ingg it
ĠVer ona
Ġ199 7
Ġtampak nya
Ġrutin itas
TC H
ĠMall orca
Ġrel atif
ĠLu x
ĠKapol res
Ġpromosi kan
Ġmus uh
Ġterg antung
ĠRek or
Ġda un
ĠBah ru
ĠGer akan
erb al
ake up
Ġditer apkan
Ġmengga mbarkan
Ġmengant ongi
Ġkonf igurasi
Ġ???? â
Ġtra uma
ĠPar ekraf
ĠRi en
Ġmenyer ap
Ġmenyer takan
An ders
ĠDim ensity
Ġinstan si
ĠIndustri al
Ġmir as
Ġdiminta i
Ġsat gas
Ġnar asumber
Ġmemben arkan
adem y
ĠKC JB
Ġberkes inamb
ĠAustr alian
bek istan
ĠGus ti
Ġcap s
ĠPerc asi
Ġsayang nya
ĠMali q
ĠPenj elasan
Ġdiga gas
Ġpemas angan
Ġpemas ok
ĠChrom ebook
ĠChrom ecast
ĠEng ine
Ġtuk ar
Ġdikirim kan
ĠAris andy
Ġpengan tin
Ġkol ektif
ĠPur w
Ġmeles atkan
Ġisti lah
ĠFred y
ĠPengg emar
ĠRis biani
ĠPerk asa
Ġserba guna
ĠArk ham
dik budristek
ĠPember dayaan
ĠBN PB
Ġhorm on
ĠRain e
ĠTuju an
Ġrela wan
Ġkesen jangan
ster ling
ĠTeh botol
ĠUz bekistan
Or va
pos al
Ġentr y
Ġpart ikel
Ġperilis an
ĠCil egon
Ġcas ing
ĠWat ford
ĠAss ass
Ġhektar e
Sum ut
con nect
mos fer
Ġest etika
Ġdiab etes
Ġsetim nya
ĠAst ro
ĠBon ucci
ĠKub ur
ĠIku ei
ĠRup iah
ĠGaku en
Ġmerangk ul
Ġdos en
Ġbon us
ĠAyo connect
Ġkeyak inan
Ġgenc ar
Ġnas abah
ĠChild ren
ĠVo gue
Ġekst ra
ĠSpec tr
Ġmustah ik
ĠZulk ifli
Moham mad
lit ter
sonal isasi
Ġdap ur
Ġspe aker
ĠMC P
Ġmema jukan
Ġmemin im
ĠCemp o
ĠCentr e
ĠJac ob
ĠHea ven
Ġpengolah an
Ġkompeti tif
Ġelim inasi
ĠCancel o
Ġpenyalah gunaan
ĠScarlet t
ĠPegad aian
Pemp rov
koh ol
oali si
Ġdum bel
Ġdakwa an
Ġmark et
Ġpag elaran
Ġsangg up
Ġkanc ah
akeh older
Ġtelap ak
ĠSengg ol
ĠBall on
ĠBabi es
Ġbertuk ar
Ġberny anyi
Ġketur unan
ĠRama j
ĠCold play
ĠNatas ha
ĠFard aniah
Ġagr egat
Ġmembalik kan
Ġkonden sat
opec ia
ĠPeranc is
Ġbahagi a
Ġatrak tif
ĠAlber to
Ġketergant ungan
orobud ur
ĠExecuti ve
Ġperlomba an
ĠKasablan ka
Ġberkesinamb ungan
) :
- -
. âĢĭâĢĭâĢĭâĢĭâĢĭâĢĭâĢĭ
0 7
4 8
6 3
8 00
9 8
9 39
A ku
A qsa
B o
B at
C E
C he
C ity
D O
D j
D alam
D TT
E V
F XGT
G o
H I
H al
I X
J S
K ar
K as
L S
L ink
N G
N S
P H
P ada
P ER
R eal
R ound
S et
S ky
S iksa
S hut
S elatan
T O
U CL
Y NC
a il
b ur
b arkan
b ish
b atasan
c y
c uhan
c aro
c ayakan
f lame
g el
h uk
h ib
j ati
j aman
k ali
k lub
k rip
l en
l on
l il
l ew
l inya
l ist
l ater
m ah
m it
m ener
m uka
n ik
n et
n eo
n ley
o o
o akan
p r
p un
p eng
p es
p ela
q i
r un
r ap
s ela
t inggal
u v
u atan
u ci
v ir
v ensi
w or
w atan
w ig
y p
y in
z burg
Ġ ,
Ġ am
Ġ ikan
Ġ ubah
Ġ usung
ĥ £
an ia
an jang
an isasi
er re
er uan
en alan
en yum
en ario
Ġd eh
Ġd urasi
ar ak
ar masi
Ġm ut
Ġm aj
Ġm uka
Ġm anggung
Ġm ohon
Ġm asif
Ġm igran
Ġm edium
Ġp ing
Ġp ac
Ġp angan
Ġp andang
Ġp ekat
Ġp iano
at ap
at alkan
in formasi
Ġs ara
Ġs arang
Ġs kuat
Ġs oroti
Ġs iaga
Ġs ungguh
Ġk ant
Ġk apan
Ġk unjung
Ġk lin
Ġk adar
Ġk lien
la in
Ġb ad
Ġb ot
Ġb und
Ġb ilang
Ġb ack
Ġb lack
Ġb inaan
Ġb incang
Ġb lock
Ġt et
Ġt ong
Ġt eam
Ġt echnology
Ġt eleskop
si al
em ahkan
em atkan
Ġdi atur
Ġdi tamb
Ġdi target
Ġmen eg
Ġmen etap
Ġmen angi
Ġmen teri
ta q
kan an
ad uk
ya gi
al e
al em
am inya
am usim
on y
ĠS c
ĠS ik
ĠS ti
ĠS ung
ĠS ong
ĠS aw
ĠS iri
ĠS ci
ĠS arin
ĠS PB
ĠS lack
ĠS leep
ĠS UNZ
Ġse ku
ah at
as ai
as tra
Ġy uan
ĠP on
ĠP ala
ĠP emen
ĠP lat
ĠP antai
ĠP idana
ĠP ost
ĠP osisi
ĠP sik
ĠP lant
ĠP asien
ĠP DTT
ĠA ud
ĠA tas
ĠA gar
ĠA cap
ĠA ins
ĠA NF
el d
el at
el come
ĠB la
ĠB ri
ĠB ra
ĠB os
ĠB ont
ĠB alo
ĠB ody
ĠB IDR
ĠB orobudur
ju ti
or ter
Ġber buah
Ġber eksp
Ġke j
Ġke adilan
ing o
ik alisme
ĠM Y
ĠM akan
ĠM om
ĠM ai
ĠM ena
ĠM udah
ĠM eksi
ĠM angga
is tribusi
es ak
es si
es krim
ĠK amp
ĠK os
ĠK ola
ĠK ris
ĠK ate
ĠK ulus
Ġper amp
Ġper aga
Ġper esmian
Ġter mo
il er
il on
il ian
ur y
ur bish
ti tusi
Ġmem at
Ġmem akan
Ġmem era
Ġmem uncul
Ġmem engaruhi
Ġmem uaskan
Ġh andal
ĠI asi
ĠI man
ĠI KA
ol e
ol u
ol il
ĠD or
ĠD ur
ĠD okumen
Ġl um
Ġl angganan
ir st
ir ingi
Ġdengan nya
im as
im eter
ĠR ambut
ĠR ey
ĠR GB
ĠR ead
ĠR oll
ĠT C
ĠT P
ĠT y
ĠT ed
ĠT ent
ĠT inggal
ĠT ech
ĠT rofi
um o
um ma
ung e
Ġmeng an
Ġmeng is
Ġmeng ikat
Ġmeng ungg
Ġmeng unggah
Ġmeng erjakan
Ġmeng ulangi
Ġmeng gali
Ġmeng emuk
Ġmeng gabungkan
ĠC en
ĠC ah
ĠC ari
ĠC ila
ĠC le
ĠC inta
ĠC ore
ĠC rist
ĠC atatan
ĠC irc
Ġin stalasi
ĠJ eri
ĠJ edi
uk ul
uk unan
uk ainya
Ġr ok
Ġr ampung
Ġr etro
Ġr umput
Ġr incian
Ġr encananya
Ġr amping
Ġr inggit
ul t
ul aran
ul aritas
id al
id illah
ĠL ari
ĠL ewat
ĠL uka
ĠL ampir
ĠL ower
ĠL ishui
ĠIn ves
Ġla mbung
Ġla watan
ih al
ro tan
ro ps
Ġpen unda
Ġpen uaan
Ġpen ipuan
Ġpen ularan
et y
and angan
ĠG at
ĠG ad
ĠG ula
ĠG PU
ĠG uru
ĠG onc
ĠG onz
ĠG Wh
eb an
ed ja
ed ukasi
Ġg unc
Ġg itar
Ġg atal
Ġg empuran
Ġg litter
ut en
ut at
ep asan
ep lay
âĢ ¦
âĢ ľ
ĠN S
ĠN a
ĠN ana
ĠN anti
ĠN TB
ĠH akan
ĠH uman
ĠH MNS
ri ot
ri oritas
ai ght
ĠF ab
ĠF ranc
ĠF ernandez
emb e
emb urg
emb iraan
ter stock
Ġn y
Ġmer apat
Ġmer umput
Ġmer amaikan
Ġf ol
Ġf inan
Ġf isk
Ġc ipta
Ġmenj ajak
Ġmenj angkau
ok a
ĠU D
ĠU MI
ĠU din
ĠU PT
Ġj abatan
Ġj aksa
Ġj ago
Ġw arn
Ġw ayang
Ġw ihara
ew akan
ĠE y
ĠE et
ĠE di
ĠE go
ĠW a
ĠW as
ĠW es
ĠW erd
ĠW aspada
ĠW arisan
Ġpem antauan
Ġpem utaran
ot ongan
ant un
eg ar
eg ri
eh an
Ġmela mbung
wa foto
Ġa w
Ġa erob
Ġpro yeksi
Ġpro gres
Ġpro biotik
isi c
isi si
isi asi
tr ik
tr ac
Ġmemb esar
Ġmemb edakan
Ġmemb icarakan
Ġmemb antah
Ġmemb ebaskan
Ġmemb ersihkan
ĠO sta
ĠO JK
angk as
Ġak ademi
Ġmeny andang
Ġmeny ikat
Ġmeny uguhkan
Ġmas sa
Ġkar ang
Ġmu tu
Ġmend esak
Ġsem ula
Ġsem isal
Ġsem inar
ong ho
ong kar
GH IT
ingk ali
han og
ip rah
ĠPer aih
ĠPer empuan
Ġu c
ĠCh arly
da erah
Ġser aya
Ġser tifikasi
Ġser ingkali
ent ik
ay an
ay ana
duk i
Ġmenc erahkan
jar ing
Ġpers atuan
Ġsek retaris
ic es
Ġseb elah
Ġseb entar
Ġkep astian
Ġkep edul
di am
Ġberk esan
Ġpel ec
Ġpel epasan
ĠV oli
ĠV inc
ĠV ice
ĠV ision
Ġhar mon
od gk
angg eng
mi ah
Ġbers elang
Ġkem elut
Ġmenga wal
Ġmenga badi
Ġmenga barkan
Ġv ok
Ġv aks
Ġv onis
Ġat mosfer
Ġ5 000
ĠY ordan
Ġdia jak
Ġker angka
Ġmemper erat
Ġmemper ingati
Ġmemper temukan
asih at
ĠAl ter
ĠAl onso
ĠAl diano
Ġ4 7
Ġ4 9
ĠMen ko
ensi o
Ġkom ersi
ĠAr es
20 10
20 14
ind er
ind ra
Ġsangat lah
mb ar
mb ah
tur al
ungk us
ev ski
osi to
Ġpeny idikan
st ing
st yle
ĠMar zuki
ĠKe tum
Ġdis el
Ġdis ambar
ĠSe si
Ġdib eritakan
ĠBer ry
elar us
ĠPen cegahan
ĠSh a
ĠSh el
Ġsed ih
Ġkel iling
ĠPem asaran
Ġ6 1
Ġ6 9
ĠBar eskrim
Ġdunia Pewarta
emp urn
Ġdip ro
Ġdip amerkan
Ġdip opuler
Ġtr uk
und ai
Ġkec uali
Ġkec anduan
li e
Ġpend apat
ef leksi
Ġpemb ebasan
ĠMan uf
ener asi
Ġdil anda
usi f
Ġhal f
if ul
if ic
ĠKom is
Ġap parel
udian aEditor
Ġberp indah
Ġterd uga
Ġterd eteksi
Ġ0 4
Ġmengh idup
Ġmengh emat
Ġmengh idrasi
Ġmengh ubungkan
Ġal ur
Ġal okasi
Ġal opecia
engk apan
Ġmenya la
Ġmenya lurkan
Ġ201 1
Ġpela buhan
Ġters enyum
pen ko
Ġpr ediksi
Ġpr amusim
Ġketer batasan
ĠX inhua
Ġtent ara
Ġdiper oleh
Ġdiper iksa
udi e
Ġtekn ik
ĠKep utusan
wi ch
Ġseluruh nya
ĠSer dang
ĠSer pong
ĠAs ep
ĠAs sist
ĠAs ensio
ĠKam era
ĠAd v
ĠAd min
ĠPS DS
Ġ19 99
Ġdit unda
Ġdit enagai
Ġdir asakan
Ġmusik us
lan juti
Ġmod em
Ġdid irikan
Ġmengg el
Ġmengg enggam
Ġmengg erakkan
Ġtampil kan
let ing
utu be
ĠMad uro
ĠMad dis
ĠTer tinggal
Ġman can
art an
Ġdiri kan
Ġkam ar
Ġ16 0
lo ud
entu an
ez a
ĠMas ing
ĠMas duki
ĠPeng emudi
Ġberd urasi
Ġpenc airan
Ġkualitas nya
Ġterk e
na ia
ĠRom ero
Ġst y
agi ta
Ġkond isinya
Ġkond usif
Ġantar muka
ĠItal ian
ĠQ uali
eran kan
eran tas
ĠSt an
eli gi
12 8
Ġterp aksa
Ġterp enting
Ġsisi r
uc u
ĠKar ina
ĠSam ud
ĠEn embe
Ġpengh ormatan
uf a
ĠAk si
ĠAk bar
ĠBr and
Ġid entifikasi
Ġ25 0
Ġop tik
Ġdin obatkan
Ġ17 0
Ġdar atan
ug erah
ans er
Ġmew aspadai
Ġken akan
Ġken tal
Ġ200 3
Ġberm utu
Ġberm uatan
ĠTur namen
ĠKem itraan
ĠAc ademy
ĠAng ke
Ġso ft
PU I
ĠSal im
ĠSal zburg
Ġmat te
ĠBo om
ĠTh read
Ġja zz
Ġpet ani
Ġpet unjuk
ĠSek tor
Ġrilis an
Ġkr itik
Ġdic ari
Ġdic apai
ĠMed ical
Ġpor ta
Ġpar ah
ero y
kar hutla
Ġdisi mak
ĠSp PD
Ġkelas nya
Ġspesi fik
ĠDan ny
ĠJun as
ĠMat h
ven tion
ĠMeng gunakan
ĠTrans Jakarta
ĠVal ve
Ġint el
ĠAI oT
ĠSan cho
Ġbala s
ĠDr ake
ĠCon vention
ĠEl ektr
hut tle
Ġpenyel ewengan
AK TI
ĠLea o
Ġmil enial
Ġmil imeter
Ġka os
jur ing
ĠSum bag
ĠSum mit
peran kan
Ġtem ukan
Ġtum it
ĠMah endra
Ġtel efoto
ĠStr ategis
ĠItu lah
ĠMon za
Ġkarakter nya
usul kan
ĠSho fi
Ġsal urkan
ĠMel ihat
ĠMul yadi
ĠKons ens
ĠTi ongho
Ġdikon trak
Ġbr acket
Ġbr ilian
Ġbus iness
Ġsemp rotan
Un titled
Ġtinggal kan
Ġform ula
ĠTr ello
Ġpemer k
Ġmenand ai
Ġperl engkapan
ĠHam dani
ĠPC INU
ĠGar cia
25 6
ĠDen zel
Ġkil at
Ġfasil itasi
ĠNet IX
Ġkont eks
ĠBur nley
ĠDon cic
ĠDis c
ĠDit lantas
ĠHad ju
Ġmengad opsi
ĠOlymp us
PL AY
ĠBor neo
ĠLay over
ĠSemua Editor
utrad arai
abri kan
Ġab ad
Ġmengin spirasi
Ġrun ning
Ġelektr ik
UN T
ren eur
Ġpla stik
Ġkand idat
ĠPh il
ĠPela jar
ĠKr amat
Ġjawab an
Ġpad amkan
ĠPetu gas
ĠBag naia
ĠOn ic
Ġpelaksana annya
TI ON
ĠHo ffenheim
Ġkarir nya
ĠSeh at
Ġjangka uan
200 9
Ġdiw ujudkan
Ġdisebut kan
ĠBlu etooth
ĠPi ece
ĠPi erre
ĠBah lil
ĠHy undai
ĠFinal s
ĠYus uf
Ġditer bitkan
ĠCan va
Ġeksp resi
Ġeksp lorasi
ĠPar fum
ĠRS UD
Ġpesepak bola
Ġmanaj er
tiga si
Ġmeres pons
Ġmeres mikan
ĠOff ice
Ġpil ot
ĠAkan e
ĠDar uss
ĠJul y
Ġreal istis
Ġpec ah
ĠMi yagi
ĠDev il
Ġmengec ek
ĠCA TCH
ĠMend y
Ġmengend arai
ĠNugr aha
ĠPerm ana
Ġpip anisasi
untu t
ĠPan ama
ĠLuc as
day akan
ĠPul isic
ĠPres ent
ĠBam bu
ĠKC IC
ĠPerh ubungan
KC K
Ġdo a
Ġpay later
Ġcamp uran
II AS
Ġbend ungan
ĠEks ekutif
ĠSom eth
ĠGas caro
Ġpemad am
van ce
Ġtuk ang
ĠMor eno
ĠCap e
Ġpungkas nya
ĠPil pres
ĠMedia Tek
ĠCal hanog
ĠEV NNE
Ġkeri cuhan
ĠSitu s
ĠTrad e
ĠJat im
ĠGian yar
ĠFerd inan
Ġkompet ensi
ĠSouth ampton
Ġpsik ologis
Ġkera gaman
ĠPac kage
ĠPekerja an
ĠPurn omo
ĠTian li
Ġmenghan tam
ĠJab odetabek
ĠGla dies
ĠHD R
ĠOper asional
oso fi
Ġanim asi
ĠAngk atan
ï¸ıâ ļ½
ï¸ıâ ĥ£
Ġpap aran
Ġbob ot
Ġdiungk apkan
ĠST NK
ĠPay et
ĠAy udianaEditor
ĠBap ak
ĠDew i
ĠCour tois
Ġmenyatu kan
eau x
Ġketert inggalan
ĠIsma il
Dit reskrimsus
fri es
ĠBM W
ĠRoh manEditor
ĠOri flame
ĠChair ul
icip i
Ġkontes tasi
Ġdijalan kan
Ġkeg embiraan
ĠDream y
Ġrem ot
Ġrad ikal
Ġpeneg akan
ĠUba idillah
Ġpasc ab
ĠDonnar umma
Ġcleansheet s
ĠElectronic s
Kon bes
angs ungan
Ġdiap likasikan
ĠBangk ok
Ġham il
Ġhiper tensi
ĠDA X
ĠDum fries
ĠRec ord
Ġmengon firmasi
Ġrah asia
ĠFast Charge
Ġmencontoh kan
ĠAbb ey
ĠSpr ing
ĠNicola s
Bar celona
uta an
erik en
Ġmis teri
Ġkolabor atif
Ġblu e
ĠPena jam
ĠPic tures
ĠAre a
istri kan
ĠKO NI
Ġinklusi vitas
Ġner aca
ĠWA UNT
ĠWond er
ĠMarsh el
ĠSelang or
ĠPrak tisi
ĠBoo yah
Ġmarsh all
Bay ern
Rom ano
Ġsind ikat
ĠBord eaux
ĠDri ve
ĠDita mbah
ĠGD W
ebo ard
Ġwor kshop
ĠEc onom
ĠWilli am
ĠAnto ine
Ġanj lok
Ġpred ikat
Ind onesia
ĠLux emburg
ĠAssass ins
ĠSpectr e
Set elah
Shut terstock
huk am
mener us
Ġping gul
Ġsara f
Ġtong gak
Ġditamb ahkan
Ġditarget kan
ĠSarin ah
ĠAins ley
ĠANF R
ĠBont ang
ĠBalo gun
ĠMeksi ko
ĠMangga la
istribusi kan
ĠKola se
ĠKulus evski
Ġtermo tivasi
urbish ed
Ġmemera gakan
Ġmemuncul kan
Ġmengungg uli
Ġmengemuk akan
ĠJeri cho
Ġpenunda an
rioritas kan
Ġfisk al
Ġmenjajak i
Ġwarn anya
ĠOsta penko
Ġkepedul ian
odgk in
Ġmengabadi kan
ĠYordan ia
Ġdipopuler kan
ĠManuf actur
ĠAdmin istrasi
ĠMaddis on
Ġmancan egara
ĠThread s
ĠElektr onik
ĠSumbag sel
ĠKonsens us
ĠTiongho a
ĠDaruss alam
ĠCATCH PLAY
ĠCalhanog lu
) -
0 2
1 20
4 1
7 1
7 00
8 90
9 4
B el
B PBD
B ook
C om
C art
D R
D ari
E K
F L
F T
F er
F itra
F abrizio
G s
G et
H S
J D
J ika
J ACX
K e
K PU
K JRI
L ia
L et
L abuan
L ife
M S
M ar
M as
N O
P ad
P al
P ro
P op
P MK
Q uran
S P
S un
S ela
S ep
S ports
T D
T a
T rans
T IC
U ni
a u
a ungan
b le
b enda
b ass
b uru
b elak
b incang
c ol
c ode
d engan
d ui
d ney
f ol
f tar
f ektur
g h
g ate
g uhnya
g round
h u
h asil
i asi
i gu
j anya
j elang
k h
k k
k am
k ing
k ina
m n
m anya
m ila
m asa
n omor
o ter
o ja
o tif
p g
r ih
r alph
s ar
s ari
s amp
s leting
t engah
t omo
u at
u ilon
w ala
w asi
w ac
w id
w ork
y on
y im
y na
y ear
z inan
Â ®
Ġ $
Ġ .
Ġ asi
Ġ it
Ġ ud
Ġ udah
Ġ ima
Ġ amun
Ġ angkat
Ġ enter
Ġ amat
Ġ ingatkan
ļ ª
an as
an ic
an faatan
er ak
er ol
en angan
en nia
en oble
Ġd uka
Ġd own
Ġd ress
Ġd raw
Ġd kk
ar ed
ar angkan
ar Pods
Ġm ari
Ġm andi
Ġp i
Ġp al
Ġp id
Ġp ew
Ġp av
Ġp ujian
Ġp ulih
Ġp ingg
Ġp apar
Ġp ijat
at aran
at tri
in am
in um
Ġs alam
Ġs aran
Ġs aw
Ġs usah
Ġs umbang
Ġs opan
Ġs wafoto
ang is
Ġk g
Ġk ok
Ġk ena
Ġk atakan
Ġk uda
Ġk lip
Ġk adang
Ġk oper
Ġk utik
Ġk oalisi
la p
la mb
la usul
la uren
ak ak
Ġb l
Ġb ia
Ġb ali
Ġb elang
Ġb elasan
Ġb intangi
Ġb etul
Ġt opi
Ġt awarkan
Ġt egaskan
Ġt oner
Ġt injauan
si f
em ik
un as
un is
un it
Ġdi lah
Ġdi sa
Ġdi st
Ġdi undang
Ġdi tentu
Ġdi andalkan
Ġdi imbangi
ga wa
ga me
Ġmen um
Ġmen anti
Ġmen enangkan
Ġmen anyakan
ad ak
ad olu
tu l
tu ti
al anya
al do
al uskan
am eter
on tor
on jakan
ĠS D
ĠS m
ĠS id
ĠS up
ĠS ua
ĠS ulit
ĠS anti
ĠS eksi
ĠS ich
ĠS tandar
ĠS tanding
ĠS oria
ĠS utradara
ĠS ipil
ĠS anggeng
ĠS KCK
Ġse sung
Ġse ason
Ġse imbang
ah u
ah it
ah abat
as ti
as bour
as una
ĠP os
ĠP ura
ĠP otensi
ĠP esan
ĠP enting
ĠA ul
ĠA had
ĠA ha
ĠA lam
ĠA PR
ĠA CL
ĠA gama
ĠA cho
ĠA tase
ĠA turan
ĠA ufa
el s
el us
el angan
el ompok
ĠB il
ĠB aw
ĠB li
ĠB isa
ĠB icara
ĠB olog
ĠB ins
ĠB SD
ĠB illi
ĠB lancos
ĠB PUI
or angan
or os
Ġber jar
Ġber ni
Ġber dag
Ġber min
Ġber isti
Ġber orientasi
Ġke ta
Ġke tinggi
ing er
ing sih
ik i
ik iran
ĠM ada
ĠM eg
ĠM old
ĠM ost
ĠM igran
ĠM idd
ap p
ap ak
ap ol
ap arkan
ap asan
ap likasi
ap asar
is on
is ka
is lat
es o
es us
es co
ĠK B
ĠK ang
ĠK ew
ĠK amb
ĠK eter
ĠK opi
ĠK anta
ĠK yle
ĠK iat
ĠK ampus
Ġper ang
Ġper jalan
Ġper ihal
Ġper orangan
Ġter api
Ġter apkan
Ġter kuat
Ġter umbu
us antara
ari at
ari kan
ur ai
ti g
Ġmem ikat
Ġmem uka
Ġmem aks
Ġmem utar
Ġmem atikan
Ġmem ulihkan
Ġmem aparkan
Ġh as
Ġh ib
Ġh anc
Ġh ead
Ġh itungan
it r
ĠI ma
ĠI ohan
ol et
ol ong
ol ina
ĠD ol
ĠD id
ĠD up
ĠD ip
ĠD ow
ĠD ebut
ĠD eli
ĠD ual
ĠD AK
ek om
Ġl ans
Ġl ower
Ġl urus
Ġl ogo
Ġl arangan
Ġl onjakan
ir in
Ġun iv
Ġun til
ĠR ela
ĠR ac
ĠR ui
ĠR encana
ĠR ate
ĠR ach
ĠR egional
ĠR eza
ĠR eligi
ĠT s
ĠT ec
ĠT enc
ĠT iti
ĠT unjung
ĠT ze
ĠT angkapan
ĠT wo
ĠT ingginya
ĠT ambahan
um des
Ġmeng or
Ġmeng gu
Ġmeng eks
Ġmeng kon
Ġmeng erti
Ġmeng utar
Ġmeng embalikan
Ġmeng optimalkan
ĠC r
ĠC er
ĠC ib
ĠC are
ĠC raz
Ġin vasi
Ġin tui
Ġin sentif
Ġuntuk nya
ĠJ apan
ĠJ ACX
ac c
Ġr ed
Ġr uas
Ġr ont
Ġr antai
gi e
gi an
ul tas
id en
id entifikasi
om er
ĠL Q
ĠL adi
ĠL aw
ĠL ist
ĠL egi
ĠL istrik
ĠL aks
ĠL lor
ĠL imfoma
ĠL ifestyle
ĠL td
ĠIn c
ĠIn sti
Ġla ju
ata u
Ġpen anggulangan
Ġpen etapan
Ġpen elus
ia o
et ing
et oria
aca o
ud mila
ĠG y
ĠG aya
ĠG ra
ĠG ade
ĠG abri
ĠG var
eb olan
ed isi
Ġg eng
Ġ1 12
ep si
ĠN ama
ĠN agita
ĠH u
ĠH en
ĠH itu
ĠH eri
ĠH utan
ĠH old
ĠH alal
ĠH alaman
ĠH ipotiroid
ĠH ome
ĠH ealth
ri busi
ri que
atan an
ĠF an
ĠF as
ĠF all
ĠF IN
ĠF umi
ĠF isik
ĠF ootball
ĠF HD
emb ap
per tandingan
Ġba yar
Ġn ota
Ġn ov
Ġn ow
Ġn aungan
Ġn usantara
Ġmer ed
Ġmer ch
Ġmer ob
se y
se imbangan
Ġf armasi
Ġc m
Ġc ar
Ġc ol
Ġc ek
Ġc iv
Ġc airan
Ġc iam
Ġc ross
Ġmenj ebol
ĠU b
ĠU us
ĠU eda
ĠU tomo
ali sir
Ġj en
Ġj ala
Ġj ahat
Ġj eriken
Ġw angi
Ġw arnai
Ġw att
Ġw argan
ĠE R
ĠE U
ĠE p
ĠE ditor
ĠE lim
ĠE BT
ĠE arPods
ĠW is
ĠW il
ĠW ij
ĠW aduk
Ġpem uda
Ġpem bawa
Ġpem ulangan
Ġpem akaian
ita an
Ġpeng ec
Ġpeng ikut
Ġpeng edar
end ak
end am
ama guchi
eri kan
baga imana
anya an
ja itan
tr asi
Ġmemb idik
Ġmemb atasi
Ġmemb oyong
ĠO ton
ana fi
Ġak omodasi
Ġpo wer
lah at
lah ovic
Ġmeny el
Ġmeny ed
Ġmeny imp
Ġmeny ebar
Ġmeny ukses
Ġmeny usun
Ġmeny embunyikan
Ġmeny ukainya
Ġmeny arangkan
Ġkar ate
Ġmend arat
Ġmend atar
Ġmend eteksi
Ġmend aft
Ġmend oakan
Ġkon tingen
os s
os aan
oleh kan
ch e
ch an
ch ange
op pa
ingk us
ob ia
ob os
ob ekan
ob rak
ob rol
ob ike
ub dit
ĠPer wakilan
ĠPer istiwa
ĠPer bakin
Ġad ik
Ġad uan
Ġad aptasi
re ak
re asi
re ement
ĠCh er
ĠCh olil
da ul
Ġser ahkan
ĠAn tar
ĠAn ugerah
ĠAn adolu
ay o
ay anya
ila uan
Ġmenc uci
Ġpers on
Ġpers pek
Ġpers ediaan
Ġsek ian
Ġsek ilas
Ġmel u
Ġmel ompat
Ġmel ancarkan
ola li
Ġga lah
di o
di ol
di yin
di perankan
Ġberk ed
Ġberk ali
Ġberk ons
Ġberk ilau
ĠV isi
Ġhar d
angg akan
angg ilan
mi grasi
Ġbers alah
Ġbers atu
Ġbers inar
era gaman
ran sit
Ġmenga s
Ġmenga bulkan
Ġmenga cu
Ġmenga wasi
Ġv eter
ib aku
sa bu
Ġ5 1
Ġmembu ang
ĠY ann
Ġdia gnosis
Ġbaru Pewarta
Ġker en
Ġker ukunan
Ġas linya
Ġsel eksi
Ġsel angkah
Ġsel ebar
Ġdik ur
Ġdik embalikan
ĠAl lan
ĠAl fa
ĠAl ess
ĠAl dy
unc ulan
unc aki
Ġ4 1
Ġgol ongan
ec epatan
ĠAS N
ĠMen uju
ĠMen embak
ĠMen anggapi
ĠMen jelang
ensi al
Ġres esi
Ġkom isi
ĠAr th
ĠAr tinya
ĠAr yna
20 15
gar is
gar et
ungk apan
Ġek sistensi
Ġberh ubungan
Ġpeny ediaan
ĠMar iska
ĠKe empat
ĠKe ys
Ġdis usul
Ġdis aksikan
Ġdis umbangkan
Ġterb erat
ĠSe bagian
Ġdib ilang
Ġdib entuk
Ġpas ukan
ĠBer awal
anti asa
ĠPen gam
ĠPen yi
ĠPen urunan
ĠSel andia
Ġsen timen
Ġsen antiasa
Ġkel ola
Ġkel ebihan
Ġkel ancaran
ĠPem impin
ĠPem anfaatan
Ġ6 00
ĠAp ar
ĠAp abila
enc y
enc ia
ĠBar elang
ologi es
Ġpes ona
Ġdip egang
Ġdip otong
Ġdip adukan
Ġtr ek
Ġklub nya
ikan nya
Ġpend iri
Ġpend atang
Ġpend inginan
Ġ7 1
Ġ7 4
Ġsep aruh
Ġdil angsungkan
Ġberb anding
Ġberb unyi
Ġberb ekal
Ġmeningkat nya
oh i
Ġsk in
Ġsk enario
gas an
usi k
Ġkons truk
Ġket inggalan
Ġap em
baik nya
Ġkeb ers
Ġkeb untu
Ġberl atar
Ġberl okasi
Ġ0 6
ĠKemen perin
Ġal kohol
Ġmenya pa
Ġmenya sar
Ġ8 2
Ġ8 9
Ġtak luk
Ġ15 1
Ġmendapatkan nya
Ġar tificial
ĠX X
ĠX in
Ġdiper barui
Ġdiper untuk
Ġdiper sonalisasi
ard y
ĠGr enoble
ĠKep astian
ersi h
ĠKota baru
ci us
ci ent
Ġdem am
aris ma
Ġ9 8
Ġpern apasan
ĠAs y
fi er
Ġkek alahannya
ĠPS S
Ġstr aight
Ġ19 70
Ġdit angkap
Ġpenga dilan
iti on
lan et
Ġmengg eser
ĠMad u
ĠPersi apan
asis me
ĠTer b
ĠTer baru
Ġeks pansi
ĠPr inc
ĠPr etoria
Ġlok apasar
Ġlap ak
Ġkas ar
Ġkas et
Ġbulan an
ĠSta de
Ġri il
ĠOl iv
ĠReal ly
ĠPas tikan
ump ulan
enam kan
Ġbu yback
ĠMas uk
ĠMas ohi
ĠPeng gunaan
Ġberd ua
Ġpenc arian
Ġpenc alon
Ġpenc etakan
nis cient
etu lan
ond ong
Ġsis anya
Ġkend ala
Ġdig antikan
Ġsiap apun
anc ed
Ġterk end
esi s
Ġst akeholder
cap il
Ġdih indari
Ġdih entikan
ĠIni esta
ampak nya
ĠPel ita
ĠPel angg
ĠPel indo
inasi kan
Ġterakhir nya
Ġmemp rakirakan
ĠSem inar
Ġmengen ali
19 9
Ġkomp lek
Ġkomp utasi
ĠSt ev
ĠKal sel
ĠKor ban
Ġterp uruk
Ġ14 9
ĠMe at
ĠMe eting
Ġrambut nya
arg er
ĠEn er
zz ard
anta p
ĠAk h
ĠAk ses
ĠBr yan
ĠBr uy
ĠBel la
ĠSur vei
Ġkal ender
Ġmenang is
ĠLe Sports
ĠNur ul
Ġbelak angan
Ġsur vei
Ġperk ara
ĠYo anita
ĠYo utube
versi tas
Ġ200 4
Ġberm otif
ĠRa ze
Ġkor upsi
ĠKem erdekaan
ĠEd di
ĠAng ela
ĠKed okteran
ĠKed utaan
PU PR
ĠSal isu
Ġfokus nya
Ġsu aminya
Ġed itor
Ġed ucation
Ġtangan i
ĠBo x
Ġperm udah
iy ung
Ġtro pis
SI C
imb angkan
Ġkr iminal
Ġdic iptakan
ĠBen i
ĠBen ardy
raf t
Ġaku isisi
Ġpop ularitas
Ġpar ameter
ĠAb idal
Ġpuncak nya
Ġbert enaga
ĠKu alitas
Ġmaksim alkan
ĠSp ider
Ġsta f
ĠKon ten
Ġmengu atkan
PS SI
Ġbern omor
ĠMat ch
ĠMat to
ĠMat erazz
ĠPL C
ĠDj ohan
ĠSu zuki
ĠSya m
ĠTrans portasi
ĠVal encia
ĠSim anic
ĠSan xing
ĠPlay station
ĠMu ch
ĠDr ama
ĠCon c
ĠCon nect
Ġoptim isme
ĠKh arisma
ĠRah abi
Ġtip e
jur kan
ĠMem ories
Ġefek tivitas
lis kan
ĠSum mer
ĠTel uk
Ġtum or
Ġtum buhan
Ġmenurun nya
ĠOP D
ĠSus anto
ĠStr asbour
Ġditu lis
ĠMo on
Ġpand uan
Ġsal e
ĠGol den
ly n
anj ung
Ġpres entasi
Ġbas ah
ĠTr en
ĠLo gam
Ġkeber adaan
ĠWid y
Ġdom inasi
ĠKas at
omb inasikan
ace uti
Ġbawa an
ĠBeat lew
Ġdira gukan
ĠBa id
Ġprofesional nya
PK LU
Ġengg an
Ġpember antasan
Ġdu gaan
asta wa
ĠNah diyin
ĠTab let
Ġref er
Ġref urbished
Ġmelew atkan
Ġmenun da
Ġmenun taskan
ĠAK P
Ġpert anyaan
ĠIslam of
CA EXPO
Ġperg elangan
Ġlo ok
Ġmengin isiasi
ĠFer y
Ġvir us
ĠPh arm
ĠPes antren
ĠPela buhan
Ġtreb el
Ġdiad opsi
ĠGu itar
Ġmelemah nya
ĠFaisal Editor
Ġsamb angi
Ġberj ibaku
ĠCol leg
ĠKapol ri
Ġpat ah
Ġdiw aspadai
ĠMc Cart
Ġterg anggu
ĠCre am
acam ata
iansyah Editor
ĠOs asuna
Ġtol eransi
ĠAg ensi
ĠBund aran
cho ol
ston ia
ĠBerb eda
Ġeksp edisi
ĠAbdul lah
rus h
ĠStudi os
Ġkela inan
Ġkela utan
ĠRiz al
Ġintensi f
Men kominfo
SM A
hy un
ĠMur alitharan
ĠOff icial
ĠDar mawan
Ġrep roduksi
ĠHas try
ĠHas yim
echn ologies
Ġbertu liskan
ĠMi ami
Ġmengar ahkan
Ġmengec oh
ĠJus uf
ĠSl eman
ĠCip utat
Ġrup anya
Ġwe arab
Ġdokumen ter
Ġpip a
Ġpip i
Ġhilang nya
oll road
eku ensi
TE M
Ġsl ogan
ĠKC NA
ĠRad itya
ĠCor por
Ġmatch ing
ĠCakra wala
Ġterm inal
ĠDek ai
ĠTO UR
ĠGus tian
ĠFak ta
ĠFak ultas
ĠEur obike
Ġpendamp ing
Ġok si
ĠBill lie
Ġpeman asan
Ġprot eksi
Ġberkari er
ĠPasaribu Editor
ĠSom mer
ĠPresi si
ĠAwal uddin
ĠView point
ĠSun screen
ĠCS R
embatan i
Ġnatural isasi
Ġadmin istrasi
Ġvari asi
Ġvari atif
agama an
Ġpermuk iman
TEA rizer
ĠPla za
ĠBak rie
ĠMemb ahas
ĠDian a
ĠReg uilon
ĠCur acao
Ġgug up
ĠEst ate
etul nya
Ġisti rahat
Mer cedes
Ġamp as
Ġmak na
Ġkeri put
Ġdias uh
ĠTrad ing
Ġmengund uh
ĠJat eng
Ġgar apan
ĠFre edom
ĠFerd iansyahEditor
ĠChrist op
ĠChrist ine
ĠArk han
Ġdipilih nya
Ġkompet en
ĠSouth gate
ĠKonsul at
ww w
Ġeng sel
ĠPac ific
ĠTian jin
Ġco at
ĠPenc emaran
ĠAtlet ik
ĠValent e
ĠValent ino
BE I
Pol ri
lant is
Ġdiungk ap
ĠSir egar
ĠMut taq
Ġhand uk
ĠBern ardo
Ġmenonjol kan
dir edja
ĠPang eran
Ġlemb ap
ĠRas mus
ĠLak ers
ĠHistor i
ĠHistor y
ĠFound ation
ĠProduc t
Ġdiplom asi
ĠHarris on
Den mark
Tim nas
hin ha
akh stan
Ġmenek en
ĠSamp ai
ĠBI GHIT
ĠMA BAR
ĠMats ani
ĠRev olt
ĠTU F
Ġreh at
ĠFernand es
ĠWib owo
Ġkompat ib
ĠAkhir nya
ĠCommun ity
ĠPraset yo
Dis kominfo
Ġil miah
Ġditand ai
Ġmenemp el
ĠPre fektur
ĠBuch ori
Ġkey board
ĠKad in
ĠKup ing
Ġperform anya
Ġterpan tau
Ġpenamp ungan
ĠFu zhou
Ġpound sterling
ĠCoun try
ĠTreb el
ĠBanjar baru
drum s
key board
Ġdires mikan
ĠSay id
ĠPeri zinan
ĠKro os
Ġmengatas inya
ĠGab ungan
abin et
ĠOver watch
Ġaksesi bilitas
ĠPerg uruan
ĠYul iani
Ġselebri ti
ĠMarqu ez
gej ala
ĠSof yan
ĠSuperc oppa
ĠMois TEArizer
ĠMilk Life
ĠPramud ya
erus alem
Ġkak inya
Ġtaw uran
ĠSpe ed
ĠKurn iawan
Ġperinta h
ĠDesi gn
Ġliv ery
ĠCG V
ĠJis oo
ĠLul ur
ĠGand aria
ĠHid ayat
Ġnetr al
Ġcok lat
ĠZu yi
ĠZain al
Ġmenghorm ati
ĠGoT ransit
ĠStep hen
ĠMatt eo
Bat am
hib ition
Ġmut lak
Ġtet angga
ĠSci ence
ĠAcap ella
Ġperaga an
ĠRGB W
ĠTent unya
ĠCila cap
ĠCirc uit
ĠGonc alo
ĠNS YNC
ĠFab io
Ġfinan sial
Ġaw et
Ġaerob atik
Ġvaks in
Ġkomersi al
ĠShel ton
Ġdipro yeksi
ĠKomis aris
ĠXinhua Editor
ĠAssist ant
Ġterke jut
Ġsty lish
ĠQuali fier
ĠSamud ra
ĠBoom erang
Ġporta bel
Ġpemerk osaan
ĠSometh ing
Ġpascab encana
Fabrizio Romano
Let ters
Uni versitas
ralph lauren
Ġit em
Ġud aranya
Ġdraw ing
Ġpal su
Ġpav iliun
attri ck
Ġkutik ula
lamb atan
Ġdilah irkan
Ġdisa jikan
Ġdist ribusi
Ġditentu kan
ĠSanti ago
ĠSich uan
Ġsesung guhnya
ĠAul ia
ĠAha u
ĠBil bao
ĠBli zzard
ĠBolog na
ĠBins ar
Ġberjar ak
Ġberni at
Ġberdag ang
Ġberisti rahat
Ġketinggi an
islat or
ĠKamb oja
ĠKanta diredja
Ġmemuka u
ĠIohan nis
ĠDup lantis
ekom unikasi
ĠTenc ent
Ġmengutar akan
Ġintui tif
ĠJACX Editor
Ġront ok
ĠLadi es
ĠLegi an
Ġpenelus uran
ĠGvar diol
Ġciam ik
Ġcross over
Ġwargan et
ĠWij aya
ĠOton omi
Ġmenyukses kan
Ġmendaft arkan
Ġperspek tif
Ġveter an
ĠAless andro
ĠArth ur
ĠPengam at
Ġkebers amaan
Ġkebuntu an
Ġdiperuntuk kan
Ġpencalon an
ĠBruy ne
ĠLeSports ac
ĠMaterazz i
ĠDjohan Editor
ĠSanxing dui
ĠStrasbour g
ĠBeatlew eek
ĠIslamof obia
ĠMcCart ney
ĠHastry ka
ĠMuttaq in
0 1
0 15
1 13
3 7
4 4
4 00
5 1
5 2
6 1
7 99
8 99
9 1
A da
B O
B er
B PS
C I
D B
D an
D OTA
E I
E d
E n
E s
E ti
F G
F S
F ood
G K
H P
H a
H ome
H yun
I s
I tal
J okowi
K T
K U
K r
K al
L H
L L
L ay
M A
M Y
M ifi
N PL
N ext
O ne
P j
P us
P aris
P MI
P FA
P rov
R O
R ide
S er
S am
S ek
S aat
S urabaya
S mart
S even
T V
T er
T api
T hailand
T eori
U U
U HP
V C
V SI
W eng
W elcome
X i
b at
b as
b dian
b ersih
c ta
d uh
e bu
e tisi
f ak
f tus
f if
g t
g at
g ara
g end
h ing
h is
h ot
h las
h argaan
h itung
i ac
j e
j ian
k is
k ul
l ib
l ess
m em
m ir
m inal
m itra
m edi
n eth
n ews
o C
o a
o us
p aran
p ula
p asar
p aduan
p inang
r al
r uang
r oli
s em
s erta
t m
t end
t anya
t ika
t empat
t he
t anyakan
u x
u aran
v o
v is
v ari
v eri
v ajal
v ices
w il
w egi
w antoro
x el
y ut
y aran
y anti
z et
z ation
z ovic
Ã ¼
Ġ asa
Ġ asih
Ġ otor
Ġ etika
Ġ anggap
Ġ over
Ġ ambang
Ġ ukir
an ek
an ja
er ek
en anya
en tal
en ne
en ital
Ġd as
Ġd enda
Ġd wig
Ġd endam
ar ut
ar ch
Ġm ad
Ġm ur
Ġm ol
Ġm ud
Ġm arg
Ġm ainkan
Ġm Ah
Ġm eja
Ġm ix
Ġm akeup
Ġp l
Ġp u
Ġp eg
Ġp uc
Ġp impin
Ġp adang
Ġp ahami
Ġp acu
Ġp okok
at han
at gam
at eboard
in one
Ġs ih
Ġs por
Ġs urut
Ġs idik
Ġs umur
Ġs huttle
ang inya
Ġk ag
Ġk enal
Ġk ikir
Ġk unjungi
Ġk encan
Ġk iriman
Ġk lausul
la des
ak tifkan
ak mur
Ġb in
Ġb al
Ġb ed
Ġb ig
Ġb ea
Ġb aris
Ġb andang
Ġb esi
Ġb etah
Ġb idik
Ġb atal
Ġb osan
Ġb unuh
Ġb adai
Ġt and
Ġt engg
Ġt ulus
Ġt eori
Ġt ourism
em ang
Ġdi al
Ġdi ba
Ġdi et
Ġdi pat
Ġdi masuk
Ġdi hi
Ġdi atasi
Ġdi akhiri
Ġdi antisipasi
Ġdi ingat
ga cy
Ġmen el
Ġmen ata
Ġmen angkan
Ġmen opang
tu gas
al id
al ut
am atis
on tal
on to
ĠS A
ĠS z
ĠS ad
ĠS es
ĠS ara
ĠS ai
ĠS TA
ĠS ter
ĠS angk
ĠS ota
ĠS tand
ĠS iv
ĠS abu
ĠS anan
ĠS tri
ĠS ug
ĠS EO
ĠS low
ĠS mara
ĠS lav
ĠS AKTI
ĠS PKLU
ĠS chool
Ġse j
Ġse s
Ġse kuat
ah ang
ah al
ah agi
as tuti
ĠP l
ĠP in
ĠP anti
ĠP ilih
ĠP hone
ĠP MK
ĠP anc
ĠP ilihan
ĠP MI
ĠP uji
ĠP ress
ĠP raw
ĠA H
ĠA N
ĠA f
ĠA o
ĠA PK
ĠA FF
ĠA ix
ĠA sisten
el man
el ihara
ĠB ian
ĠB engk
ĠB ekerja
ĠB raga
ĠB angga
ĠB ass
ĠB atik
ĠB abel
ĠB PK
ĠB iru
ĠB umbu
ĠB elarus
ĠB umdes
or ot
Ġber es
Ġber tar
Ġber eks
Ġber egu
Ġber vari
Ġke un
Ġke ari
Ġke daul
Ġke agamaan
Ġke anek
ik or
ĠM M
ĠM W
ĠM ama
ĠM angk
ĠM os
ĠM ub
ĠM ov
ĠM ember
ĠM og
ĠM angun
ĠM esi
ĠM andal
ap as
ap hy
is ang
is akan
is ensi
is ono
is kusi
is oft
is sion
ala ba
ĠK ol
ĠK alah
ĠK le
ĠK od
ĠK li
ĠK oh
ĠK emar
ĠK usta
ĠK AI
ĠK LA
ĠK arim
ĠK iki
ĠK UHP
Ġper anan
Ġper ikan
Ġper hi
Ġper ekat
Ġper undang
Ġper bankan
Ġter eal
Ġter tua
Ġter ukur
Ġter tib
us ut
us sa
us tan
us so
ari ti
ur usan
ti onal
Ġmem ak
Ġmem esan
Ġmem otong
Ġmem erankan
Ġju ang
ela ifi
Ġh uman
Ġh indari
Ġh entikan
Ġh atinya
Ġh erbal
Ġh attrick
it annya
bu tuhan
ĠI q
ĠI dul
ĠI gn
ĠI JD
ol at
ol ongan
ol eskan
ĠD M
ĠD uk
ĠD ong
ĠD ic
ĠD ib
ĠD aan
ĠD istrik
ĠD aftar
ĠD idi
ĠD EW
ĠD erna
ek am
ek uk
Ġ2 17
Ġl e
Ġl emp
Ġl engah
Ġl elang
Ġl antai
Ġl ompat
Ġl irik
Ġl ucu
ara gaman
ir it
ir awan
ir okrasi
Ġun dian
ĠR if
ĠR ham
ĠR andy
ĠR AN
ĠR incian
ĠR oku
ĠT ata
ĠT ub
ĠT empat
ĠT urut
ĠT ern
ĠT ris
ĠT hi
ĠT ond
ĠT anggal
ĠT ex
ĠT indak
ĠT oni
um uskan
Ġmeng gi
Ġmeng angg
Ġmeng isahkan
Ġmeng ukir
Ġmeng upayakan
Ġmeng izinkan
ĠC i
ĠC im
ĠC ab
ĠC omp
ĠC ast
ĠC AC
ĠC rush
Ġin sp
Ġin put
ĠJ r
ĠJ in
ĠJ ad
ĠJ ati
ĠJ ota
ĠJ enis
uk ulan
uk uhan
ac ang
Ġr ew
Ġr api
Ġr uju
Ġr aga
Ġr omb
Ġr asisme
ul tasi
ul ham
id o
id in
om pany
om agn
ĠL ah
ĠL amp
ĠL ab
ĠL amb
ĠL olos
ĠL iter
ĠL ens
ĠL uth
ĠL antas
ĠL omba
ĠL ED
ĠL ille
ĠL ake
ĠL ando
ĠL PD
ĠL ike
ĠL arangan
ĠL ife
ĠL eroy
ĠIn s
ĠIn si
ro k
ro ve
Ġpen ata
Ġpen uhi
Ġpen ulis
Ġpen emuan
Ġpen unjang
Ġpen asihat
et to
and an
and ise
arta wan
ud ar
ud uh
ĠG K
ĠG anda
ĠG raz
ĠG hana
ĠG bps
ĠG ede
ĠG RD
ĠG lass
eb atan
Ġg es
Ġg et
Ġg emar
Ġg urun
Ġg entar
Ġg aransi
ut or
ut ter
ut ton
ut sch
ĠN er
ĠN ar
ĠN is
ĠN adi
ĠN ota
ĠN ani
ĠN ag
ĠN ass
ĠN iaga
ma i
ĠH ir
ĠH ani
ĠH asan
ĠH engk
ĠH ard
ĠH ee
ĠH ug
ĠH urt
ĠH ilal
ĠH olly
ĠH iyung
ri badi
ri ors
ri cio
one y
up as
ĠF P
ĠF l
ĠF ad
ĠF ri
ĠF lor
ĠF ace
ĠF ros
ĠF euer
ĠF inancial
ĠF ulham
emb unyi
ĠInd uk
ter a
per s
per atur
aya sa
Ġba zar
Ġn av
Ġn ominasi
Ġn asib
Ġn ampaknya
Ġmer ingan
Ġmer iah
Ġmer ancang
Ġmer ingkus
Ġmer umuskan
Ġf an
Ġf ed
Ġf ig
Ġf ree
Ġf air
Ġf irst
Ġc a
Ġc ur
Ġc op
Ġc iptakan
Ġc are
Ġc ukai
Ġc onc
Ġc orak
Ġc loud
Ġmenj a
ĠU tut
Ġj emp
Ġj ebolan
Ġw h
Ġw alau
Ġw awan
Ġw ork
Ġw icara
Ġw ujudkan
Ġw alet
Ġw astra
ew aan
ra j
ĠE nam
ĠE raf
ĠE rik
ĠE SDM
ĠE stonia
ĠW ang
ĠW on
ĠW ag
ĠW anita
ĠW aspadai
ĠW alaupun
ĠW CD
ku h
Ġpem bagian
Ġpem antau
Ġpem engaruh
Ġpem ukim
Ġpem andangan
Ġpem otongan
Ġpem anggilan
ita o
ot ed
ot ika
ab ad
ab eu
elah an
eg o
eg araan
Ġpeng gal
Ġpeng ukuran
Ġpeng ujian
Ġpeng emudi
end or
ian ya
Ġmela m
Ġmela wat
Ġmela mbat
wa yat
Ġa bu
Ġa uto
Ġpro posal
eri es
ja an
isi r
tr as
Ġmemb anggakan
Ġtah apan
ĠO S
angk ut
angk alan
Ġak h
Ġak urat
Ġpo ol
Ġmeny uar
Ġmeny any
Ġmeny umbangkan
Ġmeny ingkirkan
Ġmeny isakan
ati ons
Ġmas kara
Ġkar enanya
yak ala
Ġkon tras
os ongan
Ġsem i
Ġsem acam
Ġsem usim
op o
op or
op edia
han an
ip ayana
ob e
ob ot
ob ati
man ce
ĠPer main
ĠPer jalanan
ĠPer ny
Ġad vokasi
gu an
Ġu lama
Ġu tuh
ĠCh en
ĠCh ia
ĠCh ic
eta hanan
ĠAn j
ĠAn n
ĠAn eka
ĠAn nis
ĠAn alis
Ġmenc icipi
ic ro
ic ine
le vel
Ġset elan
Ġseb atas
Ġmel angkah
Ġmel angsungkan
aw ar
ilik inya
tas inya
tas king
asil itas
Ġkep ekaan
Ġkep ribadi
di yev
Ġberk as
Ġberk el
Ġberk epan
Ġberk isah
Ġberk reasi
Ġberk ilauan
Ġpel embap
ĠV is
ĠV AR
ĠV lahovic
elum p
ima an
Ġbers ua
Ġbers inergi
Ġv okasi
sa an
ni ght
ĠY on
ĠY ash
ĠY amaguchi
ĠY erusalem
Ġdia jukan
Ġdia baikan
Ġker ahkan
gr aphy
por er
Ġas sit
ĠZ ak
Ġmemper te
Ġmemper cayakan
for mance
inta annya
tem a
Ġsel eb
Ġsel era
Ġo lah
Ġdik end
Ġdik enalkan
ĠAl f
ĠAl ves
ĠAl te
ĠAl bi
Ġ4 00
Ġgol put
ec on
ec ahan
ec ompany
ĠMen c
ĠMen engah
ĠMen arik
Ġpoin nya
Ġpersen tase
ĠAr t
ĠAr ts
20 27
ind y
ind ahkan
jak saan
gar ap
tur namen
ungk am
uar e
Ġek ologi
osi l
osi t
Ġpeny us
st ar
st ein
Ġan alisis
ĠMar ga
ĠMar ko
ĠKe ita
Ġdis ingkirkan
Ġdis ematkan
Ġatas an
Ġterb ilang
Ġterb uru
Ġbesar nya
ĠSe ju
ĠSe but
ĠSe bagaimana
Ġdib edakan
Ġdib unyikan
Ġpas al
Ġpas tel
ĠBer akhir
Ġku e
ig men
ĠPen ingkatan
ĠPen andatanganan
uti on
ĠSel es
Ġkel emahan
Ġkel istrikan
Ġkel elahan
uju r
ĠPem er
ĠPem bawa
ĠAp em
ĠAp us
ag en
ag ing
tri ct
ow e
ow ongan
gal kan
Ġpes antren
Ġdip rakirakan
ĠDi ant
ea ves
Ġ7 00
Ġpemb atas
Ġpemb atalan
ĠMan untung
Ġ10 1
Ġ10 5
Ġ10 80
Ġdil elang
Ġdil indungi
Ġdil estarikan
Ġhad iri
Ġi ya
tiv ision
Ġsk ala
Ġsk ill
Ġsk ateboard
Ġgr id
Ġket s
Ġket entuan
Ġket enangan
ekn ologi
ĠKom ang
ĠKom itmen
mer cial
etak a
etak kan
Ġterj alin
Ġterj amin
Ġberp ose
Ġberp akaian
Ġkeb angsaan
Ġkeb eragaman
Ġterd engar
Ġung k
Ġberl ibur
Ġberl angganan
Ġ0 1
ĠKemen dikbudristek
Ġpan tau
Ġsamp o
Ġmengh iasi
ark otika
engk el
engk eta
Ġmenya mai
ĠSen i
Ġ8 3
ten s
est inya
Ġters er
Ġpr ap
Ġketer tiban
Ġdiper baiki
Ġdim aksimalkan
ĠAnd erson
yo y
yo ung
ĠLa ode
ĠLa fa
ci um
ci ation
Ġben arkah
Ġhasil kan
???? #
ff ield
Ġ9 2
Ġ9 4
Ġ9 5
Ġ9 7
Ġ9 00
ĠSer ta
tisi us
ĠAs he
ĠAs so
fi ah
Ġkek ebalan
ĠAd ha
ĠAd vance
ĠPS PS
Ġ19 90
Ġdit unggu
Ġdit ebus
Ġdir umor
Ġpenga daan
Ġmusik nya
Ġmod us
Ġdid engar
Ġdid erita
aka u
ĠSeb ar
Ġmengak tifkan
ĠSaya ma
Ġsekali pun
ĠTer p
ĠTer minal
ĠDia wali
Ġeks trak
Ġeks ekutif
Ġeks foli
ĠPr om
Ġlanjut kan
art o
Ġri wayat
ĠOl d
ĠOl imp
ĠOl mo
Ġrek ening
Ġrek ayasa
Ġ16 3
10 8
rid a
Ġbu gar
ĠMas k
ĠMas rafi
ĠMas lahat
residen an
ĠIs ham
ĠPeng unjung
ĠPeng embang
ĠPeng hargaan
Ġkur un
ond uc
ĠPT M
Ġdig anti
ĠBay er
Ġterk umpul
ĠSet an
ĠInter medi
nam on
Ġst an
Ġst ok
ĠPel uang
uli ah
Ġmemp rioritaskan
ple xi
ĠGames Pewarta
ĠMer ung
ĠJa zz
Ġkomp likasi
ĠSt even
ĠHa o
Ġkeluar ganya
to fol
ĠMe ga
ĠKong res
ĠKong enital
ĠSin k
ĠSin ar
ĠSin ner
arg ing
ĠAri f
Ġbersi fat
Ġpelangg ar
Ġmobil nya
ĠSam son
Ġ18 0
ĠEn rique
evel d
ĠChampions hip
Ġjumlah nya
ĠAk un
ĠAk ibat
ĠBel itung
Ġid entik
Ġdin as
ĠLe andro
ĠLe gacy
Ġkeh ormatan
Ġdr amatis
Ġdar inya
ĠUm at
Ġsepak ati
Ġsepak bola
Ġken yataan
Ġken yal
ĠNov arina
Ġ200 1
Ġ200 5
Ġmed an
Ġmed sos
Ġpri vat
Ġberm itra
Ġberm impi
ĠTur in
Ġch at
Ġch ic
Ġkebu garan
Ġkor sleting
ĠKem ariti
ĠAc er
ĠAc cel
ĠAc tivision
ĠSa ud
Ġlapor annya
Ġmul ia
ĠBo ys
Ġlem bab
ĠHar um
Ġkonser vasi
ĠTh at
ĠTh or
ĠTh ia
Ġnanti kan
Ġbentuk nya
ĠSed unia
ĠPB VSI
ĠRus lan
Ġalam at
ĠSek ar
ĠSek itar
Ġgun ung
yan ingsih
ĠJuli us
ĠWor kshop
Ġkr im
Ġkr onik
Ġkr onis
ĠSw eet
ĠBen ny
Ġpop ok
Ġpor tofol
yanto Editor
ĠSalah uddin
ĠSain s
Ġbert anya
Ġbert epatan
Ġbert eknologi
Ġmengur as
Ġdij angkau
ĠSp urs
ĠIr ene
ĠKon bes
Ġmengu ji
Ġmengu cap
ĠCo ach
ry go
ĠII SMA
âĢĻ )
Ġlokal isasi
ĠSantos a
tin o
ĠSu ara
ĠSya iful
ĠMeng enal
ĠMeng emudi
ĠEx change
ĠEx hibition
ĠEx tend
ĠMuham ad
Ġpersi apkan
Ġint egri
Ġtemb ak
Ġtemb akau
ĠPers ela
ĠPers ani
ret ariat
ĠPeny ebab
Ġor gy
Ġpercaya i
ĠGen e
ĠHer mawan
MN U
ĠAdi anto
Ġpertemuan nya
ys por
ĠJu ga
rom e
ĠCom mercial
rik al
ĠSuh u
Ġperan kan
tic s
In ggris
Ġtem peratur
ĠPor nografi
Ġperh itungan
ĠNus arina
Ġz at
Ġditu duh
ĠMo U
Ġreg ulator
ĠMin ang
ĠSho igu
ĠKeb etulan
ĠTi elman
ĠGol f
Ġkunjungan nya
Ġgam elan
ĠWh ere
Ġtri ple
ĠMusi si
Ġform al
Ġform ulasi
Ġpres enter
Ġpres tisius
Ġdiak tifkan
ĠLo unge
ĠLo ftus
ĠGun tur
ĠFr ame
ĠSy ari
ĠSy dney
ĠStar s
ĠWid i
Ġpengend ali
ĠOr g
ĠPend uduk
ĠPend ekatan
ĠTak e
ĠGB K
Ġup per
ĠPri yev
ĠKen neth
ĠDen ny
Ġaktif kan
Ġpember sih
Ġperek rutan
ĠCar vajal
ĠFF NS
Ġsepakan nya
ĠAmb ono
ĠBi asanya
ĠJo se
ĠJo hann
ĠNet work
ĠMaster s
ĠMaster card
mark et
ĠDis trict
ĠDit reskrimsus
ins ki
Ġmenutup i
ĠBor isa
ĠEm il
ital isasi
bes aran
ĠPe bulu
ĠMak edonia
over y
Ġsw eater
Ġberc ita
Ġberc erita
ĠDa eng
ĠLy udmila
Ġminim um
Ġlo yal
ĠTekn ik
ĠCel cius
Ġterbatas nya
Ġprom otor
Ġelektr omagn
pro gram
pro yek
uch i
ver ev
esu ai
Ġ28 3
ĠInform ation
Ġwin ner
ĠWar riors
ĠPa udie
ĠMay oritas
ĠJak tim
ĠJak bar
Ah san
Ġgi tu
ĠPes erta
ĠPes awat
ĠPela yanan
ĠBand ar
Ġinter val
ĠRod rygo
ĠGu inn
ĠGu ido
Ġ36 5
Ġ199 2
ĠBull s
ĠSeti en
kes mas
ĠPat ricio
Ġperb atasan
ĠLeg islator
mo china
Ġpat roli
ĠPet unjuk
ĠBang lades
ĠYuni arEditor
Ġtutup nya
ĠAg enda
ĠBah asa
ĠGer bang
ĠPremi um
erb y
ĠDav ide
Ġinisi asi
ĠWol ff
ĠBerk elanjutan
Ġberf oto
Ġkela pa
Ġkela paran
ĠMil itao
ĠDec ennia
Ġrent etan
ĠNor man
ĠNor wegi
ĠFar m
Ġwaspada i
ĠPutra jaya
ĠHakim i
ĠHakim Editor
ĠNik ola
Ġmeres pon
Ġpenyer angan
Ġkonsol idasi
Ġukuran nya
ĠSula eman
ĠBant eng
ĠJos h
ĠJos ep
Ġrep etisi
Ġanti oksi
ĠMarcel lo
KB N
kus umo
Ġhid angan
Ġund uh
ĠPener imaan
Ġbutu hkan
onc at
ĠMend es
ĠCip to
ĠCip anas
Se cara
Ġdokumen tasi
Ġsat elit
Ġth atgam
ĠDiv aldo
Ġkepem il
ĠDel ta
ĠDel egasi
ĠHind ustan
Ġcontoh nya
ĠUV B
ĠâĢĭ âĢĭâĢĭâĢĭâĢĭ
EN T
Ġdo uble
Ġpay ung
ĠBL UD
ĠBro th
ĠBro zovic
ĠKend ati
ĠKaz akhstan
Ġterm ahal
ĠLas kar
SD V
eat rikal
Ġsup orter
ĠMali eveld
Ġgro up
ĠAngg aran
ĠAwal udin
ust ak
ust omer
ĠJud ha
acu ya
Ġfungsi onal
ĠAz iz
ĠDer mat
ĠCy c
ĠFir man
ĠFir st
ĠWin ners
ĠFeder ation
Ġpik sel
ĠPil ot
ĠPand jaitan
ĠMemb angun
ĠReg ulasi
ĠCal vin
ebas ket
ĠFah mi
ĠEst her
ĠOt omotif
ĠYah udi
ĠFred rik
ĠKek alahan
ĠDana u
ĠDani il
Ġlun tur
Ġgar am
Ġmember dayakan
Ġkonsul tan
Ġpsik ologi
inga pura
ĠBN NP
Ġhorm at
Ġmenghan curkan
ĠJab eur
ĠFlash Charge
Ġanim o
Ġeksek utor
ĠBoy olali
Ġsambung nya
Kep ulauan
Ġdep resi
Ġbob by
Ġsebaik nya
ĠIS PU
ĠRic ardo
ĠTo ary
ĠCul ture
ĠCul tural
ĠCour t
ĠNaz al
ĠPerum ahan
ĠBern abeu
Ġsifat nya
Ġdimaksud kan
ĠIsma ila
For ce
Sem ua
Sem oga
iam is
Ġmenindak lanjuti
ĠPus p
ĠBM X
ĠDom in
Ġreb ound
Ġpenentu an
ĠGe Force
ĠGor ontal
ĠFound er
ĠUng gul
Ġdiplom atik
Dir jen
Ġib adah
laku an
ĠSusi lo
ĠMats ui
Ġperbuatan nya
ĠRon ny
ĠGiz china
ĠGiz mochina
ĠFernand o
ĠWib isono
Ġgamer s
Ġrespon sif
Ġkompat riot
ĠArna ut
ĠAstr up
ĠAdri an
ĠBasket ball
ĠPenyel enggaraan
Ġ???????????????? ????????
ĠAthletic s
sul e
Ġkad o
ĠShe ffield
ĠBuk it
ĠKho fif
Ġlog at
ĠRT X
ĠRaj asa
ĠRaj put
ĠCin namon
ĠLam ongan
oksi da
Ġwar ung
Ġwar alaba
abil itasi
Ġakadem ik
Ġmenyeg el
Ġmenyeg arkan
reat ment
Ġkepindahan nya
ĠProcess ing
ĠMarvel s
ĠDekranas da
har inya
Ġmagn et
Ġpir amida
Ġsint etis
ĠSC AR
ĠSand yakala
Ġpertem anan
ĠDw ipayana
Ġlong gar
Ġlingk up
ĠTamb ahkan
ĠTers angka
ĠJava Mifi
Ġbag inya
ĠEsta dio
ĠYam aha
Ġmemperb esar
Ġout put
ĠManag ement
ĠKeber adaan
Ġkontroversi al
ĠAndriy ansyah
Mo U
aus ar
Ġbla sting
Ġbib ir
ĠSq uare
ĠSeg era
ĠSec ret
ĠSustain able
ĠPart ners
Ġberper forma
ĠMuti asari
Ġjurn al
Ġhel m
ĠRid wan
ĠRiy ad
Ġran ah
Ġje jak
Ġtimbul nya
Ġberke inginan
ĠYak ub
ĠYuli astuti
Ġekonom is
ĠAsh ta
ĠFau zi
Ġearbud s
ĠSukam akmur
ĠFransis ka
Che ek
Ġklin is
ĠSPB U
ĠPala ce
ĠPemen ang
ĠPlat inum
Ġbereksp resi
ĠMai gnan
ĠKamp anye
Ġperamp okan
ĠTech land
Ġmengis yaratkan
ĠCah yana
ĠCrist ante
Ġgunc ang
ĠHuman s
Ġfol ikel
ĠWerd er
Ġuc apkan
Ġpelec ehan
ĠVinc ent
Ġharmon isasi
Ġvok alis
empurn aan
Ġmenghidup kan
ĠItalian a
ĠStan ley
Ġintel ek
ï¸ıâļ½ ï¸ıâļ½
ĠWilliam s
rih isar
samp ah
wac he
wid th
Ġamun isi
inam ide
Ġbia yanya
Ġmenum buhkan
ontor kan
Ġketa jaman
Ġperjalan annya
Ġmemaks akan
ĠTec no
ĠCraz y
ĠGabri el
Ġgeng gaman
ĠHeri yantoEditor
ĠFIN SDV
Ġnov el
Ġmerch andise
Ġmerob ek
ĠUb isoft
ĠER HA
Ġmenyimp ang
Ġberked ok
ĠPenyi aran
ĠApar atur
Ġkonstruk tor
ĠXX I
ĠXin yang
aceuti cal
Ġrefer ensi
ĠColleg e
ĠRasmus sen
ĠSpeed Smart
Eti enne
Ital ia
Prov ence
iac inamide
lib atan
Ġdwig ol
Ġmarg in
Ġbed eng
Ġbea uty
Ġdiba wakan
Ġdihi asi
ĠSter ling
ĠSangk ala
ĠSiv rihisar
ĠSanan ta
ĠStri x
ĠSlav ina
ĠPraw ira
ĠBengk ulu
Ġberes olusi
Ġbertar ung
Ġbervari asi
Ġkeari fan
Ġkedaul atan
Ġkeanek aragaman
ĠMub arak
ĠMog ot
ĠMangun kusumo
ĠMesi r
ĠMandal ika
ĠKle in
ĠKli wantoro
ĠKemar in
Ġperikan an
Ġperhi asan
ĠDic ky
ĠDEW A
ĠRham dani
ĠTond ano
ĠTex as
ĠCast ello
Ġrew ard
Ġruju kan
Ġromb ongan
ĠLiter asi
ĠLPD DR
ĠNadi em
ĠNani en
ĠNass er
ĠHengk y
ĠHolly wood
ĠFros inone
ĠFeuer wache
Ġmeringan kan
Ġwawan cara
Ġmenyuar akan
ĠPermain an
ĠPerny ataan
ĠAnnis a
Ġberkepan jangan
ĠYash inta
Ġassit s
Ġmemperte gas
ĠAlbi on
ĠMenarik nya
ĠAsso ciation
Ġdirumor kan
ĠIntermedi ate
plexi on
ĠKemariti man
Ġportofol io
ĠExtend ed
Ġintegri tas
ĠJohann es
Ġelektromagn etik
ĠGuinn ess
ĠBanglades h
ĠNorwegi a
Ġthatgam ecompany
ĠGorontal o
ĠKhofif ah
! âĢĿ
* *
+ ,
0 3
0 5
0 99
0 90
1 10
3 49
8 1
9 00
A A
A tas
A lex
A ston
B K
B en
B ali
B antu
B UNG
C K
C M
C EC
C ream
D E
D a
D KJ
E M
E PL
F u
F ar
F il
F inancial
G M
G az
H ari
H ope
I tu
J in
J ak
J erman
K O
K X
K a
K h
K en
K ampung
K BRI
K LHK
L R
L BI
M H
M V
M a
M ad
M es
M ela
M ia
M ohon
M eat
M bps
M DB
N an
N BA
O U
O m
O JK
P J
P in
P eng
P PO
P WP
R ed
R oma
S h
S i
S ara
S alah
S ab
S av
S eluruh
S atuan
S AF
S ingapura
T M
T ian
T uju
T IM
U p
U s
V B
W HO
X iaomi
a it
a im
a jar
a uan
b r
b en
b ah
b atu
b int
b ilkan
b etul
b lad
c un
c es
c ob
c ay
c tor
c lo
c abis
c ement
d h
d z
d am
d re
e ira
e imbangkan
f it
f ace
f igurasi
g ing
g um
g han
g elar
g orit
g econ
h ak
h ong
h oven
h TEA
h entian
h abisan
h agen
i akan
i um
i lah
i ich
j s
j ai
k ad
k ah
k api
k ologi
k elas
k oro
k ei
k egiatan
l ang
l angga
l inan
l ement
l embaga
l odok
m g
m ing
m ul
m ana
m orang
m ont
n al
n ai
n ch
n ov
n aEditor
n eles
o e
o x
o or
o ir
o da
o use
p la
p ak
p el
p uran
p ha
p otensi
p ikir
p uri
p urna
p ecah
p linan
q ing
q uf
r ew
r ard
r aham
r iliun
r eno
r iller
s port
s yat
s ence
s urat
t om
t okoh
v as
v iv
v ate
v erd
v erse
w en
w on
w anya
w ist
w th
y rig
y ges
z ak
z ed
z lai
z ers
z uka
Ã ±
Ġ Ã
Ġ ep
Ġ 00
Ġ ov
Ġ elas
Ġ ongk
Ġ epis
an e
an kan
an aman
an ji
an ce
an tam
er uk
er anya
er ator
er tifikat
en se
en uhi
en hagen
Ġd un
Ġd ada
Ġd et
Ġd evel
Ġd atar
Ġd engar
Ġd rop
Ġd engarkan
Ġd erby
ar ah
ar ur
ar atkan
ar est
ar uskan
Ġm ik
Ġm ach
Ġm ore
Ġm isk
Ġm idd
Ġm icro
Ġp adi
Ġp anti
Ġp ori
Ġp lat
Ġp angsa
Ġp utusan
Ġp antang
Ġp abrikan
Ġp isang
at ed
at ensi
in ter
in ati
in ho
in ation
in ditya
Ġs m
Ġs il
Ġs ir
Ġs ter
Ġs ain
Ġs ho
Ġs po
Ġs aku
Ġs ite
Ġs yal
Ġs creen
Ġs iber
Ġs ipil
Ġs andera
Ġs utra
Ġs engketa
Ġk ilang
Ġk ira
Ġk aji
Ġk ukuhkan
Ġk acamata
la kan
la kukan
la ki
ak es
Ġb ung
Ġb ut
Ġb ina
Ġb ent
Ġb omb
Ġb ird
Ġb oyong
Ġb edak
Ġb ungkus
Ġt a
Ġt at
Ġt ik
Ġt ok
Ġt inta
Ġt abu
Ġt eks
Ġt ebar
Ġt unggu
Ġt ongk
Ġt hen
Ġt isu
Ġt eater
Ġt utupan
Ġt eatrikal
si e
em on
em us
em ud
em atan
em any
em buhan
em iro
un ri
un ami
un itas
un egaran
Ġdi v
Ġdi gu
Ġdi ka
Ġdi pan
Ġdi ce
Ġdi angkat
Ġdi usung
Ġdi uji
Ġdi ingatkan
Ġdi integrasikan
Ġdi inisi
Ġdi iringi
Ġdi edukasi
Ġdi obati
Ġdi garap
Ġdi oksida
ga si
Ġmen ap
Ġmen ep
Ġmen ua
Ġmen ab
Ġmen unjuk
Ġmen sta
Ġmen umbangkan
Ġmen anggapi
Ġmen atap
Ġmen uduh
ta im
ta wa
kan tor
ad al
ad riliun
tu tan
ya ma
ya han
al il
al inya
al urkan
al isasi
al dy
am aran
am ino
on es
ĠS W
ĠS v
ĠS ot
ĠS eta
ĠS inta
ĠS tur
ĠS ukan
ĠS SI
ĠS iro
ĠS udin
ĠS uasana
ĠS creen
ĠS led
ĠS ource
ĠS ahabat
ĠS TEM
Ġse akan
Ġse ter
Ġse per
Ġse juk
Ġse jen
Ġse saat
ah n
ah Editor
ah mi
as kan
as lu
ĠP ari
ĠP ir
ĠP Editor
ĠP AS
ĠP akai
ĠP EN
ĠP ray
ĠP angkal
ĠP inang
ĠP puri
ĠA la
ĠA le
ĠA gas
ĠA zer
ĠA erol
el ih
ĠB in
ĠB es
ĠB ari
ĠB ed
ĠB ong
ĠB angka
ĠB aga
ĠB angun
ĠB lo
ĠB anding
ĠB ros
ĠB iani
ĠB anser
ĠB iden
ĠB irokrasi
ĠB acuya
ĠB unri
ju a
ju i
or y
or akan
or et
or nas
or gh
Ġber ba
Ġber ulang
Ġber wisata
Ġber buat
Ġber gen
Ġber gejala
eng aran
eng kuh
Ġke es
Ġke tuk
Ġke gi
Ġke and
Ġke pat
Ġke ikut
Ġke ham
Ġke lay
ing s
ing ton
ik es
ik ul
ik sel
ĠM r
ĠM am
ĠM ing
ĠM ih
ĠM ew
ĠM asih
ĠM ec
ĠM our
ĠM itra
ĠM alik
ĠM AM
ĠM OL
ĠM ikro
ĠM ora
ĠM ikal
ĠM kh
ap ro
is q
is si
is ant
is ha
ala san
ĠK H
ĠK M
ĠK i
ĠK n
ĠK ul
ĠK ata
ĠK ab
ĠK ay
ĠK ans
ĠK etahui
ĠK unjungan
ĠK alahkan
ĠK atalan
ĠK NO
ĠK obe
ĠK night
Ġper eta
Ġper iz
Ġper baiki
Ġper untu
Ġper tanda
Ġper obekan
Ġper lambatan
Ġter ak
Ġter da
Ġter ind
Ġter ulang
Ġter jaga
Ġter ekam
Ġter tera
Ġter owongan
Ġter cium
il et
ari ty
ur it
ur ian
ur ic
ur ban
asi k
asi v
ti ar
ti had
ti ce
Ġmem acu
Ġmem isahkan
Ġmem amerkan
Ġmem ecah
Ġmem ancarkan
Ġmem ukul
Ġmem uat
Ġmem uncaki
Ġmem elihara
Ġju lukan
Ġju jur
ela mat
Ġh ela
Ġh arta
Ġh amb
Ġh its
Ġh endak
Ġh antam
it tle
ĠI V
ĠI ga
ĠI ri
ĠI ch
ĠI mb
ĠI de
ĠI oni
ĠI fan
ol f
ol y
ol ing
ĠD J
ĠD h
ĠD ai
ĠD ok
ĠD jar
ĠD ov
ĠD og
ĠD yah
ĠD epan
ĠD ampak
ĠD arat
ĠD emi
ĠD ont
ĠD avi
ĠD uren
ĠD ato
ĠD ressage
ĠD rops
ĠD raj
ek e
ek ar
ek tor
ek arn
ek usi
ek utu
ek torat
Ġ2 10
Ġl el
Ġl id
Ġl ep
Ġl elah
Ġl atih
Ġl arang
Ġl engk
Ġl aris
Ġl iner
Ġl urah
Ġl indungi
Ġl ulus
Ġl obi
ir inya
im apro
ĠR W
ĠR an
ĠR el
ĠR ih
ĠR egi
ĠR yan
ĠR etail
ĠR aksasa
ĠR ingo
ĠR eaves
ĠT W
ĠT j
ĠT as
ĠT ari
ĠT om
ĠT et
ĠT adi
ĠT ip
ĠT og
ĠT usi
ĠT anda
ĠT EA
ĠT raf
ĠT arget
ĠT oreh
ĠT SG
ĠT SM
ĠT ekstur
ĠT eater
ĠT ross
ĠT ony
ĠT echnologies
ĠT FG
ĠT wist
ĠT asik
Ġmeng ontrol
Ġmeng ukuhkan
Ġmeng imbangi
Ġmeng omentari
Ġmeng usulkan
Ġmeng identifikasi
ĠC D
ĠC ut
ĠC ai
ĠC ot
ĠC ong
ĠC itra
ĠC inc
ĠC ler
ĠC ontoh
ĠC ru
ĠC amera
ĠC MO
ĠC agar
ĠC iamis
Ġin duk
Ġin form
Ġin san
ĠJ i
ĠJ as
ĠJ ing
ĠJ ong
ĠJ uang
ĠJ BL
ĠJ antung
ĠJ uri
ĠJ essi
ĠJ alil
uk ar
uk is
uk iman
ac atan
ac tor
Ġr ingk
Ġr eli
Ġr ugi
Ġr ace
Ġr etail
Ġr oll
ul angkan
id s
id EA
om ant
om bak
itu al
ĠL O
ĠL U
ĠL ip
ĠL ilis
ĠL evel
ĠL oc
ĠL urah
ĠL estari
ĠIn sp
ĠIn tip
Ġla un
Ġla ba
Ġla mp
Ġla mpa
Ġla manya
ba ut
ba ij
ata yspor
ih e
ih kan
ro ck
Ġpen ari
Ġpen ja
Ġpen ahan
Ġpen empatan
Ġpen jur
Ġpen embak
Ġpen andatanganan
et o
et ek
et atan
and ingan
and emi
and irian
ud eau
ud etto
ĠG il
ĠG re
ĠG uan
ĠG od
ĠG ior
ĠG IIAS
ĠG lodok
eb aran
eb ani
eb ird
eb rey
Ġg ak
Ġg ua
Ġg arap
Ġg antung
Ġg udang
Ġini lah
ut sal
ep er
ep okan
ep reneur
ĠN asi
ĠN ev
ĠN ef
ĠN aik
ĠN iz
ĠN vid
ĠN antinya
ĠN EW
ĠN PWP
ĠN inditya
lu an
lu enc
lu ca
ĠH or
ĠH us
ĠH asi
ĠH arta
ĠH ab
ĠH ant
ĠH erja
ĠH wang
ĠH ill
ĠH arl
ĠH ey
ĠH ubungan
ĠH ove
ĠH ope
ĠH odgkin
ĠH owe
ĠH eke
ĠH atayspor
ri b
angan yar
up ang
ĠF el
ĠF eb
ĠF our
ĠF ey
ĠF MI
ĠF akhiri
ĠF ield
ĠF ukus
ĠF NPL
emb ahan
ĠInd riani
ter aksi
RA N
RA HU
amp ai
Ġba jakan
Ġn an
Ġn it
Ġn ir
Ġn om
Ġn os
Ġn ons
Ġn ikah
Ġn yatakan
Ġn apas
Ġn arkotika
Ġn akes
Ġmer en
Ġmer em
Ġmer ampung
Ġmer edakan
Ġmer ambat
Ġmer ajai
Ġmer engkuh
Ġf int
Ġf utsal
Ġc end
Ġc lam
Ġc air
Ġc akup
Ġc ash
Ġc emas
Ġc entang
Ġc etakan
Ġc angkir
Ġmenj atuhkan
Ġmenj embatani
ok e
ok opi
ĠU I
ĠU gar
ĠU MK
ĠU FS
Ġj at
Ġj as
Ġj end
Ġj ati
Ġj erit
Ġw ah
Ġw ide
Ġw ear
Ġw anginya
ew ati
ua ble
ĠE P
ĠE X
ĠE un
ĠE ran
ĠE ind
ĠE li
ĠE co
ĠE ast
ĠE ras
ĠE PL
ĠE cos
ĠE au
ĠW ee
ĠW ill
ĠW ash
ĠW itan
ĠW ury
ĠW irawan
Ġpem asang
Ġpem roses
Ġpem ulung
Ġpem ukiman
ita zza
ot e
ab ari
ab ur
ant ra
ant rop
eg akkan
Ġpeng er
Ġpeng emb
Ġpeng urus
Ġpeng ingat
Ġpeng ontrol
Ġpeng ungkapan
Ġpeng etatan
eh r
eh kan
eh ir
end udukan
ama in
Ġa f
Ġa us
Ġa wali
Ġpro por
Ġpro duc
Ġpro cess
eri usan
isi plinan
tr um
tr uc
Ġmemb ina
Ġmemb uruk
Ġmemb ongkar
Ġmemb erantas
ĠO Z
ĠO z
ĠO ni
ĠO raz
ĠO ric
ĠO KX
Ġak al
ain t
lah atan
Ġmeny es
Ġmeny etu
Ġmeny inggung
Ġmeny elamatkan
Ġmeny eimbangkan
Ġmas ter
Ġmas ukan
Ġmas sal
Ġmu la
yak nya
Ġmend unia
Ġmend alami
Ġmend irikan
Ġmend adak
Ġmend obrak
ami yev
os ur
Ġsem ak
Ġsem aksim
ch ell
op en
op ia
GH F
GH z
ingk ai
aran i
man ik
man ship
ĠPer ak
ĠPer da
ĠPer unggu
ĠPer ancang
Ġad d
gu es
Ġu lasan
re c
re kan
re es
re edom
ĠCh ip
gun ya
Ġser vice
ĠAn ge
ĠAn ne
ay oga
ay anad
Ġbah aya
ila yahan
jar wo
Ġpers embahkan
Ġpers epsi
Ġsek elompok
ic on
ic il
ic ester
le v
Ġset ting
Ġseb elas
Ġmel inta
aw ai
aw ati
Ġga dis
tas an
Ġkep eng
Ġkep rak
Ġberk ah
Ġberk ala
Ġberk elas
Ġberk uda
Ġberk encan
Ġberk utik
pan sion
Ġpel an
Ġpel at
Ġpel edak
Ġpel opor
ĠV s
ĠV ari
ĠV eri
ĠV alu
ĠV arian
ĠV itamin
ĠV GHF
ĠV ayanad
Ġhar am
od emus
angg e
angg ota
angg uhkan
Ġbers ertifikat
era ge
Ġkem erahan
Ġkem isk
Ġkem auan
Ġkem andirian
lui gi
Ġmenga gum
Ġv ide
Ġked isiplinan
Ġ5 5
ni e
ĠY ati
ĠY uan
ula inya
Ġker ang
Ġker amas
por i
por ting
Ġas uran
Ġas mara
Ġsela gi
ĠZ verev
Ġmemper l
Ġmemper tanyakan
tor asi
tor age
tal gia
ĠSela mat
tem porer
Ġsetelah nya
Ġsel enggarakan
pa o
Ġdik etu
Ġdik hawat
Ġdik emas
Ġdik erjakan
Ġdik ombinasikan
Ġdik abari
ĠAl it
ĠAl ba
ĠAl lah
ĠAl ph
ĠAl emany
unc e
ec at
ec og
ec ewaan
ĠAS IA
ĠMen y
ĠMen ara
Ġpersen Penerjemah
Ġres ep
Ġres erv
Ġkom ed
ĠAr ya
ĠAr ch
ĠAr tur
ĠAr lan
ĠAr sip
20 16
20 25
20 49
ind ai
jak i
mb angan
ĠPro t
tur y
iv id
Ġek or
Ġberh alangan
Ġberh ijab
osi p
osi tion
Ġpeny edia
Ġpeny egaran
Ġpeny embuhan
Ġpeny elamat
he el
Ġan eh
ĠMar y
ĠMar in
ĠMar yati
ĠMar garet
ĠKe ti
ĠKe ong
ĠKe io
ĠKe tujuh
Ġdis usun
Ġdis elamatkan
Ġdis utradarai
Ġdis alurkan
Ġatas nya
ĠUn ders
Ġterb enam
Ġterb alik
form ulasi
ĠSe an
ĠSe orang
ĠSe bab
ĠSe jauh
ĠSe ibu
Ġkes epahaman
Ġkes eruan
Ġdib iarkan
Ġdib icarakan
Ġpas aran
ĠBer m
ĠBer si
ĠBer usaha
ĠBer gabung
Ġku cing
Ġku adriliun
Ġant ark
Ġant arik
ig er
ĠSep anjang
ĠPen ata
Ġresmi kan
ĠSel at
ĠSh ar
ĠSh ot
ĠSh aw
Ġsen ada
Ġkel uhan
Ġkel uaran
ĠPem erintahan
ĠPem bukaan
ĠPol hukam
ĠAp akah
enc il
enc arkan
tri c
ĠBar d
ĠBar ella
emp ut
ĠTim e
Ġpes anan
Ġdip utus
Ġdip etik
Ġdip utar
Ġdip engaruhi
Ġdip enuhi
Ġtr ench
Ġakhir i
und uh
Ġkec anggi
Ġkec acatan
itar yan
ĠDi j
ĠDi et
ĠDi ikuti
ĠDi alog
ĠDi ogo
ĠDi ego
imp ah
imp ahkan
int s
Ġpend ataan
Ġpend engaran
Ġ7 3
Ġ7 20
Ġpemb angkit
Ġpemb akaran
erja an
ĠMan faat
Ġ10 7
Ġsep asang
ener atif
Ġdil epas
Ġdil impahkan
Ġberb uru
Ġberb atasan
Ġberb incang
Ġberb obot
Ġi uran
Ġi OS
oh o
Ġkulit nya
nas tik
gas kan
Ġkons truksi
Ġket ebalan
Ġap el
Ġterj atuh
Ġterj ebak
Ġberp usat
Ġberp olusi
Ġkeb en
Ġkeb is
Ġkeb ahagi
Ġterd efleksi
Ġberl ebih
Ġberl isensi
Ġ0 5
Ġpan ik
Ġmengh ap
Ġmengh ambat
Ġmengh aluskan
Ġal is
Ġal iran
Ġal go
Ġal hamdulillah
Ġal gorit
ĠSen tul
Ġ8 6
Ġ8 40
Ġpela jari
Ġpela kunya
est e
est s
Ġters embunyi
Ġ15 5
ĠThe o
Ġketer bukaan
Ġketer libatan
ĠX ia
ĠX uan
ĠX OS
Ġdiper panjang
Ġdiper tandingkan
ard jo
ori al
me ich
eo us
ĠKep endudukan
tar uh
Ġdim ensi
Ġdim inati
ersi tas
ĠAnd ika
ĠLa ju
Ġempat i
Ġben ua
Ġben ahi
tim oni
Ġmin us
Ġdem o
Ġdem okrasi
su ara
Ġ9 99
ĠSer vice
ĠSer vices
tisi tas
ĠAsia Pewarta
Ġrumah nya
ĠAs ril
Ġkek ecewaan
ĠKam u
formasi kan
Ġskor er
ĠAd imas
ĠAd reno
Ġstr ess
ho f
ho yono
Ġ19 45
Ġdit ata
Ġdit unjuk
Ġdit epis
Ġdit egakkan
Ġdit angguhkan
Ġdir asa
eks por
Ġpenga mpu
Ġpenga bdian
usat o
ilis asi
Ġmod ul
Ġdid asarkan
Ġdid istribusikan
Ġmengg antinya
Ġkeseh arian
ĠSeb etulnya
ĠDir eksi
ĠDir jen
Ġmengak omodasi
fer ence
fer cabis
ĠTer buka
ĠTer dak
Ġkesehatan nya
Ġeks ternal
all oros
ĠMari an
obil e
ĠPr omo
aik en
ber l
Ġman ik
Ġman tap
Ġkas ta
ĠSta quf
Ġketi ganya
Ġketi mbang
Ġri uh
ĠOl eskan
Ġrek rut
lo u
ĠPas s
oba an
Ġangg ur
Ġe arly
Ġe questrian
Ġbu buk
Ġtamb ang
hi opia
ĠIs land
ĠPeng isian
Ġberd irinya
Ġpenc emar
Ġpenc uc
mad rid
ĠGo Food
ĠGo Ride
ond asi
Ġdig enggam
Ġdig odok
ukup nya
Ġim un
Ġim bau
Ġterk on
Ġterk alahkan
Ġterk erek
ĠDwi guna
esi c
na is
sel blad
Ġand al
Ġand il
Ġand alkan
Ġst eal
ĠAh met
Ġberlangsung nya
Ġdih alau
Ġdih ukum
useum an
ĠPel uncuran
ĠPel antun
uli ahan
Ġmemp rot
ĠRI Pewarta
ĠQ BI
Ġbak pao
Ġmener us
Ġmener bitkan
Ġberju mpa
lim e
ĠJa uh
ĠSt ra
ĠSt atis
ĠSt unting
ĠKor apat
ĠKor sel
Ġob ser
Ġterp utus
Ġterp acu
Ġterp isahkan
Ġterp encil
to on
Ġkaw ah
Ġkaw akan
ne x
ĠUS TA
ĠUni Pin
lay er
Ġaplikasi kan
ord er
ĠAri oted
Ġ13 0
ĠKar yat
ĠKar akum
ĠKar anganyar
Ġperc epat
Ġperc intaan
Ġperc obaan
Ġperd ebatan
ĠAir langga
ĠEn ab
ĠEn zo
NI CEC
Ġmes ti
okus kan
ĠSur y
ĠSur yo
ĠSur viv
ĠMa idi
Ġdin antikan
ĠLe icester
Ġ17 3
ĠSo al
ĠSo ft
ĠSo ekarn
Ġkeh abisan
Ġdr um
Ġjam u
anggung jawab
ht tps
risti an
ug h
Ġmew adah
ĠBe y
ĠBe ery
Ġperk uliahan
ĠNov i
ĠNov ita
ĠNov ice
Ġmelihat nya
Ġis yaratkan
tah kan
Ġhidup nya
Ġ200 7
sta ff
Ġpri ze
Ġberm aksud
Ġberm ukim
Ġch art
Ġberla pis
ĠKem lu
ĠKem ilau
Ġgener atif
ĠEd isi
ĠEd ward
ĠAng ga
te x
Ġ24 0
Ġes ok
arl emen
ĠSal dana
oc oran
ĠUmum nya
Ġsaham nya
Ġlangkah nya
Ġdesain nya
Ġmengaku inya
Ġdewasa Pewarta
ĠBo J
ĠBo usso
Ġmeman jakan
Ġlem ak
Ġlem ari
ĠTh ere
ĠTh yges
ĠTah er
ĠSek ali
ĠSek retariat
Ġpener bit
Ġbergabung nya
ĠEs sentials
Ġmemperk okoh
24 0
ĠWor k
Ġbek al
Ġdic oba
Ġdic atat
Ġdiku asai
ĠSw ara
ĠRes p
ĠRes or
ĠRes ky
ĠRes ort
ĠBen jolan
ĠBen arkah
ĠMed icine
Ġpanjang nya
qu id
Ġpor si
sis wa
Ġkomun al
ĠPelatih an
Ġmemanfaatkan nya
ĠSant ika
ĠKel ler
Ġpenyakit nya
kar ena
Ġkap sul
Ġbur ung
Ġbert empat
ĠKes an
ĠKes epakatan
ĠKes elamatan
ĠKes epahaman
arin da
Ġdij elaskan
Ġdij erat
Ġdij atuhkan
ĠSp artan
ĠIr sy
Ġungkap nya
ĠKon jen
ĠKon ektivitas
ĠCo oper
ĠCo oling
Ġband ar
Ġband width
Ġbern uansa
ĠJun a
AM OO
ĠPal angka
ĠPal hinha
ĠDj amain
ĠTong gara
ĠWak tu
Ġgagal kan
Ġkeras nya
PB NU
kr ed
eno ord
iner ing
ĠSu gi
ĠSu yanto
ĠSu zuka
Ġced eranya
Ġtampilan nya
Ġtulis an
ĠMeng utip
Ġterla mbat
ĠEv il
ĠEv ent
ĠEx ternal
ĠEx perience
ĠVal uable
Ġmenem ani
Ġberkom unikasi
ĠArn aldi
tis an
tis ta
ĠPlay on
ĠPers ekutu
Ġkre asi
Ġdihad ang
ĠBas koro
Ġterh idrasi
ĠJon as
Ġgamb arkan
ĠCon juring
ĠCon ference
Ġsemb arangan
ĠKec elakaan
lok ir
Ġtubuh nya
Ġoptim is
ĠKh anafi
ĠLea gues
go unis
Ġmeter an
jur nya
ĠCom e
ĠCom pany
ĠPemb elajaran
sh ell
Ġtem ui
ĠMah a
ĠOP EC
Ġtel usuri
Ġtel ekomunikasi
ĠSus u
ĠStr eaming
ĠJam s
ĠJam al
tik el
Ġditu angkan
ĠPam ungkas
Ġreg enerasi
ĠMin amino
Ġtertu ang
Ġ26 0
ĠSho ut
ĠMel engkapi
ĠMul ya
ĠKeb on
ĠKons ep
Ġbr anding
Ġsemp it
Ġgam but
Ġdampak nya
Ġto uch
Ġberakhir nya
wak ili
Ġtri o
Ġtri p
Ġtri gol
Ġram aikan
Ġfor ward
Ġpres s
Ġsus hi
ĠTr end
ĠTr udeau
ĠLo u
ĠGun il
ĠGun ners
ĠFr u
ĠFr att
Ġpemer asan
Ġkanan nya
Ġbes aran
Ġtekan kan
ĠSy ukur
ĠStar tup
ĠAm ir
Ġberin teraksi
Ġorgan ik
ĠKas us
omb ie
ĠGar ena
ĠFil ter
Tok yo
ĠBa ju
ĠDen pasar
Ġang gun
Ġpember hentian
isti rah
ĠSumat ra
ĠDo uble
ĠFat ima
Ch ristian
ĠBerd iri
bi oskop
operasi an
operasi kan
Ġsh alat
Ġsh ared
okasi kan
ĠEm isi
ital ity
ĠPe ace
ĠPe ople
ĠMak e
ĠMak na
erit anya
ĠSolo is
Ġberc ahaya
ĠDa iri
ĠLy nas
yani Editor
Ġhi asan
Ġmengin ter
Ġmengin formasikan
ĠHari yanto
ĠFer ry
Ġmenim pa
ĠBat tle
ĠMod al
ĠMod ric
ĠUp acara
Ġvir al
Ġprak iraan
Ġtertulis nya
Ġtangk apan
ĠSil ver
ĠPh ase
ĠMay oral
Ġharapan nya
Ġoptimal isasi
za Inter
Ġbang ku
ĠSi x
ĠPela ku
ining rat
ĠStor y
Ġhangat kan
ĠOn ana
ĠOn line
Ġ36 0
Ġ199 4
Ġ199 5
Ġ199 8
35 5
Ġoff ice
Ġkuarta lan
Ġtun da
Ġtun tutan
ĠMU RI
ĠMU SIC
ĠKun arto
ĠCol or
ĠCol ise
ĠLat in
ĠGro wth
FC Bayern
PA N
mo da
ĠBB C
ĠBlu es
ĠBlu ebird
ĠKer jasama
Ġkering at
Ġpot ong
Ġsik u
Ġklasi fikasi
ĠAg reement
ĠBah wa
ĠMac Book
Ġperp ustak
ĠGer ai
ĠGer indra
ĠChi esa
ĠChi Next
ĠYus up
ĠYus tika
OL U
Ġditer uskan
Ġmenu ai
ĠBud iman
ĠBud isant
ĠBrig hTEA
Ġmengga galkan
eth er
ugr ana
Ġdise gel
ĠPar c
ĠPar ade
Ġkela k
ĠRiz ki
ĠNor h
ĠNic las
real madrid
Men parekraf
ĠCop yrig
ĠCop enhagen
ĠNik kei
ĠNik odemus
Ġmeres torasi
ĠOne Pri
ĠAnt ark
Ġkompon is
ĠSoci ety
Ġtangga pan
sit eki
ĠSula iman
ĠDar win
ĠDim itri
ĠRob in
ĠJul io
Ġrep utasi
ĠHas san
ĠHas selblad
ĠZh uang
ĠPolres ta
ĠSub dir
ĠSub ianto
ĠAv ram
Ġhid ung
ĠDev i
Ġmengar siteki
Ġmengec ewakan
ĠPener angan
Th at
Th omas
Ġsol onya
ĠPo ints
ĠPed amaran
ĠMend ag
ĠMoham ad
ĠMoham med
Ġmengend urkan
Ġre uni
Ġrup ee
Ġng obrol
Ġfil osofi
Ġfot okopi
uaw ka
Se jak
lar asi
Ġth is
Ġth read
Ġth riller
ĠPan en
ĠJe an
ĠJe on
ĠJe jak
ĠLuc id
Ġdef inisi
Ġtemp ur
ĠPul ga
ĠKa u
ĠCor p
ĠCor neles
ĠCor tex
ĠJer ome
ĠGener asi
ĠNas sa
Ġcel sius
igh ting
Ġapik nya
ĠFrank lyn
ĠPaul o
ĠSocied ed
KC IC
Ġmar ak
Ġmikro trans
Ġpay udara
amat jati
Ġinves tigasi
ĠFak tor
Ġcap cay
Ġcamp ur
ĠOb at
ĠOb ser
Ġur ban
Ġsup lai
Ġsup port
ĠEks por
EC B
Ġbo di
Ġtit el
ĠPak aian
ĠPak istan
ĠAwal nya
tib mas
Ġrestor asi
Ġrestor atif
ĠEng gak
ĠEng lish
Ġmulti tasking
ĠSU V
ĠSPO RT
Ġperti mbangan
Ġlemah nya
ĠCap sule
manen kan
Ġvari abel
ĠAris ka
Ġdirek omendasikan
Ġobjek tif
ĠBrun o
ĠBrent ford
Pem ilu
Pem kot
Ġpre ferensi
ĠBak ti
ĠBak teri
ĠBRI N
ĠMis ano
ĠMis TEA
ĠKP IC
ĠDah lan
ĠDik abarkan
ĠCur ry
omod ir
ĠFah ky
ĠOt to
ĠKompon en
Ġkayak nya
Ġkeberl angsungan
BI E
Ġamp uh
Ġsport style
Ġblok ir
Ġmenantikan nya
ĠSitu asi
ĠSitu morang
ĠSud jarwo
ĠPengg ing
itor ing
ĠRis ky
ĠTop an
ĠGi alloros
ĠGian luca
ĠGian luigi
ĠHel io
ĠPerk embangan
Ġdikonversi kan
PP PA
sch aft
Ġeng inering
Ġkera jaan
Ġdire ctor
ĠTuju annya
ĠLet ters
ĠHe ung
Ġfleksi bel
Ġcer ob
Ġcer mat
Ġkesen ian
ĠPenc atatan
Ġdilatih nya
Pol da
Ġder as
Ġdep osito
Ġputus kan
ĠSir clo
ĠBap tista
ĠMut ant
ĠIS P
ĠDI Y
ĠRak uten
ĠRic ci
ĠNaz mi
ĠAnton i
Ġmengajar kan
ĠAndre a
ĠAmeri ca
Ġsolid aritas
For zaInter
MO TION
Ġpus h
Ġpus kesmas
Ġdiam ini
ĠSch meich
Ġperilis annya
Ġhero ik
ĠLak ukan
ĠOm set
ĠUng gulan
ĠKomp osit
NP WP
Ġmeta l
Ġbeta pa
Ġsec ukupnya
Ġkew alahan
ĠMB Z
ĠMate Pad
ĠMotor s
Ġletak kan
Ġletak nya
Ġrad ikalisme
Ġreh abilitasi
Ġrec ord
Ġpeneg ak
ĠGM T
ĠNd our
ĠNd uga
ĠUba ed
ĠArna u
Ġketidak seimbangan
ĠPenyel enggara
ĠDonnar uma
ĠCommun ication
UM D
Ġspek trum
Ġmenemp uh
ĠBP JS
ĠBuk ayo
ĠBuch arest
ĠKup ang
ĠKunc inya
ĠDil engkapi
Ġlog istik
ĠCin ema
ĠCas emiro
ĠLong staff
Ġpenamp il
Ġwis uda
hann el
Ġkemas ukan
Ġkemas lahatan
ĠYud hoyono
Ġdiser ap
ajai ban
Ġkekasih nya
ĠDesain er
ĠTreb le
off icial
Ġdeg eneratif
Ġkat un
Ġtep i
ĠStu dy
ĠSkr ining
ĠAO V
ĠBrid ges
ĠMit chell
Ġpertem puran
Ġlong sor
ĠGh ebrey
ĠGem pa
ĠGem ilang
ĠNA RAHU
ĠFur usato
Ġmera up
Ġmera gukan
ĠPerb asi
Ġadap tif
ĠViv ian
ĠPalmer ah
ĠManag ing
ĠKeber hasilan
IV E
Ġkir inya
Ġdiar ahkan
Ġsecepat nya
ĠPad epokan
ĠBeg ench
ĠKela pa
ĠKela min
ĠKara gounis
ĠKarn o
Ġlip atan
ĠRai jua
Ġmengering kan
ĠJor ge
ĠHY O
ĠHY PER
Ġmeri as
Ġmeri ahkan
Ġfr ekuensi
oker to
ĠUr usan
ĠEt hiopia
ĠVel od
Ġasp irasi
ĠProses or
Ġpembaca an
ĠLaz ada
ĠLaz uardi
ĠLagi pula
Ġditinggal kan
ĠStef an
ĠLeon ardo
Ġfinish ing
ĠKapolres ta
Ġ????â ļª
ĠPurw okerto
Ġmeminim alisir
Kas ubdit
pela ku
wor ld
Ġkant ong
Ġbad annya
Ġbund ar
ĠSik h
Ġseku el
ĠPon pes
ĠPost ecog
ĠPsik ologi
ĠBla ugrana
ĠBra wijaya
ĠMakan ya
ĠKris ten
Ġmemat ahkan
ĠRead er
ĠTy pe
ĠTed dy
ĠCen tury
ĠGat ot
ĠGad ing
ĠGonz al
Ġgitar is
ĠFranc esco
ĠEy e
ĠWas eso
trac t
Ġmenggel ontorkan
Ġsoft ware
ĠMath ys
ĠRecord ing
ĠEconom ic
ĠManufactur ers
Sela in
Ġmari tim
Ġbali ta
ĠBilli e
Ġbermin yak
app y
Ġhib rida
Ġhanc urkan
ĠDol by
ĠDip lom
Ġlans kap
Ġuniv ersitas
Ġmengor bankan
ĠList yo
Ġciv ic
ĠWis nu
Ġmenyel idiki
obos zlai
ĠAntar Kampung
ĠAnadolu Penerjemah
Ġmelu angkan
Ġberkons ultasi
Ġmengas ah
Ġdikur angi
ĠTerb anyak
ĠPrinc es
ĠOliv ier
ĠPelangg an
ĠEner gy
ĠSyam s
ĠMuch us
ĠConc ert
ĠWidy antoro
ĠPharm aceutical
Ġwearab les
ĠCorpor ate
Ġoksi gen
Ġdiproyeksi kan
Ed geConneX
Es sentials
Kr amatjati
gt n
gend akan
hitung kan
kis ehir
Ġotor itas
Ġdas arian
Ġmad ya
Ġmol ek
Ġmud anya
Ġpeg unungan
Ġpuc uk
Ġspor tainment
Ġbaris ta
Ġdial okasikan
Ġdipat ahkan
Ġdimasuk kan
Ġmenel usuri
ĠSai ful
ĠSug eng
ĠSEO P
ĠPl t
ĠAH N
Ġkeun ikan
ĠMangk unegaran
ĠKod am
ĠKoh cun
Ġtereal isasi
Ġhuman is
ĠDM asiv
ĠDuk capil
Ġlemp aran
ĠThi baut
ĠLamb orgh
ĠInsi der
ĠGK MNU
Ġges tur
ĠNer aka
ĠNis san
ĠHani f
ĠHug o
Ġfig ur
Ġca bai
Ġcop y
Ġmenja uh
ĠEraf one
Ġmelam baikan
Ġakh lak
ĠChic ago
ĠAnj ungan
Ġkepribadi an
Ġseleb gram
igmen tasi
Ġungk apan
Ġeksfoli ator
ĠThia go
ĠOrg ani
Ġantioksi dan
Ġkepemil ikan
ĠBroth ers
ĠPusp ayoga
ĠArnaut ovic
Ġintelek tual
ĠJohannes burg
Far han
Fil ipina
Gaz ing
MV P
Mela lui
Nan ning
Om niscient
Sab tu
Sav ic
Tian jin
Tuju an
gecon nex
iich iro
verd e
Ġov ersi
Ġelas tisitas
Ġongk ir
Ġepis ode
Ġdevel oper
arur atan
Ġmisk in
Ġmidd le
Ġster eo
Ġspo iler
Ġdipan tau
Ġdice gah
Ġdiinisi asi
Ġmenap aki
Ġmensta bilkan
taim ent
ĠSeta li
ĠStur man
Ġseper tinya
Ġsejen ak
ĠPAS I
ĠAzer baij
ĠAerol ith
elih araan
ĠBari to
ĠBong o
ĠBaga imana
Ġbergen re
Ġkees okan
Ġkeand alan
Ġkepat uhan
Ġkeikut serta
Ġkeham ilan
Ġkelay akan
ĠMih ail
ĠMour inho
ĠMAM AMOO
ĠMora es
ĠMkh itaryan
ĠKans ong
ĠKNO CK
Ġperiz inan
Ġterda ftar
Ġterind ikasi
Ġhamb atan
ĠIri ana
ĠIoni q
ĠDjar um
ĠDavi es
ĠDraj at
Ġlid ah
ĠRih i
ĠTet en
ĠTog ether
ĠTEA M
ĠTraf ford
ĠTSM C
ĠTross ard
ĠCong ress
ĠCler mont
ĠJessi ca
Ġringk as
Ġlamp iran
Ġlampa u
ĠNef ianto
ĠNvid ia
luenc er
ĠHab ib
ĠHerja wan
ĠHarl in
ĠFey enoord
ĠFMI S
Ġmerampung kan
Ġfint ech
Ġclam shell
Ġcakup an
ĠUgar te
Ġjend ela
Ġjerit an
ĠEran i
ĠEind hoven
ĠEcos ystem
ĠWash ington
Ġpemroses an
antrop i
Ġpropor si
Ġproduc t
ĠOric on
Ġmenyetu jui
Ġsemaksim al
Ġmelinta si
Ġkeprak tisan
ĠVayanad ela
Ġkemisk inan
Ġmengagum kan
Ġdiketu ai
Ġdikhawat irkan
Ġreserv oir
ĠArtur s
Ġantarik sa
Ġkecanggi han
Ġkebahagi aan
Ġalgo jo
Ġalgorit ma
ĠTerdak wa
Ġpencuc ian
ĠQBI G
ĠArioted jo
ĠKaryat in
ĠSurviv or
ĠSoekarn o
Ġmewadah i
ĠThyges en
ĠIrsy ad
ĠCooper ation
ĠPersekutu an
ĠFratt esi
ĠColise um
Ġperpustak aan
ĠBudisant oso
ĠBrighTEA ning
ĠCopyrig ht
ĠOnePri x
ĠSubdir ektorat
ĠAvram ovic
ĠGialloros si
ĠSchmeich el
ĠGhebrey esus
ĠNARAHU BUNG
ĠHYPER MOTION
ĠPostecog lou
ĠLamborgh ini
ĠAzerbaij an
! ,âĢĿ
+ +
, .
. )
/ ,
0 42
2 99
5 90
7 2
7 50
A W
A s
A us
A ir
A ut
A frika
A rn
B N
B l
B r
B ima
B og
B int
B adan
B ank
B PR
B TS
B UMN
B IS
B adung
B alikpapan
B IDR
B run
C V
C el
C ut
C ianjur
D e
D PUP
D LH
E P
E U
E m
E ropa
E ras
F O
F l
F TA
F ilm
F oto
F ace
F ound
F reedom
G PA
G irona
G IIAS
H X
H ar
H CI
I TA
I EA
I PMG
J uni
J PU
K E
K N
K or
K es
K om
K ota
K erja
K abupaten
K HO
K TT
K TP
K egiatan
K upang
L M
L N
L i
L ab
L ead
L ove
L ivia
L eon
M B
M E
M F
M M
M U
M c
M in
M on
M us
M ur
M ed
M ei
M ataram
M UI
M unas
M TV
M obile
N ew
N usa
O A
O G
O KI
P N
P h
P am
P el
P or
P rancis
P ex
P AP
P asifik
Q ausar
R am
R ian
R ay
R usia
R umania
R ania
S L
S N
S c
S m
S el
S angat
S uper
S PS
S low
S HK
S hen
S outh
S afe
S hop
S leep
S ampai
T F
T ah
T el
T ik
T idak
T iga
T witter
T angerang
T ER
T angkapan
T arkam
U E
U r
U PS
V en
V MH
W C
W or
W NI
W inter
X T
Y C
Y P
Y os
Y ogyakarta
Z e
a a
a ung
a but
b un
b ala
b ata
b ro
b and
b ili
b ach
b urn
b ondong
c p
c us
c ari
c ow
c uma
c gtn
d n
d em
d ung
d ro
d alam
d ut
d ua
d ina
d orong
d ate
d ega
d own
d ogan
d inary
e as
e ipzig
f s
f id
f ia
f ian
f aw
f esi
f rag
f uss
f ico
g in
g is
g os
g inya
g anti
g oro
g edung
g atal
g aria
g enerasi
g eous
h ia
h atan
h ian
h ub
h ow
h usus
h tar
h ips
h ero
h ampton
i B
i al
i ed
i yah
i astawa
j mat
j unkan
j ann
j ection
j emahkan
j emput
k as
k ami
k ov
k erja
k etu
k oleksi
k lam
k ilang
k amera
k ecil
k ecepatan
l l
l kan
l ari
l ia
l ong
l ina
l ika
l ima
l ight
l Ã©
m l
m un
m or
m ata
m and
m atan
m ian
m pan
m inggu
m edia
m ine
m hen
m ebol
m endag
m akeup
m iao
n c
n ak
n es
n abel
n ando
n eling
o el
o et
o yak
o yo
o daan
p i
p ad
p am
p as
p ur
p ai
p ita
p end
p aru
p alan
p ensi
p pe
p utri
p engg
p lat
p oli
p elan
p ukulan
p iksel
p itality
p igmentasi
q q
q wanto
r or
r eng
r ama
r ina
r ikasi
r ihat
r atis
r ange
s in
s ol
s emen
s anya
s udah
s hir
s ment
s yur
s bint
s unami
s fuss
t ak
t eb
t emen
t og
t teri
t opi
t unggu
t indak
t unjukan
t eki
t anggungjawab
u et
u tif
u ver
u gasan
v et
v ent
v atif
v anced
w n
w ita
w ater
w ilayah
w oto
w ono
w endah
x o
x ea
y akan
y angan
y ant
y ff
y erang
z u
z y
z ing
z ra
z hi
z inkan
¤ ï¸ı
Ã ¡
Ã ¨
Ã ª
á ´
Ġ [
Ġ |
Ġ er
Ġ ela
Ġ apat
Ġ aran
Ġ ec
Ġ enc
Ġ ark
Ġ istr
Ġ oli
Ġ ukur
Ġ ingat
Ġ oleskan
Ŀ ¤ï¸ı
an u
an ai
an ter
an angkan
an za
an cha
er g
er m
er ingan
er vasi
er mati
er tru
en ta
en ah
en ek
en ali
en tim
en ko
en ue
en ovasi
Ġd ang
Ġd am
Ġd asi
Ġd ual
Ġd ulunya
Ġd eteksi
Ġd rops
Ġd aging
ar as
ar up
ar di
ar inya
ar sa
ar ov
ar ea
ar jo
Ġm ang
Ġm al
Ġm ap
Ġm ac
Ġm ag
Ġm edi
Ġm egah
Ġp ari
Ġp adan
Ġp inj
Ġp urna
Ġp oni
Ġp uluh
Ġp ion
Ġp ubik
Ġp ulihkan
Ġp lanet
Ġp udar
Ġp etaka
Ġp ebasket
Ġp ondasi
at n
at nya
at ollroad
in apan
in annya
in akkan
in yur
in trac
in wen
Ġs in
Ġs am
Ġs um
Ġs emen
Ġs apa
Ġs pa
Ġs uar
Ġs imp
Ġs ine
Ġs ikat
Ġs ug
Ġs anita
Ġs ide
Ġs irku
Ġs ystem
Ġs tig
Ġk i
Ġk us
Ġk uan
Ġk otor
Ġk iner
Ġk uku
Ġk ilau
Ġk ukus
Ġk iprah
Ġk umpulan
Ġk abinet
Ġk uliah
Ġk lari
la ga
la se
la mp
la use
ak o
ak ala
ak et
ak atan
Ġb ing
Ġb ud
Ġb ri
Ġb ok
Ġb uti
Ġb uruh
Ġb est
Ġb atang
Ġb all
Ġb ez
Ġb ord
Ġb lus
Ġb oy
Ġb ook
Ġb edakan
Ġb ull
Ġb unyi
Ġb ooth
Ġb apak
Ġb reak
Ġb engkel
Ġb ingkai
Ġt one
Ġt emen
Ġt anya
Ġt eka
Ġt ag
Ġt unjukkan
Ġt onton
Ġt arian
Ġt umpang
Ġt injau
Ġt ekad
Ġt etes
Ġt arkam
Ġt angis
Ġt atanan
Ġt reatment
Ġt ests
Ġt eas
Ġt sunami
si as
si um
si han
si mhen
em ari
em but
em buhkan
em kapi
un e
un ovic
Ġdi ti
Ġdi ja
Ġdi da
Ġdi ikut
Ġdi ubah
Ġdi versi
Ġdi buk
Ġdi imbau
Ġdi pertimbangkan
Ġdi wajib
Ġdi ukir
Ġdi jawab
Ġdi upayakan
Ġdi izinkan
Ġdi usulkan
Ġdi urai
Ġdi formulasi
Ġdi unduh
Ġdi ekspor
Ġdi wakili
Ġdi operasikan
ga in
ga wan
ga gal
ga wai
Ġmen an
Ġmen ela
Ġmen angg
Ġmen awan
Ġmen ebar
Ġmen iru
Ġmen etr
Ġmen aruh
Ġmen ewas
Ġmen entang
Ġmen utrisi
Ġmen ebus
Ġmen ayangkan
ta o
ta uan
ad o
ad akan
ad ewa
ad jmat
tu ah
tu te
tu de
tu rizer
ya i
ya m
al ed
al ina
al inan
am ur
am akan
am bu
am ena
am arga
am iliar
am arg
am etro
on or
on ing
on oh
on alitas
on ment
on itor
on aliz
on sisten
on aktifkan
ĠS eng
ĠS emen
ĠS ip
ĠS ka
ĠS amb
ĠS empat
ĠS angat
ĠS ard
ĠS udi
ĠS av
ĠS port
ĠS ump
ĠS rid
ĠS idang
ĠS ulu
ĠS qu
ĠS osok
ĠS HO
ĠS iss
ĠS BS
ĠS apar
ĠS obat
ĠS ungguh
ĠS HS
ĠS esuai
ĠS dn
Ġse sek
ah ter
as at
as in
as ah
as ter
as tis
Ġy g
Ġy og
ĠP A
ĠP N
ĠP ah
ĠP adi
ĠP amp
ĠP ub
ĠP aw
ĠP ho
ĠP utu
ĠP agi
ĠP alu
ĠP angsa
ĠP etr
ĠP AN
ĠP andra
ĠP raja
ĠP IK
ĠP age
ĠP ebalap
ĠP abrikan
ĠP lanet
ĠP angkalan
ĠP aint
ĠP arlemen
ĠA ti
ĠA bu
ĠA ut
ĠA man
ĠA udi
ĠA utu
ĠA ug
ĠA mbil
ĠA MI
ĠA PBD
ĠA LO
ĠA LL
ĠA VC
ĠA gain
el im
el eb
el ena
el li
el ombang
el low
el okasi
el isih
el isihan
ĠB y
ĠB ela
ĠB end
ĠB ub
ĠB ec
ĠB ulan
ĠB eda
ĠB atang
ĠB inj
ĠB ug
ĠB alkan
ĠB uru
ĠB AR
ĠB atal
ĠB akar
ĠB eragam
ĠB AT
ĠB acang
ĠB ocoran
ju rey
or en
or in
or asi
or tiv
Ġber w
Ġber ib
Ġber tand
Ġber ebut
Ġber teri
Ġber go
Ġber antas
Ġber bau
Ġber trans
Ġber bulan
Ġber diam
Ġke ong
Ġke di
Ġke gan
Ġke baikan
Ġke jurnas
Ġke ajaiban
ik si
ik kan
ik op
ĠM X
ĠM ap
ĠM ala
ĠM ara
ĠM ata
ĠM and
ĠM aya
ĠM ab
ĠM emen
ĠM era
ĠM und
ĠM ea
ĠM anda
ĠM unj
ĠM av
ĠM ach
ĠM iner
ĠM isa
ĠM ira
ĠM ile
ĠM RT
ĠM ike
ĠM ikel
ĠM edium
ĠM ehr
ĠM aiken
ĠM GPA
ĠM OA
ap er
ap ple
ap ahit
is er
is in
is ta
is ahan
is tasi
is yi
is asinya
es ona
es sell
es core
ala ksana
ĠK ir
ĠK ia
ĠK and
ĠK aca
ĠK emb
ĠK ant
ĠK asih
ĠK art
ĠK encana
ĠK isah
ĠK unci
ĠK inerja
ĠK oordinasi
ĠK EN
ĠK erajinan
ĠK artan
ĠK akak
ĠK abinet
ĠK elump
Ġper oleh
Ġper ona
Ġper sis
Ġper kusi
Ġper put
Ġper ancang
Ġper adilan
Ġper ingati
Ġper ahu
Ġper lakuan
Ġter isi
Ġter ungk
Ġter pen
Ġter lam
Ġter tan
Ġter ger
Ġter tuju
Ġter seok
Ġter urai
Ġter iakan
Ġter tawa
Ġter nak
us h
us uk
us ep
us to
us naEditor
il o
il ity
il ingi
ur itas
ur ig
ur ity
ur ich
ur uf
asi um
ti tas
ti ons
ti ani
ti pe
ti anak
ti daknya
Ġmem inj
Ġmem ancing
Ġmem andu
Ġmem otret
Ġmem antap
Ġmem indahkan
Ġmem ulainya
Ġju mp
ela buh
ada ban
akan nya
Ġh ang
Ġh is
Ġh ol
Ġh aru
Ġh ub
Ġh ay
Ġh enti
Ġh air
Ġh ome
Ġh ealth
Ġh istor
Ġh aus
Ġh ole
Ġh uruf
it t
it on
it bang
it eran
bu angan
bu ahan
bu wono
ĠI g
ĠI ta
ĠI ya
ĠI mp
ĠI su
ĠI PO
ĠI PB
ĠI ps
ĠI zin
ĠI KP
ĠI TD
ĠI TF
ol es
ol anya
ol hukam
ĠD al
ĠD ih
ĠD ob
ĠD ila
ĠD ini
ĠD rop
ĠD SM
ĠD oll
ĠD har
ĠD FL
ĠD rees
ek alan
Ġl and
Ġl osi
Ġl ump
Ġl engkapi
Ġl uka
Ġl inc
Ġl ight
Ġl ead
Ġl egal
Ġl edakan
Ġl oser
Ġl usa
Ġl edak
Ġl arut
Ġl atensi
Ġl ewati
ir y
ir ation
Ġun juk
im e
im at
im ak
im anya
im sus
ĠR in
ĠR ol
ĠR ud
ĠR iri
ĠR ow
ĠR ilis
ĠR esi
ĠR embang
ĠR isiko
ĠR ide
ĠR PT
ĠR atn
ĠT G
ĠT M
ĠT ar
ĠT eng
ĠT es
ĠT um
ĠT amp
ĠT ua
ĠT oko
ĠT oba
ĠT olak
ĠT KP
ĠT oul
ĠT ool
ĠT MC
ĠT win
ĠT arkam
ĠT ollroad
ĠT une
um er
um pan
um ni
Ġmeng ang
Ġmeng ep
Ġmeng ka
Ġmeng ib
Ġmeng ev
Ġmeng omp
Ġmeng ira
Ġmeng oper
Ġmeng erikan
Ġmeng oyak
Ġmeng elabuh
ĠC P
ĠC at
ĠC la
ĠC amp
ĠC ok
ĠC ali
ĠC ov
ĠC lash
ĠC afe
ĠC MC
ĠC ampur
ĠC HI
ĠC itr
ĠC raft
ĠC onduc
ĠC icil
Ġin car
Ġin terior
ĠJ ia
ĠJ ember
ĠJ ag
ĠJ elas
ĠJ anto
ĠJ uru
ĠJ adwal
ĠJ awab
ĠJ AY
ĠJ embatan
ĠJ oker
ĠJ ahang
ĠJ ujur
ĠJ antra
ĠJ YP
ĠJ elena
uk e
uk si
uk aran
ac y
ac anya
ac aran
ac teri
ac io
ac tion
ac tice
Ġr ol
Ġr ot
Ġr ay
Ġr aw
Ġr ig
Ġr oman
Ġr inci
Ġr ajin
Ġr omant
Ġr enovasi
gi han
ul y
ul ing
ul lah
id el
id os
id ress
id ou
id ayah
Ġ20 7
om et
om isi
om ong
om bia
itu do
itu ania
ĠL is
ĠL il
ĠL im
ĠL um
ĠL ut
ĠL abu
ĠL ig
ĠL angkat
ĠL uki
ĠL engkapi
ĠL ibatkan
ĠL antai
ĠL TC
ĠL LA
ĠL NG
ĠL KBN
ĠL ighting
ĠL IVE
ĠL VMH
ĠL ituania
ĠIn ti
ĠIn iti
ĠIn tinya
ĠIn St
ĠIn gat
ĠIn acio
Ġla g
Ġla ki
Ġla dang
Ġla ksanakan
ba al
ba ba
ih ari
ro gen
ro ke
ro der
ro fesi
Ġpen urut
Ġpen gal
Ġpen adah
Ġpen ambang
Ġpen ayangan
Ġpen antian
Ġpen odaan
Ġpen ugasan
Ġpen ukaran
ia gnosis
et ers
et yo
et tino
et xea
and um
and ai
arta p
arta bat
ud araan
ud ori
ud awan
ĠG eb
ĠG ed
ĠG ita
ĠG iga
ĠG ib
ĠG anti
ĠG itar
ĠG ea
ĠG lob
ĠG lam
ĠG omba
ĠG real
ĠG SM
ĠG ejala
ĠG ray
ĠG ambar
ĠG essell
eb uran
eb ijakan
eb unan
eb rak
Ġ202 9
ed or
ed ib
ed ov
ed ahan
ed ikasi
ed ug
ed geconnex
Ġg u
Ġg ard
Ġg lam
Ġg ubernur
Ġg oy
Ġg enggam
Ġg eologi
Ġg eser
Ġg lass
Ġg osip
Ġg edor
Ġ1 000
Ġini Jakarta
Ġini Pewarta
ut e
ep uk
ep ot
ep ret
ep erb
ĠN O
ĠN T
ĠN i
ĠN ip
ĠN av
ĠN AS
ĠN ess
ĠN ino
ĠN ex
ĠN eman
ĠN even
ĠN asib
ĠN FT
ĠN indy
ĠN adjmat
ma ul
ĠH C
ĠH ung
ĠH ali
ĠH ati
ĠH os
ĠH ika
ĠH aw
ĠH af
ĠH our
ĠH art
ĠH orm
ĠH ach
ĠH ero
ĠH iburan
ĠH AM
ĠH igh
ĠH ayat
ĠH utton
ĠH udori
ri but
ri end
one goro
up lai
ĠF e
ĠF in
ĠF ol
ĠF ra
ĠF eri
ĠF inan
ĠF ord
ĠF okus
ĠF ans
ĠF lex
ĠF enomena
ĠF itri
ĠF OLU
emb et
emb apkan
ĠInd ex
ĠInd ivid
ter y
ter son
per t
per im
per nik
RA P
aya p
Ġn et
Ġn arap
Ġn ight
Ġn ahas
Ġn iat
Ġn ikel
Ġn iacinamide
Ġn enek
Ġmer atakan
Ġmer engg
Ġmer ubah
Ġmer evisi
Ġmer angs
Ġmer embet
Ġf em
Ġf lu
Ġf ab
Ġf isi
Ġf rom
Ġf lor
Ġf ace
Ġf atal
Ġf rus
Ġf ield
Ġf osil
Ġf actor
Ġf amiliar
Ġf iksi
Ġc ak
Ġc or
Ġc eri
Ġc ilik
Ġc ons
Ġc omp
Ġc ase
Ġc enter
Ġc aranya
Ġc ontrol
Ġc lock
Ġc ustomer
Ġc eritanya
Ġc entim
Ġc lause
Ġmenj unjung
Ġmenj adwalkan
Ġmenj amur
ĠIndone sis
ok ratis
ĠU tr
ĠU ji
ĠU sta
ĠU LS
ĠU GM
Ġj era
Ġj ack
Ġj alin
Ġj acket
Ġj ebol
Ġj epit
Ġj aket
Ġw on
Ġw ing
Ġw ild
ew el
ew ahan
ew atkan
ew able
ra e
ra ven
ra jin
ra vir
ĠE S
ĠE T
ĠE sp
ĠE SG
ĠE berl
ĠE intrac
ĠW asi
ĠW ant
ĠW ina
ĠW IM
ĠW ey
ĠW ight
ĠW ide
ĠW HO
ĠW ajah
ĠW out
ĠW amen
ĠW ayan
ĠW ITA
ku alifikasi
Ġpem uti
Ġpem ajuan
Ġpem ikiran
Ġpem ecahan
Ġpem eliharaan
uh ur
uh inya
ot eg
ot te
ot landia
ab aran
ab eth
ant el
ant ing
ant unya
ant unkan
eg angan
eg rat
Ġpeng en
Ġpeng ga
Ġpeng eb
Ġpeng angg
Ġpeng elu
Ġpeng erahan
Ġpeng emasan
Ġpeng enalan
Ġpeng inapan
Ġpeng rajin
eh avi
end ung
Ġmela lukan
Ġmela mbangkan
Ġmela yangkan
ama ah
wa gen
Ġa v
Ġa ula
Ġa udi
Ġa wak
Ġa baikan
Ġpro b
Ġpro vokasi
Ġpro klam
eri al
eri ahan
tr ack
Ġmemb elah
Ġmemb anj
Ġmemb enamkan
Ġmemb ungkam
Ġmemb antunya
Ġbis ep
Ġbis bol
Ġtidak lah
ĠO ur
ĠO man
ĠO ny
ĠO gan
ĠO dy
ĠO th
ĠO GC
ĠO dega
ĠO simhen
angk is
angk atan
angk aan
Ġak ut
Ġak sen
Ġak bar
Ġak sinya
ain tel
Ġpo ster
ĠâĢ Ŀ
Ġmeny anyi
Ġmeny ej
Ġmeny odok
Ġmeny empatkan
Ġmeny emang
Ġmeny usut
Ġmeny uplai
ati us
Ġkar et
Ġmu atan
Ġmend ek
Ġmend idik
Ġmend esain
Ġmend edikasikan
Ġmend iskusi
Ġkon firmasi
Ġkon vensi
Ġkon vo
Ġkon temporer
os ter
os ource
Ġsem alam
Ġsem asa
Ġsem estinya
ĠCO O
ch ing
ch ain
ch ettino
op s
ong kan
han batu
Ġtim ah
ip e
ip p
ip kan
ip po
ob io
ub likasikan
man ia
ĠJakarta Pewarta
ĠPer w
ĠPer iksa
ĠPer awatan
ĠPer tahanan
ĠPer hatikan
ĠPer ingatan
ĠPer janjian
ĠPer tunjukan
Ġad il
Ġad akan
Ġad vanced
iga si
re kannya
re tude
ĠCh ang
ĠCh ile
ĠCh ipset
ĠCh ary
ĠCh usnaEditor
gun aEditor
alan ce
Ġ3 99
Ġser vis
ĠAn as
ĠAn ita
ĠAn na
ĠAn sh
ĠAn asta
ĠAn caman
ĠAn kara
ĠAn col
ent ra
ila inya
Ġmenc inta
Ġmenc ium
Ġmenc abut
Ġmenc ermati
Ġmenc urig
Ġpers nya
Ġpers alinan
Ġpers elisihan
ota m
ota si
Ġsek ota
Ġsek awan
Ġsek under
ic in
ic ks
le ar
Ġseb aran
Ġseb erapa
Ġmel uas
Ġmel ekat
Ġmel intas
Ġmel olos
Ġmel ansir
Ġmel ombakan
Ġmel emahkan
Ġmel impah
Ġmel embapkan
Ġmel antunkan
aw angi
Ġga iner
Ġga gasan
yar akatan
Ġkep el
Ġberk ategori
Ġberk iprah
pan ti
hir a
Ġpel et
Ġpel antun
Ġpel eburan
amb angan
amb isi
amb ry
had ow
ĠV et
ĠV ener
ĠV LBI
empat i
od el
od ai
od le
od iningrat
Ġbers edia
Ġbers tandar
Ġbers elisih
Ġbers ayap
ons ter
Ġkem ewahan
Ġkem eriahan
Ġmenga l
Ġmenga lih
Ġmenga sy
Ġv er
Ġv ila
Ġv inta
Ġv ers
Ġv alu
Ġv ital
Ġv akum
Ġv erbal
Ġv alid
Ġv olat
Ġv endor
Ġv enue
ini ar
Ġat ribut
Ġked ap
Ġked apatan
ni vers
ĠY i
ĠY an
ĠY en
ĠY es
ĠY AR
ĠY ear
ĠY otam
Ġdia frag
ula an
Ġker utan
Ġker jakan
Ġker onc
Ġker anjang
Ġker janya
Ġker onto
por e
Ġas in
Ġas asi
ov i
ov eries
ĠZ v
ĠZ one
ĠZ iel
ĠZ agar
ĠZ oom
ĠZ eki
ĠZ acc
ĠZ urich
ĠZ ambry
Ġmemper ingatkan
for nia
Ġsel idiki
Ġo peran
Ġo cta
Ġo unce
Ġdik e
Ġdik emud
Ġdik enali
ĠAl ana
ĠAl vin
ĠAl lian
unc tion
unc tional
ĠAS MI
ĠMen s
ĠMen er
ĠMen it
ĠMen lu
ĠMen ular
ĠMen aldi
ses sment
Ġpoin ts
Ġres tu
Ġres apan
Ġres ervasi
Ġkom ik
Ġkom oditas
ĠAr c
ĠAr en
ĠAr yadi
ĠAr tificial
ĠAr cha
20 13
20 11
ind ing
ind ow
ind ustri
tif ic
tif ungsi
mb ungan
mb angi
ĠPro ved
ĠPro posal
ev a
Ġek sis
Ġpeny ebar
Ġpeny emprot
Ġpeny empurnaan
he imer
st in
st one
tasi kan
Ġan eka
Ġan alog
Ġan aly
ani e
ĠMar isa
ĠMar kus
ĠKe enam
ĠKe ating
ĠKe jadian
ĠKe tut
ĠKe jurnas
ĠKe butuhan
ĠKe jaksaan
ĠKe iichiro
Ġdis alah
Ġdis yukur
Ġdis adari
Ġdis emprot
Ġdis andera
gus on
ĠUn ja
Ġterb antu
Ġterb entuk
Ġterb ebani
ĠSe ung
ĠSe op
ĠSe jalan
ĠSe jarah
ĠSe iring
ĠSe je
ĠSe idel
Ġkes al
Ġkes ed
Ġkes ep
Ġkes aksi
Ġkes amaan
Ġkes eriusan
Ġkes abaran
Ġdib oyong
Ġdib atalkan
Ġdib erantas
Ġdib enamkan
Ġpas por
Ġpas cap
ĠBer main
ĠBer jalan
ĠBer alih
ĠBer sih
ĠBer lokasi
ĠBer egu
ĠBer tindak
Ġtetap kan
Ġku as
Ġku bu
Ġku asai
Ġant ena
Ġant arn
Ġmembuat ku
ĠSep ekan
og okan
og rafis
og artap
anti e
ĠPen tas
ĠPen onton
ĠPen indakan
ĠPen ilaian
ĠPen abur
ĠSel epas
ĠSh ai
ĠSh alat
Ġsed ini
Ġsen am
Ġsen yum
Ġsen onoh
Ġkel anjutan
Ġkel iru
Ġkel estarian
Ġkel angsungan
mas jid
ĠPem ilik
Ġkemb ang
Ġkemb alinya
ĠPol is
Ġ6 2
ern ihan
ern ance
ĠAp retude
enc ian
Ġfilm nya
ag ni
tri es
ĠBar ren
emp ur
emp lar
ĠTim or
Ġpes annya
Ġpes epeda
Ġdip ahami
Ġdip osisi
Ġdip ulangkan
Ġdip ecat
Ġdip ublikasikan
und ul
Ġkec urangan
Ġkec intaannya
ha al
ha el
ha ir
ĠDi as
ĠDi fa
ĠDi alo
imp un
imp lementasi
int on
int is
int anya
li um
li fe
Ġpend ingin
Ġpend orong
ef it
ef ilm
ef inisi
pe i
Ġ7 99
Ġ7 200
ĠSeptember Pewarta
Ġpemb ela
Ġpemb eri
Ġpemb atik
Ġpemb ekalan
ĠMan syur
ĠMan ado
Ġsep ar
Ġdil es
Ġdil ekati
Ġdil irik
Ġdil ombakan
Ġdil etakkan
Ġberb adan
Ġberb ondong
Ġberb alut
Ġberb enah
ĠSab ang
Ġi zinkan
oh or
Ġkh asi
Ġsk ena
Ġkemenangan Pewarta
Ġmemba yangkan
Ġmemba wanya
usi r
Ġhal uskan
Ġket epatan
if f
if ang
ĠKom ersi
ĠKom ando
ĠKom ering
ĠKom pol
aksi r
Ġind ikat
Ġind ikasikan
Ġind oor
ton i
Ġmenghad ap
Ġterj un
Ġterj unkan
Ġterj emahan
Ġberp osisi
Ġberp esta
Ġberp acaran
Ġberp rofesi
Ġkeb un
Ġkeb eran
Ġkeb angkit
Ġterd ah
Ġterd orong
Ġung gah
ĠKemen des
ĠKemen hub
Ġpan el
Ġpan tauan
tern ational
Ġal ergi
engk er
ui que
Ġmenya mbar
Ġmenya mbangi
ĠSen ang
ĠSen ada
itur rahman
Ġ8 1
Ġtak tis
Ġpela pis
Ġpela yaran
est an
Ġters el
Ġters ukses
Ġ15 8
pen y
pen ampilan
Ġpr em
Ġpr asar
Ġpr atama
Ġar e
Ġar ena
ĠX odi
ĠX dinary
Ġdiper b
Ġdiper s
Ġdiper ebutkan
Ġdiper ankan
Ġdiper manenkan
Ġdiper hitungkan
Ġpengg erak
emar y
me ier
ĠGr ap
ĠGr im
ĠGr id
ĠGr atis
ĠKep residenan
mp ai
Ġsa fet
Ġdim eriahkan
Ġdim ilikinya
Ġbi ar
Ġbi arkan
ĠAnd res
ĠAnd rew
ĠLa v
ĠLa ba
ĠLa os
ci ate
antu m
wi yono
Ġben efit
tim ewakan
Ġmin ing
Ġmin oritas
Ġdem ons
aris asi
Ġ9 200
ĠSer ing
Ġpern ak
ĠAs et
ĠAs uhan
ĠAs upan
ĠAs maul
ĠAs sessment
fi ed
ĠKam il
ĠAd el
ĠAd alah
av al
ĠPS E
ĠPS IM
ĠPS KC
Ġstr ong
Ġ19 60
Ġ19 67
Ġ19 88
Ġdit un
Ġdit ekan
Ġdit anggung
Ġdit olak
Ġdit unjang
Ġdit untut
Ġdit empati
Ġdit aksir
Ġasal nya
Ġdir elokasi
eks inya
Ġpenga juan
Ġpenga jaran
Ġmusik al
af as
iti c
lan ta
Ġdes krip
Ġmod is
Ġmod erasi
Ġdid ik
Ġdid enda
Ġdid uduki
Ġdid atangi
Ġdid edikasikan
Ġmengg en
Ġmengg osok
Ġmengg antung
Ġmengg emas
Ġmengg ebu
Ġmengg encarkan
ĠSeb elas
egi at
egi ono
Ġmengak selerasi
Ġmengak omodir
san Editor
ĠMad ani
ĠMad ison
erman plat
Ġpol utan
ĠTer c
ĠTer us
ĠTer masuk
ĠTer bukti
ĠTer kadang
ĠTer tiani
Ġwilayah nya
Ġmemas ak
ris ari
ris tal
Ġpelatih nya
Ġeks tasi
Ġeks emplar
Ġseri bu
ĠMes in
ĠMari us
ĠPr atik
ĠPr ando
ĠPr imer
ine ux
Ġgim nastik
ber g
ber ita
ber ch
ber ley
ber diyev
bang sa
our ces
Ġman faatkan
Ġman apun
Ġman ual
Ġkas mir
art h
osial isasikan
Ġof isial
ĠSta bili
ĠOl ivia
Ġkam tibmas
Ġrek lame
Ġ16 5
ge bu
lo c
lo y
ĠPas ukan
entu han
ĠRo und
ĠRo jib
10 1
10 2
10 9
Ġe j
Ġe SAF
Ġlayanan nya
Ġbu aya
Ġtamb ahkan
ĠMas alah
ĠMas lih
hi as
hi jauan
Ġolahraga Pewarta
ĠIs ti
ĠPeng erahan
ĠPeng iriman
ĠPeng etahuan
Ġberd uet
Ġberd omisi
atur ahmi
Ġpenc ari
Ġpenc erah
Ġpenc urian
ĠLiv escore
Ġkur asi
ond isi
anc angan
Ġterk ontrol
esi onal
ĠSet o
Ġperusahaan nya
sel f
sel tib
Ġand ai
ĠRom an
ĠRom eu
nam akan
Ġst ep
Ġst roke
ĠAh ally
Ġdih uni
Ġdih argai
ĠHal f
ĠHal le
ĠHal mah
Ġmudah nya
Ġbertem akan
Ġkasus nya
wang miao
ĠPel indungan
ĠPel ataran
ĠJaya pura
Ġmemp roses
Ġmemp rihat
ĠQ inwen
ĠQ uique
Ġmener junkan
ĠMer sey
Ġjalan kan
ĠSem akin
ĠSem ifinal
Ġmengen taskan
Ġkomp ak
Ġtuju annya
ĠSt one
ĠSt ation
ĠSt ealth
ĠSt ein
ĠKal ider
ĠKal edonia
ĠKor upsi
Ġob yek
Ġterp angkas
Ġ14 5
Ġ14 6
fo e
fo under
ĠMe y
ĠSin en
ĠSin ergi
ĠAt las
ĠAt mos
ĠAt lanta
kom unitas
arg on
arg anya
ĠAri o
ĠAri ani
Ġ13 1
Ġ13 5
Ġpengalaman nya
ĠMadrid Pewarta
unt down
ĠKar ting
ĠRed aksi
AS N
ĠSam arinda
ĠEn di
ĠEn vir
Ġpengh ematan
rad asi
rad ikalisme
Ġsejarah nya
ĠChampions hips
atar belak
ĠRam ot
ĠRam li
Ġsukses kan
ĠAk tifkan
ĠAk ademi
ĠBr yant
ĠBel otti
ĠBel anja
Ġperdagangan nya
ĠJan nik
min eral
ĠSur ia
ĠSur iah
ĠSur iastawa
ĠMa il
ĠMa ul
ĠMa uric
fir st
Ġdin amai
Ġdin ihari
Ġkal ori
Ġkal imat
Ġ17 6
Ġag re
Ġag ent
ĠSo egiono
Ġtotal nya
ĠNur yanto
ĠUm arov
ug ene
ug ure
ĠBe eth
ĠBe ifang
ator y
Ġsur ga
Ġperk ebunan
ĠTan pa
ĠYo o
ks on
ks wagen
Ġken angan
Ġken amaan
eles s
tah uan
ĠLi e
ĠLi ang
ĠLi am
ĠLi quid
Ġmed ical
Ġsini Pewarta
Ġberm acam
Ġberm unculan
Ġberm usik
Ġberm artabat
Ġch arger
Ġch arging
Ġch arity
Ġberla kunya
ĠRa wa
ĠRa zak
Ġmah kota
tuju i
ĠSat o
ĠSat pol
ĠKem ang
ĠKem ambang
ĠKem dikbudristek
ĠEd er
ĠEd in
ĠEd ane
ĠEd istasi
Ġpanas nya
Ġik atan
ĠAc tor
ĠAc ting
ĠAc tion
ĠAng gun
Ġperubahan nya
Ġel ite
ĠKan wil
ender ing
CO N
oc or
oc us
Ġinf luencer
Ġed it
old ametro
Ġtangan nya
BA F
Ġmul anya
Ġmul tip
Ġmul tic
Ġmul tifungsi
ĠBo ok
ĠBo ard
ĠBo az
ĠBo ost
ĠHar us
ĠHar mon
Ġkonser nya
Ġkonser vatif
kap lah
Ġperm ulaan
ĠTh alas
ĠTah ir
Ġro und
Ġro yong
Ġro of
ĠPB PH
ĠRus tem
do or
egas an
Ġpet ang
ĠSek uritas
oro kan
Ġtro ika
ĠEs kisehir
Ġmemperk osa
24 5
ĠParis Pewarta
Ġatlet nya
Ġpositif nya
ID I
Ġkr iter
Ġkr etek
Ġdic oret
ont h
ont in
ont ak
ont es
ĠSw asti
Ġterc epat
ĠRes tor
ĠRes ources
ĠBen ing
ĠBen tuk
ĠBen edik
ĠBen oa
ĠMed ina
ĠMed iteran
Ġkebutuhan nya
ĠNew s
ĠAb raham
iksa annya
ĠSinga pore
ĠMuh aim
Ġdisi k
ĠKu bu
ĠKu asa
ĠKes alahan
ĠKes adaran
ĠKes eruan
anak nya
ĠSp KK
ĠIr ham
ES ENT
Ġsta gnan
Ġkelas bintang
ĠKon tingen
ĠKon fercabis
Ġmengu tuk
ĠCo co
Ġcat atkan
PS N
ry s
Ġkan vas
ĠDan ce
ĠJun o
iz e
Ġhukum nya
ven berch
asar jana
ĠPL TA
ĠPal mas
âĢĻ .
âĢĻ ,âĢĿ
ĠWak af
ĠWorld wide
ĠSingapura Pewarta
kr itik
Ġkari es
ĠSu atu
ĠSu bag
ĠNot epad
ĠSya id
ĠSya fr
ĠMeng h
ĠMeng in
ĠMeng usung
ĠMeng ingat
ĠMeng omentari
ĠTrans migrasi
ĠEv os
ĠEv ery
ĠEx cel
ĠEx pansion
ĠEx pert
ĠVal verde
ĠVal tteri
11 1
erita hu
ĠSim pan
elaj ah
Ġberkom entar
ĠArn old
bo ok
mat olog
akit an
ĠPers onel
ĠPers onaliz
ĠKomun is
Ġmenyam arkan
ĠBas toni
ĠKT M
ĠJon athan
Ġcom plexion
Ġberkembang nya
Ġor mas
ino he
ĠZha o
50 7
ĠDr aper
ĠCon n
ĠCon vers
ĠCon mebol
ĠGen esis
ĠHer y
ĠHer mus
Ġdikenal nya
Ġsemb ako
Ġti er
ĠAdi wiyono
ĠMela kukan
ĠMela wai
ĠMela yu
ĠKec epatan
ĠEl yon
Ġmenyebabkan nya
Ġmom ok
aku asi
ĠJu anda
ĠJu wita
ĠBerikut nya
Ġtab ungan
Ġsebut an
ĠDu et
ĠRah manEditor
ĠRah asia
ĠRah ardjo
Ġwakil nya
Ġka itannya
Ġmeninggal nya
Ġmeninggal kannya
ĠMem iliki
Ġkecil nya
ead y
ead ilan
Ġbar code
ĠSum edi
ĠSum bar
ĠPemb elian
ĠPemb iayaan
tic al
Ġrekan an
In formasi
In ternational
ĠPor tu
ĠBul og
ĠBul garia
ĠMah idin
ĠMah arani
ĠMah adewa
ĠHand y
Ġ40 70
lin k
par tum
ĠSus anti
aspada an
ras etyo
Ġz ait
ĠPam ong
ĠMo fi
ĠMo ussa
ĠMon ter
ĠMon day
ĠMon itoring
ĠIl ir
ĠIl yas
ĠMin um
ĠMin uman
ĠMin ahasa
Ġped ukuhan
Ġsal on
Ġsal do
ĠMul ler
ĠKons ol
ĠKons umen
ĠKons umsi
ĠIm por
ĠTi ara
ĠTi ba
pati al
Ġkonsist ensinya
Ġbr ush
Ġsemp rot
Ġgam es
Ġgam eplay
syah Editor
ĠPR ESENT
ĠBl ess
Ġkeper luan
ĠSatri yo
ĠArgentina Pewarta
Ġkeempat nya
ĠMusi ca
ĠMusi kus
ĠMobil ity
sek tor
str ing
Ġsus pensi
Ġdiak ibatkan
ĠTr ench
ĠLo co
ĠGun tara
Ġpemer ataan
Ġpemer iksaannya
Ġkeber untungan
Ġwajah nya
Ġdasar nya
ĠStar r
ĠKap uk
Ġperl unya
ĠWid ianto
Ap ple
kop olhukam
erat on
erat ed
Ġdom ba
ĠPark s
ĠTak lukan
omb ok
ĠFil osofi
ĠVi ola
ĠVi eira
25 4
Tok opedia
ech t
ear ing
Ġdah ulunya
Ġdah syat
Ġdira yakan
ĠBa ek
ĠBa gus
ĠBa iturrahman
ira usahaan
ĠRe eperb
Ġmain nya
Ġpula u
Ġpember dayaan
Ġpember sihan
ĠMb ah
ĠTik tok
ĠCar olina
Ġpelayanan nya
Ġperkembangan nya
low i
ĠSk ema
ĠSk otlandia
ĠBi ot
ĠBi qwanto
ĠDo C
ĠDo odle
ĠJo int
Ġpenangan annya
ĠFat eh
Ġkont estan
Ġpenyebab nya
Ġdu el
Ġtantangan nya
ĠBur kina
ĠKim berley
ĠDis kon
ĠDis usul
ĠDis kusi
ĠDis ney
ĠDis play
ĠDis informasi
ĠDit enagai
ĠHyo jin
Ġmengad aptasi
Ġstab ilisasi
36 0
ins tal
Ġsh aring
ĠBor ja
ungsi kan
Ġref leksi
Ġref lek
ĠFran ce
ĠPe ak
ĠMak arim
ĠTok en
ĠFA AD
ĠKhusus nya
27 042
no ck
ward s
Ġpic u
ĠAku laku
Ġberc anda
Ġberc ampur
ĠDa ur
ĠDa iry
Ġminim alis
Ġperg elaran
ĠTekn o
Ġmengin ternal
ĠCel ik
Ġrun tuh
Ġrun way
ĠFer guson
ver hampton
Ġberg ema
Ġberg elombang
ĠKeh idupan
Ġtert ekan
Ġtert angkap
ĠRR C
ĠRR T
ĠWar da
ĠWar diat
Ġprak tisi
ĠPratama Editor
.. ..
IS PU
Ġangk atan
Ġimp resif
Ġpla ce
Ġpla cement
Ġsmart watch
ĠPa jak
ĠPh D
ĠPh oto
ĠPut in
ĠPut risari
ĠMay jen
ĠMill er
ĠJak p
ĠJak ut
ĠNo el
Ġmiliter nya
Ġtumbuh nya
jah atan
Ġgi zi
Ġpung gawa
akar ya
akar sa
Ġbang sal
ĠSi on
ĠSi aran
ĠSi asat
ĠPes ta
ĠBand its
ĠKr imsus
ĠDay s
Ġinter vensi
ĠGP X
Ġbuah nya
Ġsundulan nya
Ġpad u
Ġpad am
Ġmental itas
ĠStor m
ĠBag inda
ĠGu e
ĠGu y
ĠGu gus
ĠGu oy
ĠWi guna
ĠWi gunaEditor
ĠOn dre
Ġ199 6
Ġwajib kan
ĠSig nal
ĠClub s
ĠHo uss
ĠHo uten
ĠFor est
angkit kan
ĠFath ul
TC P
Ġtun ai
Ġtun duk
Ġtun tas
ĠSeh ari
Ġberj anji
ĠKun ingan
Ġperb andingan
Ġmemf okuskan
ĠLu o
ĠGel ombang
ĠDigital isasi
200 3
FC Barcelona
jas amarg
Ġpat uhi
Ġsy ukur
Ġtes timoni
Ġtari kan
ĠSar wendah
ĠMaj apahit
iss o
ĠRek aman
ĠRek omendasi
ĠCre ation
bay ang
DI G
DI Y
TH E
rat berdiyev
Ġda ily
Ġpot ret
atm eal
ĠPi xel
ĠAg ni
ĠTai pei
ĠGer rard
ĠHy per
ĠHy ppe
ĠYus hi
Ġdiselenggarakan nya
inh os
Ġditer jemahkan
ĠSE M
ĠBus h
ĠMy cob
ĠMy ratberdiyev
ĠKali bata
ĠDav is
ĠWol fs
ĠWol verhampton
ĠPenga wasan
Ġeksp l
Ġeksp osur
75 7
Ġtra ining
Ġdise tujui
Ġberad egan
ĠMil iter
ĠMil ink
ĠRS UP
ĠRi aldy
ĠRiz a
ĠNic olo
Ġmenyer ukan
ĠLyon nais
An g
An nabel
so et
Ġpilih nya
Ġpilih lah
oner ri
elap kan
ĠTri poli
ĠHang tuah
ĠEr ga
ĠEr dogan
ĠEr nando
ĠAnt wer
ĠProf esional
Ġpengganti an
oper ator
ĠAkan ji
ĠDe ep
ĠDar mian
ĠJos ko
Ġreal isasi
Ġgo yah
ĠZh ang
ĠZh eleb
Ġanti radikalisme
ĠMarket s
ĠRodri go
Ġpe ach
Ġpe bulu
Ġpe ople
Ġpec ahan
Ġpec atur
ĠSub ang
ĠSub dit
ĠAv anza
ĠAv antie
ĠBan jir
ĠBan chi
Ġund er
ĠRun ner
ĠJus tru
ĠWest in
ĠShang zhi
Ġkonsep nya
ĠMulti ple
ĠPo dium
ĠPo chettino
ĠPed oman
ĠMoham ed
ĠKond omo
Ġre formasi
Ġng omong
Ġfil antropi
ĠPerm useuman
Ġkedatangan nya
Ġtransp aran
Ġtransp aransi
box ing
Per mendag
Se bagai
Ġsat in
Ġsat ir
Ġsun tikan
Ġsun burn
Ġkul tur
ĠSis wa
ĠPan jang
ĠBot tas
ĠMun icip
ĠDy ing
ĠDy bala
ĠDiv ine
ĠRay han
ĠRay yan
ĠRiv ian
ĠRich elle
ĠJe ong
ĠJe jaring
Ġrum ahan
ĠLuc a
ĠLuc ia
ĠEmp ang
Con juring
PT N
des a
Ġdef ensif
Ġtemp uh
Ġtemp lat
ĠPul uhan
ĠBam soet
Ġberak ting
ĠMich elin
ĠKa Ta
Ġterang nya
ĠDel hi
ĠRad unovic
ĠRub lev
ĠJer uk
etis lav
ĠUV A
Ġpersa udaraan
Ġimpor tir
ĠComm ission
KC JB
Ġâ ļ½
Ġmar ah
Ġmikro gram
Ġmikro organ
Ġpay et
atori o
ĠSM A
ĠBro ok
ĠBro wn
Ġterm uda
Ġterm urah
ĠDek larasi
Ġins titusi
Ġcap it
ĠEur ope
Ġseder et
Ġgerakan nya
II I
SD Gs
ced o
Ġur in
enga ard
ĠPok emon
ĠBala idos
ĠMir as
ĠMir anda
ĠMir age
Ġmengk onsumsi
ĠPerse war
Ġalih kan
Ġbertanggung jawab
ĠJohn son
cal e
Ġkos ong
Ġteg ak
Ġdiga dang
ĠSom ad
tib kan
ĠTu gu
ĠTor res
ĠCl ement
ĠLog iss
uddin Editor
ĠVic tus
ĠCadiz Pewarta
33 7
74 27042
caya i
uff er
Ġamb assador
ĠSayang e
ĠAz is
ĠAz alina
ĠBh d
Ġmengeksp resi
Ġpenya mbungan
ĠUN FP
ĠRock star
Ġabsen nya
IK A
Pem ain
Pem kab
Ġpengan ut
Ġsc udetto
ĠPil kad
ĠPand u
ĠPand an
ĠBRI mo
ĠMis haal
ĠMol ineux
ĠMemb erikan
ĠKri sis
ĠDik ti
ĠDik etahui
ĠRen ewable
ĠReg ular
Ġmenged arkan
Ġra up
ĠLan ce
Ġpendukung nya
Ġmenjelaj ah
ĠEst etika
Ġmeles at
Ġmeles ak
Ġart istik
Ġacuan nya
ĠGoC ar
AD WI
FF ML
Mer upakan
Pen yerang
eba ge
Ġden yut
Ġmak ro
Ġmak mur
Ġsp r
Ġboc ah
Ġtub er
ĠSap e
ĠSap oet
ĠSud ar
ĠSud ermanplat
ĠSmart phone
ĠMag gie
ĠMag Safe
ĠKek hawatiran
ĠKek eringan
ĠIst isq
ĠTol isso
ĠLev ante
ĠGi gi
ĠGi usep
ĠNg urah
ĠHan ni
ĠHan nan
ĠHel my
ĠFre estyle
ĠWen tao
ĠChrist oper
ĠAli baba
ĠAbd ur
ĠManaj emen
dik bud
Ġeng ine
Ġtek uk
Ġdire but
Ġdire tas
ĠPower ed
Ġho use
ĠLet tu
ĠGla zers
ĠGla xo
ĠHe art
Ġno da
Ġno tifikasi
ĠElec tric
ĠOper ator
ĠAndi en
ĠVan ia
ĠVan illa
ĠUntung nya
ĠTerl etak
ĠAngk asa
ĠRahayu Editor
Kep ala
eologi cal
pu ing
Ġder matolog
Ġpap arkan
Ġbel ia
Ġbel iau
Ġbel ukar
ĠBu at
Ġperut nya
Ġhand ball
ĠRak itic
ĠRic o
ĠTo wa
ĠGal ang
Ġpemen tasan
ĠPerti mbangkan
Ġketert arikan
ĠRedemp tus
Man okwari
NK T
fri ed
met ris
Ġentr epreneur
Ġsim pati
Ġbelah an
ĠSch roder
ĠPot ongan
ĠPot ret
ĠMV P
ĠMulai lah
ĠKing s
ĠKur mala
ĠDom ino
Ġlemb ar
ĠRas pad
ĠCil edug
ĠLin uw
Ġpenyal ur
ĠGe os
ĠGe ertru
ĠGor illa
ĠWat ers
ĠOri ol
Ġpost partum
ĠChair man
ĠProduc tion
ĠUng gahan
ĠPeneliti an
Ġdipinj am
ĠKomp leks
ĠAss faw
ĠNurh adi
ĠLayar nya
Ġtravel er
Dir ektur
Dir reskrimsus
hin ori
erv atorio
Ġmeta bol
Ġdiab adikan
Ġmenek uk
ĠSamp ah
Ġsec ond
Ġkew irausahaan
ĠMB loc
ĠMate u
ĠKub o
ĠIku ti
ĠRem iro
ĠRon an
Ġrem isi
ĠGaku in
ĠFK DM
ĠWeb toon
Ġmembalas nya
Ġberkurang nya
ĠMenga pa
ĠMenga jak
ĠMarino Pewarta
Ġpasc asarjana
Ġ79 40
ĠHadir nya
ĠPelaksana an
ĠJulian ta
ĠPraset yaningsih
RS UP
Ġmon eter
Ġplay er
Ġspek ulasi
Ġspek tak
Ġkad er
Ġten un
Ġten or
Ġdif abel
Ġdif asilitasi
Ġdiap resiasi
Ġditand atangani
ĠBangk alan
ĠMuk ti
ĠMuk htar
ĠKunc ah
ĠKunc oro
Ġterper osok
Ġterpan cing
Ġham string
Ġhiper pigmentasi
ĠDA U
ĠDil kov
ĠCas elle
ĠLam sfuss
ĠLong wangmiao
Ġwis udawan
abil ity
Ġakadem isi
ĠYud e
ĠProcess ors
Ġdiser takan
emprot kan
cio us
ĠCoun tries
Ġambisi us
HU T
foli asi
Ġir itasi
Ġom bak
Ġom zet
Ġet nografi
Ġayah nya
Ġdeg radasi
Ġmagn itudo
Ġpir ang
Ġsint etik
ĠSut opo
ĠSkr iniar
ĠPeri laku
ĠBrid ge
organ isir
ĠMit tal
ĠKro asia
Ġlingk aran
ĠRef resh
ĠTia foe
Ġmengatas namakan
ĠCik akak
ĠCons ervatorio
Ġrap per
Ġrev olusi
ĠGab on
ĠNA TION
ĠHav as
ĠHav re
Ġbag iku
Ġcip ut
ĠEsta fet
ĠPerg antian
ĠCho os
ĠViv i
ĠYong ki
Ġselebri tas
ĠMarqu inhos
Ġditanya i
Ġex perience
ĠPengelola an
argan egaraan
ĠKaren anya
ĠSof ia
ĠSuperc opa
ĠPramud yaniEditor
ĠCyber jaya
ĠPlayoff s
Ġkonsultasi kan
Sat gas
bus iness
Ġbla zer
Ġbib it
ĠSq uawka
ĠSustain ability
ĠPart ner
ĠBav arian
ĠBav aria
ese orang
ĠKara wang
Ġjurn alis
Ġhel ikop
ĠDam ara
ĠRid ho
ĠTag lia
Ġmengel uh
Ġmengering kannya
Ġran sel
ĠInt egrasi
ĠGos ens
Ġgreen back
ĠHi jau
Ġcon tract
Ġje jaring
otret an
Ġpos ko
ĠVel vet
ĠVol kswagen
ĠYak ni
Ġasp al
Ġanyar nya
ĠAsh ley
Ġkamer awan
Ġkamer amen
ĠFau zan
ĠSukam to
ĠEmirat es
Ġmeminim alkan
ĠJacob s
Ġmarket pla
Kar ena
bur ton
pr insip
pela jar
yp ass
Ġdeh idrasi
Ġkant ongi
Ġklien nya
Ġblock chain
Ġteam Lab
Ġmeneg angkan
Ġmeneg akkan
ĠSik lus
Ġseku tu
ĠPon tianak
ĠPsik olog
ĠAud y
ĠBri zio
Ġkej ernihan
ĠMY SA
ĠMom en
ĠDur ant
Ġlum ayan
ĠRambut an
ĠTinggal kan
Ġmengan alisis
Ġmengan jurkan
ĠCen tral
ĠCle an
ĠInves tig
ĠGat h
ĠGad jah
ĠGonz alo
ĠNa omi
Ġny eri
ĠUdin ese
ĠWes ton
Ġmembesar kan
osito BPR
ĠAdv anced
Ġmenggel orakan
Ġkritik us
ĠDisc overy
ĠDisc overies
ĠDevil s
Ġmisteri us
ĠWonder ful
ĠEconom y
ĠAssassins s
Bel anda
Com merce
Fer rari
Mar vin
Mas terson
Pro gram
Sep tember
belak ang
mn asium
oter api
Ġasi st
Ġasi metris
Ġima ge
Ġenter taiment
Ġpi alang
Ġpid ato
Ġpid ananya
Ġpew arna
Ġpingg iran
Ġbl ender
ĠSD Gs
ĠSup erman
ĠBaw aslu
ĠMold e
ĠMold ova
ĠIma ges
ĠRac hael
Ġmenggu yur
Ġmengeks ekusi
Ġmengkon versi
ĠCib eet
ĠLaks mi
ĠLlor ona
ĠInsti tute
ĠGy mnasium
ĠGra venberch
Ġ112 7427042
ĠFas o
Ġmered am
Ġmered uksi
ĠEp ic
ĠElim inasi
ĠElim ination
Ġpengec ekan
Ġperson il
ĠAsy ari
ĠTerbaru kan
Ġterkend ala
Ġterkend ali
ĠStev e
ĠEddi e
ĠTren asia
ĠKasat kina
ĠBaid lowi
ĠChristop her
Ġkompatib el
Ġkompatib ilitas
ĠHidayat ullah
Kal sel
Lay anan
Ter ima
fak tor
sem ia
tm cp
Ġmur ni
Ġpu ing
Ġkag et
Ġbin ti
Ġbal utan
Ġtand us
Ġtengg orokan
ĠSz oboszlai
ĠSad ikin
ĠSTA RS
ĠPin ot
ĠAf ghan
ĠAo uar
ĠMM EA
ĠMos cow
ĠKol ombia
Ġmemak nai
ĠIq bal
ĠIgn atius
ĠDib ekali
Ġle arning
ĠRincian nya
ĠTub ruk
ĠTern ate
ĠTris na
Ġmengangg arkan
ĠCi jurey
ĠCim ekar
ĠComp osition
Ġinsp eksi
ĠJin ping
ĠLah adal
ĠLuth fia
Ġget aran
ĠFlor es
Ġnav y
Ġfed erasi
Ġcur hatan
Ġconc ert
ĠWag ner
Ġpenggal angan
Ġmenyany ikan
ĠAnn ual
ĠZak aria
Ġdikend alikan
Ġpenyus unan
ĠSeju jurnya
ĠSeles aikan
ĠPemer iksaan
Ġprap esan
ĠTerp adu
ĠProm otor
ĠOlimp ico
ĠAcer bi
ĠAccel erator
ĠThor n
ĠMuhamad Editor
ĠTake uchi
ĠDermat ologi
ĠDomin ik
Ġ???????????????????????? ????????
ĠSecret ary
ĠPartners hip
ĠRiyad h
Alex ander
Fu zhou
Kh elaifi
Ken ny
PPO M
kelas sbint
Ġep ik
Ġdun ianya
Ġdet il
Ġmach ine
Ġsil aturahmi
Ġsain s
Ġbomb ing
Ġta utan
Ġtok en
Ġtongk at
Ġdigu yur
Ġmenab rak
ĠSv etislav
Ġseter usnya
ĠPangkal pinang
ĠAla ves
ĠAgas si
ĠBlo om
Ġberba ju
Ġkegi gihan
ikul um
ĠMing ue
ĠMew ujudkan
ĠKul on
ĠKab id
Ġterak bar
ĠIch sanEditor
ĠImb al
ĠIde osource
Ġlep rae
Ġlengk et
ĠRegi on
ĠTj ia
ĠTari gan
ĠTekstur nya
ĠCru yff
ĠJas amarga
ĠLO real
ĠLip uto
ĠInsp iration
Ġpenahan an
Ġpenjur u
ĠGil geous
ĠGuan yu
ĠGior gos
ĠNasi r
ĠNev es
ĠNiz am
ĠHasi buan
ĠHant eo
Ġnos talgia
Ġmeren ungkan
Ġcash back
Ġpengemb alian
ĠOz ora
Ġkepeng urusan
ĠVari ety
ĠYuan hong
Ġasuran si
Ġmemperl ebar
ĠAlph onso
Ġkomed ian
ĠArch itz
ĠBerm otor
ĠBersi kaplah
ĠShot aro
Ġkeben arannya
Ġkebis ingan
ĠXia oning
Ġterkon eksi
Ġmemprot eksi
ĠStatis ta
Ġobser vasi
ĠSury odiningrat
ĠSekali gus
ĠJuna idi
Ġtrip od
ĠLou is
ĠFru engaard
ĠSyukur Editor
ĠBaju mu
istirah atkan
ĠNorh idayah
Ġcerob ong
ĠRicci ardo
ĠVelod rome
Ġ????âļª ï¸ı
ĠGonzal ez
ĠDiplom asi
ĠSyams udin
ĠHanif aEditor
Ġoversi zed
Aut obio
Arn old
Bl ibli
Br asil
Bog or
Bint an
Brun ei
De utsch
Found er
KHO M
Li u
Mc Laren
Mus lim
Mur alitharan
Pam ela
Por tugal
Pex els
PAP DI
Ray n
Sel anjutnya
Shen ina
Tah un
Ur ban
Wor ld
Yos hinori
dorong an
jann ah
pengg emar
tog efilm
tanggungjawab kan
Ġela stin
Ġapat is
Ġaran semen
Ġark eologi
Ġistr inya
Ġdang dut
Ġdam kar
Ġdrops hot
Ġmedi asi
Ġpari purna
atollroad operator
Ġsuar anya
Ġsine as
Ġsanita si
Ġsirku lasi
Ġstig ma
Ġkus am
Ġkiner janya
Ġklari fikasi
Ġbri ef
Ġbok eh
Ġbez el
Ġbord ir
Ġbull ish
Ġtag line
Ġteas er
Ġdiversi fikasi
Ġdibuk tikan
Ġdiwajib kan
gagal an
Ġmenela dani
Ġmenangg ulangi
Ġmenetr alkan
Ġmenewas kan
amena g
ĠSip rus
ĠSka arup
ĠSudi arta
ĠSrid in
ĠSHO W
ĠSiss oko
Ġsesek ali
ahter akan
Ġyog urt
ĠPamp angan
ĠPetr us
ĠAutu mn
elim inary
ĠBinj ai
ĠBug is
ĠBAR BIE
ĠBatal yon
ĠBAT IC
ortiv o
Ġberib adah
Ġbertand ang
Ġberteri ak
Ġbergo yang
Ġkegan asan
ĠMab es
ĠMemen angi
ĠMera uke
ĠMea zza
ĠManda iling
ĠMunj irin
ĠMav erick
ĠMiner al
ĠMehr tens
isyi yah
ĠKand ungan
ĠKartan egara
ĠKelump ang
Ġperput aran
Ġterungk ap
Ġterpen uhinya
Ġterlam pa
Ġtertan am
Ġmeminj amkan
Ġmemantap kan
Ġjump ing
Ġhol istik
Ġhay ati
ĠITD C
ĠDob ric
ĠDila porkan
ĠDrees en
Ġlosi on
Ġlump uh
Ġlinc ah
ĠRPT RA
ĠTum buh
ĠTamp il
ĠToul ouse
Ġmengka ji
Ġmengev aluasi
Ġmengomp res
Ġmengelabuh i
ĠCok elat
ĠCali fornia
ĠCov id
ĠCHI PS
ĠCitr aland
ĠCicil iaEditor
ĠJAY A
ĠJahang Editor
acteri um
Ġroman sa
Ġromant is
ĠLabu hanbatu
ĠIniti ative
ĠInSt yle
ĠGed ebage
ĠGib ran
ĠGitar is
ĠGomba u
ĠGreal ish
ĠGessell schaft
Ġgard u
Ġgoy angan
ĠNeman ja
ĠNadjmat ul
ĠHali burton
ĠHos pitality
ĠHaw ks
ĠHaf id
ĠHach inohe
ĠHero es
riend ly
ĠFra usto
ĠFinan ce
Ġnarap idana
Ġmerangs ang
Ġfab rikasi
Ġcentim eter
ĠIndonesis che
ĠUtr echt
ĠUsta dz
Ġwild card
ĠEsp ana
ĠEintrac ht
ĠWey land
Ġpemuti han
oteg ravir
egrat ed
Ġpengelu aran
ehavi oral
Ġmembanj iri
ĠOny ancha
ĠOdega ard
aintel kam
Ġmenyej ahterakan
Ġmenyemang ati
Ġmendiskusi kan
Ġkonvensi onal
Ġkonvo i
ĠChary yev
ĠAnsh or
ĠAnasta sia
Ġmencinta i
Ġmencurig akan
Ġmelolos kan
ĠVener eologi
Ġmengasy ikkan
Ġvinta ge
Ġvolat ilitas
nivers ary
ĠYAR SI
Ġdiafrag ma
Ġkeronc ong
Ġkeronto kan
ĠZiel inski
ĠZagar s
ĠZacc agni
ĠArcha eological
ĠProved el
Ġanaly tics
Ġdisyukur i
ĠSeje ong
Ġkesaksi an
Ġpascap andemi
Ġantarn egara
ĠBarren etxea
ĠDialo gue
efinisi kan
Ġindikat or
Ġkeberan ian
Ġkebangkit an
Ġprasar ana
ĠXodi ac
Ġsafet y
Ġmenggemas kan
ĠPratik no
ĠRojib lancos
ĠMaslih ah
Ġberdomisi li
ĠAhally yev
ĠHalmah era
Ġmemprihat inkan
ĠMersey side
ĠStein meier
ĠKalider es
atarbelak angi
ĠMauric io
ĠBeeth oven
ĠEdistasi us
Ġmultic abang
ĠThalas semia
Ġkriter ia
ĠSwasti ari
ĠBenedik tus
ĠMediteran ia
ĠMuhaim in
ĠSyafr in
ĠPersonaliz ed
ĠConvers ation
ĠElyon ai
Ġzait un
ĠReeperb ahn
ĠFAAD V
Ġmenginternal isasi
ĠWardiat no
ĠGuoy ing
ĠOndre j
jasamarg atollroadoperator
ĠMycob acterium
ĠMilink ovic
Annabel le
ĠAntwer p
ĠZheleb our
Ġngomong in
ĠMunicip al
Ġmikroorgan isme
ĠPilkad es
ĠSapoet ra
ĠSudermanplat z
ĠIstisq a
ĠGiusep pe
ĠRaspad ori
ĠLinuw ih
ĠGeertru ida
Ġspektak uler
Ġhelikop ter
ĠTaglia fico
Ġmarketpla ce
ĠInvestig ation
tmcp oldametro
ĠAfghan istan
ĠLahadal ia
kelassbint angg
Autobio graphy
! !
% .
) /
, ,
, -
, âĢĻ.
. âĢľ
0 4
0 337
1 15
2 17
2 15
2 80
3 99
3 50
3 80
3 76
4 99
4 50
4 85
4 87
5 10
5 12
5 11
5 25
5 73
5 95
5 86
6 50
7 15
7 12
7 69
8 20
8 46
8 95
8 43
9 3
9 29
9 40
9 32
9 46
9 74
9 82
9 64
A H
A Q
A c
A d
A t
A v
A kan
A sia
A ni
A gr
A pa
A mb
A gus
A BA
A FP
A vi
A jax
B C
B es
B ur
B and
B ukan
B anyak
B atang
B NI
B ron
B elarus
B UMD
C F
C o
C ap
C erita
C AR
C agliari
C oC
C lear
C hair
D C
D H
D o
D ik
D es
D ek
D ep
D ay
D ingin
D av
D KI
D AS
D rak
D okumen
D AY
D WI
D ame
E BT
F K
F R
F inal
F all
F orm
F irst
F unctional
G N
G R
G er
G ul
G ra
G olo
G lobal
G BA
G row
G erak
H o
H um
H ai
H IN
H AD
H atta
I P
I W
I a
I b
I t
I ESF
I AP
I OM
J A
J V
J u
J ad
J aya
J AK
J umlah
J oe
K R
K p
K em
K ed
K end
K GH
K ons
K ec
K line
K unjungan
K etika
K PK
K AI
K erjasama
K Ã¶ln
K LU
K etahanan
K eters
K ogartap
K ontak
L K
L ian
L iv
L ater
L oc
L ampir
L ive
L CS
L ogo
L td
L ittle
M at
M em
M el
M eng
M end
M asa
M ungkin
M usta
M ED
M emas
M aria
M etro
M AT
M emang
M ENT
M amiyev
N i
N o
N AS
N ex
N ally
N VB
N TER
N CON
O P
O X
O p
O lahraga
O TT
O SM
P a
P o
P si
P il
P ara
P emb
P RI
P ay
P ec
P iala
P ersi
P hone
P MP
P adang
P utih
P abrik
P DI
P ulau
P iano
P enga
P okok
P ier
P EK
P rasetyo
Q T
Q x
Q OO
Q Air
R L
R M
R N
R es
R ain
R asa
R uang
R BL
R TH
R oger
R CD
R OM
R CE
R ote
S C
S K
S R
S S
S X
S o
S an
S ya
S ul
S eb
S umat
S eo
S port
S ee
S enam
S EO
S udin
S urat
S ingle
S erv
S AKTI
S TEM
S esuai
S ense
S porting
T R
T U
T o
T u
T an
T ingkat
T ern
T itik
T entu
T arget
T MII
T ake
T esla
T entang
T MC
T rip
T egalluar
T JS
U T
U Y
U mi
U EA
U kraina
V A
V i
V era
V OO
W N
W al
W atch
W TI
W amen
W indow
X L
X R
X avi
X perience
Y o
Y un
Y LI
Z ebra
a q
a wa
a udi
a ult
b one
b esar
b di
b akat
b oh
b idang
b eli
b arat
b ase
b uri
b low
b adinya
b ike
b ene
b unyi
b ria
b ird
b unuh
b ahasa
b ihkan
b itazza
c c
c m
c ang
c la
c am
c is
c akan
c ep
c ai
c ok
c elah
c ce
c ilkan
c antara
c over
c eni
c antik
c ante
c raft
d u
d ta
d ing
d ia
d aya
d epan
d egan
d rat
d isk
e ak
e em
e el
e is
e ti
e um
e aksi
e eks
e ond
e gahan
e young
f y
f ar
f al
f ah
f udian
f alkan
f ree
f ull
f inder
f unction
g il
g it
g ata
g ma
g ota
g onal
g era
g hi
g uru
g dayaan
g lish
h at
h em
h as
h ap
h il
h ur
h it
h um
h arta
h eb
h eta
h ent
h uan
h ima
h ui
h ten
h abis
h ampir
h ere
h itya
h tiar
i i
i asa
i wi
i asakan
i antoro
i grasi
i Phone
j an
j un
j ad
j ih
j ot
j jak
j anto
j oran
j atiEditor
j andro
j ale
j pg
j onegoro
k g
k n
k el
k ada
k it
k ek
k um
k ita
k ini
k iri
k apai
k atanya
k ovic
k usta
k ampung
k isah
k ira
k asta
k ins
k ular
k urs
k ebijakan
k odai
k ondisi
l um
l ita
l ebih
l os
l ic
l anan
l og
l li
l ihat
l atif
l ive
l igh
m es
m ada
m uk
m ma
m eh
m ina
m uda
m ona
m oro
m ampuan
m udin
m acam
m ford
m usim
m edium
m tm
m oney
m odel
m inton
n d
n en
n ta
n el
n od
n asional
n anti
n utama
n ess
n over
n ders
o ui
o isasi
o pati
o umas
p x
p it
p ia
p uh
p isi
p re
p enc
p ekerja
p ihak
p likasi
p ris
p ine
p latform
p uncak
p ack
p esan
p lasi
p ide
p ly
p indah
p ost
p eluang
p oser
p ink
p lantasi
p ella
p rn
p amas
q on
q ah
q or
q ir
q ut
q aya
q ui
r b
r em
r ek
r ul
r uh
r era
r ini
r aman
r umah
r enal
r uangan
r aku
r ace
r upsi
r ency
s ang
s am
s eri
s ana
s Pewarta
s angat
s ling
s tudi
s day
s huttle
s eries
t X
t un
t ong
t unya
t ha
t enggara
t egang
t len
t lement
t hira
u ak
u ad
u am
u for
u tur
u asan
u alikan
u asif
u urs
u guchi
u guan
u tasinya
v E
v y
v ena
v io
v ost
v ador
v atorium
v ival
v vat
w e
w y
w ad
w is
w us
w eb
w ed
w ong
w alan
w arga
w elas
w angi
w inan
w oho
w hit
y er
y ad
y ik
y ung
y om
y Editor
y uan
y pe
y uda
y angi
y oto
y ank
y ne
y anta
y namic
y hur
z ek
z ec
z ee
z aly
z uv
z fit
z abeth
§ alo
Ã §alo
ì Ŀ
Ġ =
Ġ ë
Ġ ent
Ġ usus
Ġ ori
Ġ qu
Ġ etik
Ġ usul
Ġ ular
Ġ entitas
Ġ enga
Ġ order
ľ į
an ch
an jar
an yar
an jak
an faatkan
an terior
er in
er ba
er et
er han
er angi
er ry
er cayaan
en an
en as
en ap
en sia
en ian
en tur
en jata
en tahkan
Ġd ak
Ġd ro
Ġd one
Ġd ok
Ġd ay
Ġd ev
Ġd esi
Ġd omp
Ġd osis
Ġd ys
Ġd ongkrak
Ġd edikasikan
Ġd ll
Ġd edikasi
Ġd inding
Ġd ynamic
ar s
ar engan
ar uk
ar ahan
ar tikan
ar mon
ar tificial
ar woto
ar eva
ar uddinEditor
Ġm it
Ġm id
Ġm ind
Ġm angga
Ġm atanya
Ġm old
Ġm ight
Ġm ikir
Ġm eth
Ġm amanya
Ġm aksud
Ġm angkir
Ġm estinya
Ġm antel
Ġm onster
Ġm onth
Ġp akan
Ġp ep
Ġp ain
Ġp le
Ġp olo
Ġp aj
Ġp ump
Ġp ack
Ġp egang
Ġp ile
Ġp upuk
Ġp ayah
Ġp idat
Ġp alet
Ġp ahit
Ġp uncaki
Ġp egiat
Ġp uffer
at on
at es
at se
at eri
at ha
at atkan
at uhan
at uhi
at th
in ian
in os
in ha
in ves
in ner
in ze
in asinya
in sentif
in trik
Ġs tu
Ġs it
Ġs ul
Ġs ia
Ġs ab
Ġs ant
Ġs ip
Ġs tand
Ġs ula
Ġs iv
Ġs tim
Ġs ports
Ġs arat
Ġs car
Ġs irk
Ġs heet
Ġs ajian
Ġs astra
Ġs torage
Ġs lime
Ġs anter
ang le
ang sek
Ġk W
Ġk ip
Ġk ub
Ġk unc
Ġk abu
Ġk oli
Ġk olos
Ġk aku
Ġk umpul
Ġk umpulkan
Ġk Wh
Ġk abin
Ġk acang
Ġk elump
la us
la lu
la di
la yanan
la mbat
ak nya
ak ia
ak uan
ak aman
ak ui
ak iti
ak po
ak tivitas
ak utan
ak lukkan
ak alanya
Ġb at
Ġb aya
Ġb eg
Ġb os
Ġb angg
Ġb ow
Ġb elas
Ġb oh
Ġb ater
Ġb imb
Ġb oot
Ġb atch
Ġb ase
Ġb rig
Ġb untu
Ġb unda
Ġb umbu
Ġb ody
Ġb alet
Ġb oros
Ġb ambu
Ġb olanya
Ġb alance
Ġt v
Ġt ela
Ġt ensi
Ġt ind
Ġt aksi
Ġt iti
Ġt ump
Ġt ingkatan
Ġt witter
Ġt enggara
Ġt rag
Ġt eguh
Ġt wo
Ġt ongkr
Ġt agar
Ġt ayangkan
Ġt atap
Ġt ombak
Ġt ype
si b
si c
si apa
si ber
si hkan
em e
em ed
em ati
em ow
em istr
em ungkinan
em babkan
em ony
un ta
un asi
un isa
un tai
un sur
un tahkan
un meh
Ġdi sia
Ġdi alam
Ġdi emb
Ġdi amp
Ġdi ev
Ġdi kait
Ġdi ca
Ġdi olah
Ġdi jauh
Ġdi real
Ġdi trans
Ġdi incar
Ġdi optimalkan
Ġdi informasi
Ġdi identifikasi
Ġdi usir
ga pan
ga jak
ga dang
ga by
ga dir
ga mbar
Ġmen s
Ġmen as
Ġmen ik
Ġmen ari
Ġmen eri
Ġmen ip
Ġmen af
Ġmen iti
Ġmen ump
Ġmen anggung
Ġmen ebarkan
Ġmen aung
Ġmen onaktifkan
Ġmen usuk
ta Editor
ta ge
ta do
ta iner
ta manan
ta wai
ta jam
ta dion
ta Joe
kan ya
ad as
ad ir
ad ma
ad atan
ad arkan
ad ona
ad ug
ad egan
tu an
tu lus
ya itu
al el
al engan
al nya
al lah
al ukan
al angi
al let
al tinya
al ews
al kohol
am am
am ah
am il
am ac
am ond
am ikro
on an
on ta
on ut
on line
on buri
on Ã§alo
on areva
ĠS F
ĠS G
ĠS N
ĠS R
ĠS ingk
ĠS han
ĠS ib
ĠS uar
ĠS emp
ĠS yah
ĠS omi
ĠS ambut
ĠS NI
ĠS ore
ĠS olusi
ĠS aku
ĠS lip
ĠS AR
ĠS ongkok
ĠS IS
ĠS OL
ĠS HM
ĠS orot
ĠS LR
ĠS jai
ĠS porting
ĠS lime
ĠS ovi
ĠS eseorang
ĠS HAD
ĠS IAP
Ġse ju
Ġse um
Ġse di
Ġse tah
Ġse aled
ah r
ah ap
ah asi
ah nya
ah et
ah ayakan
ah yang
ah kodai
as si
as angan
as tri
as indo
as kular
as moro
Ġy our
Ġy ester
ĠP om
ĠP ud
ĠP lu
ĠP angan
ĠP up
ĠP ra
ĠP ola
ĠP uan
ĠP ec
ĠP aj
ĠP ow
ĠP unj
ĠP andang
ĠP ris
ĠP ham
ĠP ump
ĠP ats
ĠP aro
ĠP iz
ĠP egang
ĠP aku
ĠP ujian
ĠP ound
ĠP artisipasi
ĠP KB
ĠP ick
ĠP INK
ĠP AD
ĠP ebri
ĠP ejabat
ĠP ukul
ĠP ahang
ĠP ebasket
ĠP esic
ĠP vE
ĠA A
ĠA pat
ĠA tr
ĠA ip
ĠA ula
ĠA tri
ĠA yah
ĠA ura
ĠA ge
ĠA lami
ĠA kuat
ĠA raf
ĠA qu
ĠA PS
ĠA bud
ĠA mart
ĠA ragon
ĠA gen
ĠA uth
ĠA tap
ĠA ffa
ĠA real
ĠA wat
ĠA yang
ĠA iko
ĠA udio
ĠA qsa
ĠA was
ĠA round
ĠA xel
ĠA fiah
ĠA isyiyah
ĠA DWI
el eng
el ia
el ev
el ekan
el lan
el les
el ly
el ink
el sie
el edahan
ĠB H
ĠB K
ĠB et
ĠB ok
ĠB atu
ĠB ip
ĠB ic
ĠB era
ĠB ib
ĠB abu
ĠB ha
ĠB las
ĠB aka
ĠB ee
ĠB enda
ĠB AS
ĠB iaya
ĠB endah
ĠB PS
ĠB AM
ĠB lasi
ĠB atch
ĠB ugi
ĠB adar
ĠB oni
ĠB elak
ĠB uff
ĠB MC
ĠB inder
ĠB adak
ĠB EI
ĠB utter
ĠB utton
ĠB itazza
ĠB UMD
ĠB ypass
ĠB ehavioral
ĠB aintelkam
ju ga
ju angkan
ju yam
or ma
or ama
or ity
or etan
or ganisasi
or sium
Ġber ik
Ġber ka
Ġber ev
Ġber uang
Ġber ambut
Ġber na
Ġber tam
Ġber umur
Ġber migrasi
Ġber abad
Ġber kantor
Ġber alasan
Ġber ambisi
Ġber eaksi
Ġber anjak
eng e
eng at
eng gal
eng erti
eng lad
Ġke as
Ġke ju
Ġke is
Ġke aman
Ġke ag
Ġke ingin
Ġke gunaan
Ġke emasan
Ġke jaksaan
Ġke anggota
Ġke jahatan
Ġke gagalan
ing ar
ing kan
ing ge
ing ne
ik s
ik y
ik as
ik is
ik il
ik api
ik tor
ik budristek
ik ayo
ik lanan
ĠM E
ĠM s
ĠM ang
ĠM id
ĠM eri
ĠM eka
ĠM ula
ĠM ekan
ĠM oh
ĠM if
ĠM alay
ĠM engg
ĠM akin
ĠM uri
ĠM its
ĠM aksud
ĠM ame
ĠM enteng
ĠM Ã¼
ĠM awar
ĠM Si
ĠM amiyev
ĠM awangi
ĠM TCP
ap e
ap ela
ap uk
ap sia
ap aran
ap est
ap tive
ap ainya
is un
is ai
is ch
is men
is trian
is latif
es h
es ti
es tr
es ka
es inan
es eran
es wari
es try
es sion
es hadow
ala k
ala ud
ala yak
ala bria
ĠK D
ĠK K
ĠK S
ĠK o
ĠK v
ĠK at
ĠK ak
ĠK ari
ĠK asi
ĠK ai
ĠK aya
ĠK eta
ĠK etap
ĠK aj
ĠK olabor
ĠK ategori
ĠK oc
ĠK ret
ĠK uro
ĠK rom
ĠK oga
ĠK ocok
ĠK operasi
ĠK atal
ĠK ound
ĠK ato
ĠK ayu
ĠK oul
ĠK eku
ĠK urang
ĠK ogo
ĠK ante
ĠK ird
ĠK AT
ĠK ajian
ĠK incir
ĠK aker
ĠK olagen
ĠK lien
ĠK oalisi
ĠK etahanan
ĠK yai
ĠK nock
ĠK NKT
ĠK NVB
ĠK laus
Ġper angk
Ġper amb
Ġper und
Ġper ebut
Ġper tahan
Ġper ban
Ġper ko
Ġper usak
Ġper barui
Ġper adangan
Ġper tandingkan
Ġper formance
Ġper adaban
Ġper akitan
Ġter or
Ġter ik
Ġter ti
Ġter it
Ġter sa
Ġter panjang
Ġter tip
Ġter luas
Ġter go
Ġter uji
Ġter entang
Ġter lipat
Ġter veri
Ġter imak
Ġter anyar
us Editor
us Pewarta
us Daniel
us try
us ova
il at
il eks
il ogy
ari ans
ari kannya
ur as
ur gen
ur tado
asi la
ti Editor
ti awan
ti tik
Ġmem e
Ġmem o
Ġmem end
Ġmem od
Ġmem erintah
Ġmem antu
Ġmem adai
Ġmem angkas
Ġmem udar
Ġmem ilikinya
Ġmem onitor
Ġmem oles
Ġmem untahkan
Ġju z
Ġju do
Ġju sti
ela mi
ela ide
Ġh p
Ġh it
Ġh um
Ġh amp
Ġh ab
Ġh ama
Ġh ip
Ġh uni
Ġh ij
Ġh eran
Ġh ikm
Ġh omo
Ġh ack
Ġh ost
Ġh ilangkan
Ġh eat
Ġh itung
Ġh ambar
Ġh ubungkan
Ġh odgkin
Ġh ajar
Ġh awai
Ġh appy
it kan
it anya
it ana
it ee
it hi
it ator
it rove
bu ang
bu aya
bu paten
bu yback
ĠI R
ĠI ba
ĠI zz
ĠI MI
ĠI car
ĠI TC
ĠI jo
ĠI TP
ĠI CE
ĠI KN
ĠI GN
ĠI QAir
ol ga
ol fi
ol itik
ol ene
ol eransi
ol ution
ol enko
ol iser
ĠD at
ĠD ara
ĠD one
ĠD ot
ĠD isi
ĠD ea
ĠD ilih
ĠD ulu
ĠD edi
ĠD ill
ĠD atar
ĠD ish
ĠD ling
ĠD erita
ĠD ej
ĠD usan
ĠD ipta
ĠD etail
ĠD BS
ĠD PT
ĠD erick
ĠD LH
ĠD OSM
ĠD XL
ĠD zek
ĠD juyam
ek ang
ek ap
ek sa
ek ade
ek osistem
ek erjakan
Ġ2 20
Ġl il
Ġl ot
Ġl end
Ġl upakan
Ġl ea
Ġl umat
Ġl oh
Ġl iti
Ġl ine
Ġl ez
Ġl omp
Ġl ega
Ġl ift
Ġl isan
Ġl ily
Ġl estari
Ġl uncur
Ġl ink
Ġl ife
Ġl arinya
Ġl ithi
Ġl ekang
ara wan
ara go
ara wy
nya Ber
ir s
ir al
ir ai
ir uan
ir ahkan
ir atif
ir amkan
ir itasi
ir atory
Ġun gu
Ġun lock
im s
im al
im ir
im ano
im alis
ĠR J
ĠR P
ĠR ap
ĠR et
ĠR apat
ĠR atu
ĠR op
ĠR asa
ĠR osi
ĠR he
ĠR ekan
ĠR ukan
ĠR aih
ĠR yo
ĠR aka
ĠR angga
ĠR ank
ĠR ans
ĠR asanya
ĠR abi
ĠR uch
ĠR owi
ĠR ift
ĠR PA
ĠR ows
ĠR iani
ĠR etro
ĠR atusan
ĠR iku
ĠR encananya
ĠR ambah
ĠR irin
ĠR itual
ĠR anting
ĠR ancangan
ĠR endering
ĠT v
ĠT at
ĠT am
ĠT itu
ĠT and
ĠT ut
ĠT ep
ĠT ita
ĠT end
ĠT os
ĠT ina
ĠT esar
ĠT hir
ĠT apa
ĠT ekan
ĠT epat
ĠT aj
ĠT oh
ĠT omor
ĠT ump
ĠT ij
ĠT IM
ĠT urun
ĠT edi
ĠT ilang
ĠT anggung
ĠT utup
ĠT ID
ĠT omo
ĠT enaga
ĠT okoh
ĠT IC
ĠT az
ĠT abi
ĠT ower
ĠT oy
ĠT ingkatkan
ĠT ambang
ĠT EC
ĠT ayangan
ĠT umbu
ĠT witch
ĠT GC
ĠT eleskop
ĠT umor
ĠT ulung
ĠT ico
ĠT emuan
ĠT angis
ĠT atanan
ĠT reatment
ĠT iger
ĠT XT
ĠT ugure
ĠT onut
ĠT irai
um ini
um bo
um ulasi
um bi
ung i
ung ut
ung gul
ung sinya
Ġmeng ot
Ġmeng os
Ġmeng gun
Ġmeng ind
Ġmeng elar
Ġmeng emp
Ġmeng ulang
Ġmeng olah
Ġmeng ikir
Ġmeng ungsi
Ġmeng oleskan
Ġmeng angkut
Ġmeng implementasi
Ġmeng kritik
Ġmeng organisir
Ġmeng istirahatkan
Ġmeng iritasi
ĠC V
ĠC asil
ĠC etak
ĠC lan
ĠC oba
ĠC ode
ĠC uman
ĠC uper
ĠC uler
ĠC AM
ĠC iner
ĠC ite
ĠC ipta
ĠC andi
ĠC ici
ĠC SG
ĠC iel
ĠC MII
ĠC ody
ĠC indy
ĠC ustomer
ĠC hannel
ĠC ME
ĠC raven
ĠC rys
ĠC alabria
Ġin c
Ġin tim
Ġin tip
Ġin come
Ġin trik
Ġin tens
Ġin jection
ĠJ et
ĠJ uh
ĠJ end
ĠJ ian
ĠJ ami
ĠJ ay
ĠJ ahan
ĠJ iri
ĠJ og
ĠJ ura
ĠJ aka
ĠJ our
ĠJ elang
ĠJ ade
ĠJ andia
ĠJ alur
ĠJ elam
ĠJ alen
ĠJ alal
ĠJ abatan
ĠJ IS
ĠJ ie
ĠJ iang
ĠJ ihan
ĠJ enazah
ĠJ elajah
ĠJ urgen
uk un
uk ada
uk uh
uk atif
ac t
ac at
ac ki
ac ity
ac unan
Ġr ak
Ġr id
Ġr ain
Ġr os
Ġr atakan
Ġr ib
Ġr ebut
Ġr ez
Ġr esi
Ġr awat
Ġr upa
Ġr ating
Ġr encanakan
Ġr etakan
Ġr ange
Ġr ajai
Ġr ileks
Ġr ukun
ul ingan
ul gar
ul tur
ul irkan
ul ate
ul ture
ul der
ul tural
ul icin
id or
id amkan
id rat
id latul
id mah
id siber
Ġ20 40
om en
om ing
om anya
om aru
om po
om erus
ĠL ar
ĠL un
ĠL es
ĠL and
ĠL lu
ĠL ama
ĠL ain
ĠL op
ĠL ingk
ĠL ini
ĠL ov
ĠL aman
ĠL ef
ĠL ui
ĠL uas
ĠL umen
ĠL ayang
ĠL intang
ĠL awan
ĠL atihan
ĠL ast
ĠL okasi
ĠL over
ĠL indungi
ĠL ily
ĠL OS
ĠL ink
ĠL angit
ĠL IK
ĠL una
ĠL CD
ĠL eban
ĠL oncat
ĠL ikes
ĠL ittle
ĠL este
ĠL emkapi
ĠL oren
ĠL otte
ĠL ombok
ĠL PPOM
ĠIn isi
ĠIn st
ĠIn spirasi
ĠIn klusif
ĠIn pres
ĠIn nov
ĠIn gin
Ġla lui
Ġla utan
Ġla was
Ġla gunya
Ġla yer
ba uan
ba bak
ata i
ih il
ih atan
ro y
ro kan
ro om
ro ceni
ro usova
Ġpen antang
Ġpen ungg
Ġpen inggalan
Ġpen andatangan
Ġpen injauan
Ġpen untut
Ġpen anaman
Ġpen egahan
Ġpen altinya
ia gn
et s
et el
et ti
and us
and asi
ud it
ud ung
ud eta
ĠG T
ĠG ud
ĠG int
ĠG aris
ĠG all
ĠG aik
ĠG our
ĠG rab
ĠG lami
ĠG urun
ĠG ug
ĠG erd
ĠG imb
ĠG PS
ĠG eno
ĠG alti
ĠG de
ĠG osok
ĠG az
ĠG ros
ĠG untung
ĠG ere
ĠG ift
ĠG TI
ĠG ross
ĠG reat
ĠG urit
ĠG awai
ĠG SX
ĠG akpo
eb ang
eb ek
eb elasan
ed u
ed ad
ed es
ed ari
ed iv
ed ivo
Ġg ra
Ġg ot
Ġg lik
Ġg ender
Ġg antikan
Ġg ej
Ġg antinya
Ġg low
Ġg ood
Ġg ebr
Ġg reat
Ġg uy
Ġg anja
Ġg andum
Ġ1 17
Ġ1 10
Ġini Penerjemah
ut in
ut kan
ut era
ep t
ep et
ep uh
ep elekan
âĢ Ķ
âĢ ĺ
ĠN C
ĠN V
ĠN at
ĠN on
ĠN ab
ĠN ian
ĠN ami
ĠN op
ĠN ow
ĠN TS
ĠN ear
ĠN AP
ĠN ash
ĠN GP
ĠN AN
ĠN uansa
ĠN ihan
ĠN ext
ĠN HM
ĠN oble
ĠN ebu
ĠN athan
ĠN iacinamide
ĠN LR
ĠN YC
ĠN Golo
adi p
adi an
ma il
ma id
ma wat
lu ence
ĠH I
ĠH L
ĠH z
ĠH ik
ĠH ol
ĠH ai
ĠH ana
ĠH ub
ĠH ay
ĠH asih
ĠH aman
ĠH aj
ĠH ulu
ĠH ujan
ĠH arian
ĠH ampir
ĠH ebat
ĠH itam
ĠH ernand
ĠH TH
ĠH ell
ĠH umbang
ĠH eat
ĠH anafi
ĠH BO
ĠH appy
ĠH earing
ĠH urtado
ĠH omerus
ri j
ri ya
angan an
one ering
ai b
ai ca
up ai
up res
ĠF O
ĠF i
ĠF un
ĠF am
ĠF lu
ĠF ai
ĠF ati
ĠF ig
ĠF und
ĠF lo
ĠF rid
ĠF rancis
ĠF ish
ĠF ive
ĠF uji
ĠF resh
ĠF ebri
ĠF of
ĠF asilitas
ĠF osil
ĠF ox
ĠF HCI
ĠF oster
ĠF ocus
ĠF ikayo
ĠF ukada
emb el
emb akan
emb uru
emb ley
TA IN
ĠInd o
ĠInd om
ĠInd iB
ĠInd ustry
ter tas
per k
per forma
per temuan
RA V
Ġdalam i
aya gunaan
amp B
amp T
amp uran
amp iri
amp ire
amp anye
Ġba u
Ġba wakan
Ġba yaran
Ġn m
Ġn asi
Ġn uan
Ġn ge
Ġn ano
Ġn ekat
Ġn ont
Ġn ikmati
Ġn ino
Ġn alur
Ġn ext
Ġn asihat
Ġn ilainya
Ġn peny
Ġn afas
Ġn orma
Ġmer k
Ġmer ta
Ġmer ok
Ġmer eg
Ġmer ev
Ġmer ajal
Ġmer deka
Ġmer ambah
Ġmer efleksi
Ġmer intis
Ġmer angsek
but an
se ed
se ven
Ġf it
Ġf asih
Ġf und
Ġf ee
Ġf anc
Ġf ans
Ġf ast
Ġf lip
Ġf oreh
Ġf ound
Ġf ootball
Ġf ull
Ġf eat
Ġf eed
Ġf lek
Ġf Ã¼
Ġf riendly
Ġf utur
Ġf ungsinya
Ġc em
Ġc angk
Ġc re
Ġc uti
Ġc inc
Ġc apres
Ġc uri
Ġc over
Ġc ru
Ġc urahan
Ġc ool
Ġc ucu
Ġc hannel
Ġc intanya
Ġc emburu
Ġmenj ag
Ġmenj erat
Ġmenj untai
ĠIndone sias
ok i
ok ol
ok alisir
ĠU K
ĠU M
ĠU P
ĠU HD
ĠU MS
ali p
ali fah
Ġj ag
Ġj uni
Ġj elaskan
Ġj enderal
Ġj ongkok
Ġj ayanya
Ġj eruk
Ġj epret
Ġj ewel
Ġj argon
Ġj ompo
Ġw elas
Ġw eek
Ġw ifi
Ġw rap
Ġw elcome
Ġw inger
Ġw artawan
Ġw ajar
Ġw heel
Ġw arganya
ua y
ua gung
ra an
ra it
ra isal
ra uw
ĠE M
ĠE le
ĠE mer
ĠE nis
ĠE qu
ĠE ric
ĠE gian
ĠE arth
ĠE ugene
ĠE NTER
ĠE QT
ĠE atth
ĠW o
ĠW u
ĠW er
ĠW TA
ĠW ong
ĠW orang
ĠW arn
ĠW anda
ĠW arna
ĠW ord
ĠW ish
ĠW ei
ĠW ander
ĠW TI
ĠW att
ĠW endy
ĠW artawan
ĠW uling
ĠW amenag
ĠW itrove
ĠW embley
apat i
ku asa
Ġpem ers
Ġpem uka
Ġpem buk
Ġpem ungkas
Ġpem indai
Ġpem ogokan
Ġpem otretan
Ġpem akaman
Ġpem aparan
uh di
uh eni
ot ta
ot on
ot nya
ot ori
ot ron
ot esis
ab e
ant ika
elah iran
eg akan
eg et
eg na
eg ros
eg etan
Ġpeng ar
Ġpeng isi
Ġpeng ula
Ġpeng und
Ġpeng ha
Ġpeng unjuk
Ġpeng ungsi
Ġpeng erit
Ġpeng umpul
Ġpeng ujung
Ġpeng angkutan
Ġpeng gawa
Ġpeng garis
Ġpeng umpulan
Ġpeng ukuhan
Ġpeng upas
Ġpeng osongan
Ġpeng erjaan
Ġpeng operasian
Ġpeng hijauan
eh end
eh ic
end ang
ian si
ian is
ian na
Ġmela lap
wa e
wa inya
wa ys
wa jah
Ġa jukan
Ġa firmasi
Ġa jakan
Ġa yang
Ġa jai
Ġa wards
Ġa udit
pat ik
pat ib
pat hon
ingga li
Ġpro to
Ġpro sesi
Ġpro sti
eri c
eri e
eri fikasi
ja ja
ja jaran
isi kon
tr an
tr en
tr alitas
tr amikro
Ġmemb el
Ġmemb uru
Ġmemb osan
Ġmemb entak
Ġmemb unuh
Ġmemb atalkan
Ġmemb eban
Ġmemb olehkan
Ġmemb lokir
Ġmemb ocor
Ġmemb eritahu
Ġmemb angkitkan
Ġmemb iasakan
Ġmemb ahayakan
ĠO M
ĠO c
ĠO f
ĠO w
ĠO de
ĠO gn
ĠO rig
ĠO AN
ĠO con
ĠO cta
ĠO atmeal
ĠO egros
angk um
angk ot
angk asan
Ġak s
Ġak sel
Ġak apela
Ġak umulasi
Ġak ultur
ĠâĢ Ļ
Ġmeny ulit
Ġmeny ewa
Ġmeny akit
Ġmeny ens
Ġmeny usuri
Ġmeny aring
Ġmeny ematkan
Ġmeny empurn
Ġmeny utradarai
Ġmeny antap
Ġmeny angkut
Ġmeny osialisasikan
Ġmeny emprotkan
Ġmeny adarkan
Ġmeny engat
Ġmeny ikapi
Ġmeny elami
Ġmeny iramkan
RI S
RI IZE
Ġmas akan
Ġmas uki
Ġmas kot
Ġmas kapai
Ġmas yhur
Ġkar at
Ġkar un
Ġkar di
Ġkar boh
Ġkar cis
Ġmu qor
atu kan
yak inan
Ġmend iv
Ġmend ingin
Ġmend asari
Ġmend istribusikan
Ġmend aratkan
Ġmend anai
Ġmend efinisikan
Ġkon tri
Ġkon tin
Ġkon fr
Ġkon sesi
Ġkon gres
os um
os upres
ena gak
dit e
Ġsem udah
Ġsem atkan
Ġsem uda
Ġsem alaman
Ġsem arak
ch est
ch ips
ch ero
ch air
ch ann
ch arger
ch craft
op os
op olitik
ong e
ong g
ong garan
ĠâĢľ âĢĺ
Ġtim eless
ip ut
ip aan
ip ulasi
ip lak
ip tanya
ob ak
ob alah
ub i
man i
ĠPer n
ĠPer an
ĠPer ang
ĠPer tal
ĠPer ayaan
ĠPer forma
ĠPer luk
ĠPer baiki
ĠPer olehan
ĠPer lahan
ĠPer tanian
ĠPer encanaan
ĠPer esmian
ĠPer obekan
ĠPer paduan
ĠPer kred
ĠPer industri
ĠPer tamanan
Ġad vance
Ġad akalanya
gu el
Ġu tamakan
Ġu jian
re z
re an
re as
re za
re jo
ĠCh amb
ĠCh arge
ĠCh arm
ĠCh arging
ĠCh eeks
ĠCh onburi
ĠCh elsie
eta s
da usEditor
alan ci
Ġ3 18
Ġ3 90
Ġ3 74
Ġser asi
Ġser bu
Ġser ukan
Ġser angga
ina zz
ĠAn y
ĠAn ti
ĠAn su
ĠAn tisipasi
ĠAn tusias
ĠAn niversary
ent e
ent s
ent il
ay ung
ay ani
ay oran
Ġbah asan
ila p
Ġmenc alon
Ġmenc apainya
jar inya
Ġpers ona
Ġpers embahan
Ġpers uasif
Ġsek elas
Ġsek urang
Ġsek onsisten
ic ya
ic onduc
ka winan
ka bupaten
Ġseb etulnya
Ġmel ati
Ġmel upakan
Ġmel emp
Ġmel engk
Ġmel ebarkan
Ġmel ancong
Ġmel arikan
Ġmel etakkan
Ġmel ukis
Ġmel andai
Ġmel atarbelakangi
Ġmel embabkan
Ġmel okalisir
ola si
aw n
Ġga ek
Ġga gas
Ġga lon
Ġga wainya
yar kan
angkan ya
Ġkep ulan
Ġkep aduan
Ġkep alanya
Ġkep ikiran
Ġkep residenan
di Editor
di gital
di adakan
di jatiEditor
Ġberk ib
Ġberk erah
Ġberk irim
Ġberk ering
Ġberk ecepatan
Ġberk ilah
Ġberk urban
Ġberk eadilan
Ġberk emungkinan
hir e
hir up
Ġmusi c
Ġmusi man
Ġpel ukan
Ġpel engkap
amb ung
had api
ĠV on
ĠV era
ĠV ini
ĠV ond
ĠV erd
ĠV oc
ĠV az
ĠV II
ĠV lad
ĠV olume
ĠV esic
ĠV log
ĠV ladi
ĠV iktor
ĠV ampire
ĠV alanci
ima Pro
od as
od ik
od ip
od alan
od oh
od ore
od jo
od iaEditor
od zo
Ġbers antai
Ġbers entuhan
Ġbers enjata
ons ori
era an
Ġkem ih
Ġkem udi
Ġkem anta
Ġkem oterapi
Ġmenga baikan
Ġmenga lokasi
Ġmenga mati
Ġv ib
Ġv alas
Ġv ulgar
Ġv erifikasi
ini tiv
wan an
wan ti
ingkat nya
Ġat ap
Ġat ur
Ġat ensi
Ġked epan
Ġked amaian
Ġked okteran
Ġked aruratan
ib o
ib aly
Ġ5 13
ni ati
angat kan
Ġmembu yarkan
ĠY os
ĠY ag
ĠY uki
ĠY okoh
ĠY oman
ĠY ao
ĠY arm
ĠY hlas
ĠY OU
ĠY ellow
ĠY uguan
Ġdia gonal
Ġbaru lah
Ġker um
Ġker abat
Ġker ongk
Ġker amat
Ġker ikil
Ġker udung
Ġker opos
gr up
gr ade
gr ess
por asi
Ġas ma
Ġas ri
Ġas yik
ov an
ov ski
ov akia
ov askular
Ġsela manya
Ġsela yaknya
ĠZ a
ĠZ ap
ĠZ ero
ĠZ hen
ĠZ akh
ĠZ ombie
ĠZ ii
ĠZ alews
ĠZ uhdi
ĠZ ubi
Ġmemper lakukan
Ġmemper cayai
Ġmemper cantik
Ġmemper tajam
Ġmemper juangkan
for t
for est
for ce
for ward
tor e
tal enta
ĠSela lu
ĠSela yar
ĠSela pan
Ġproduk nya
Ġproduk sinya
tem annya
tem plasi
jut an
Ġsel ling
Ġsel epas
Ġsel aras
pa ga
Ġo at
Ġo zon
Ġo uter
Ġo lahan
Ġdik el
Ġdik it
Ġdik om
Ġdik enang
Ġdik urasi
Ġdik erahkan
Ġdik ukuhkan
Ġdik eroy
Ġdik husus
Ġdik ehend
ĠAl b
ĠAl at
ĠAl ih
ĠAl ena
ĠAl atas
ĠAl to
ĠAl lis
ĠAl ly
ĠAl okasi
ĠAl pha
ĠAl umni
ĠAl cantara
ĠAl pine
ĠAl eksa
ĠAl iansi
unc il
Ġ4 20
Ġ4 50
Ġ4 80
Ġ4 75
Ġseh arian
Ġseh ubungan
Ġseh abis
ec er
ec imapro
ĠAS Pewarta
ĠMen u
ĠMen ang
ĠMen ahan
ĠMen ikmati
ĠMen jaga
ĠMen ambah
ĠMen tawai
ensi k
ensi ve
Ġpersen Pewarta
Ġkom andan
ĠAr ki
ĠAr tis
ĠAr oma
ĠAr row
ĠAr indra
ĠAr tikel
ĠAr dina
ĠAr iton
ĠAr zuv
20 30
20 26
ind u
ind en
ind arkan
ind ex
inal isasi
inal dy
tif ah
tif ication
tif ied
tif aq
mb oel
ungk al
bak ina
uar d
ev ingne
iv er
iv ille
iv ery
Ġek lek
Ġek ologis
Ġberh ari
osi f
osi r
Ġpeny angga
Ġpeny unt
Ġpeny intas
Ġpeny emangat
Ġpeny itaan
Ġpeny ebaran
Ġpeny ulingan
st art
st akeholder
tasi os
Ġan s
Ġan tiv
Ġan tim
Ġan jurkan
ĠMar wi
ĠMar bo
ĠMar dian
ĠMar ston
ĠMar ques
ĠMar bun
ĠKe bay
Ġneg oisasi
Ġwak ili
Ġwak tunya
Ġdis erang
Ġdis ebar
Ġdis umbang
Ġdis ebarkan
Ġdis inggung
Ġdis ayangkan
Ġdis trik
Ġdis orot
Ġdis embuhkan
Ġdis amakan
Ġdis insentif
Ġdis epelekan
ĠUn der
ĠUn ram
ĠUn titled
ĠUn boxing
ĠUn pack
Ġterb iasa
Ġterb entur
ĠSe e
ĠSe i
ĠSe y
ĠSe ob
ĠSe usai
ĠSe baiknya
ĠSe arch
Ġkes et
Ġkes annya
Ġkes ayangan
Ġkes alahannya
Ġkes erba
Ġkes ebelasan
Ġdib en
Ġdib el
Ġdib atasi
Ġdib antah
Ġdib ebaskan
Ġdib ongkar
Ġdib alut
Ġdib endung
Ġpas ta
Ġpas ok
ĠBer h
ĠBer at
ĠBer ta
ĠBer had
ĠBer apa
ĠBer ani
ĠBer uang
ĠBer encana
ĠBer sel
ĠBer bagi
ĠBer sen
ĠBer untung
ĠBer edar
ĠBer ser
ĠBer karya
ĠBer tema
ĠBer isha
ĠBer taruh
ĠBer kuasa
abu ming
apan nya
Ġku atkan
Ġku curkan
Ġku cai
Ġant ing
Ġant ik
Ġant is
Ġant rean
Ġharus nya
ig an
ig ensi
ig atse
ĠSep uluh
og ni
og ebang
ĠPen uh
ĠPen ulis
ĠPen yal
ĠPen erti
ĠPen umpang
ĠPen untut
ĠPen anaman
ĠPen anganan
epat uhan
aj akan
ĠSel ebri
ĠSel vi
ĠSh i
ĠSh ah
ĠSh ek
ĠSh ift
ĠSh ao
ĠSh akh
ĠSh ared
ĠSh iao
ĠSh eraton
ĠSh amam
ĠSh imano
ĠSh igatse
Ġsen tuh
Ġsen tralitas
Ġkel imanya
Ġkel ihatan
Ġkel onggaran
arn ain
arn aan
arn oto
mas o
mas in
mas alahannya
ck mi
ĠPem da
ĠPem ilih
ĠPem buat
ĠPem bagian
ĠPem ukim
ĠPem antauan
ĠPem buangan
ĠPem ateri
ĠPol antas
Ġ6 30
Ġsalah kan
ern et
ern itana
ĠAp ps
ĠAp indo
ĠAp parel
enc i
ag akan
ow led
ĠBar ang
ĠBar ki
ĠBar cel
ĠBar ret
res e
res sion
gal ang
gal uru
ĠTim o
Ġpes ohor
Ġdip ad
[...]
