{"<s>":0,"<pad>":1,"</s>":2,"<unk>":3,"<mask>":4,"!":5,"\"":6,"#":7,"$":8,"%":9,"&":10,"'":11,"(":12,")":13,"*":14,"+":15,",":16,"-":17,".":18,"/":19,"0":20,"1":21,"2":22,"3":23,"4":24,"5":25,"6":26,"7":27,"8":28,"9":29,":":30,";":31,"<":32,"=":33,">":34,"?":35,"@":36,"A":37,"B":38,"C":39,"D":40,"E":41,"F":42,"G":43,"H":44,"I":45,"J":46,"K":47,"L":48,"M":49,"N":50,"O":51,"P":52,"Q":53,"R":54,"S":55,"T":56,"U":57,"V":58,"W":59,"X":60,"Y":61,"Z":62,"[":63,"\\":64,"]":65,"^":66,"_":67,"`":68,"a":69,"b":70,"c":71,"d":72,"e":73,"f":74,"g":75,"h":76,"i":77,"j":78,"k":79,"l":80,"m":81,"n":82,"o":83,"p":84,"q":85,"r":86,"s":87,"t":88,"u":89,"v":90,"w":91,"x":92,"y":93,"z":94,"{":95,"|":96,"}":97,"~":98,"¡":99,"¢":100,"£":101,"¤":102,"¥":103,"¦":104,"§":105,"¨":106,"©":107,"ª":108,"«":109,"¬":110,"®":111,"¯":112,"°":113,"±":114,"²":115,"³":116,"´":117,"µ":118,"¶":119,"·":120,"¸":121,"¹":122,"º":123,"»":124,"¼":125,"½":126,"¾":127,"¿":128,"À":129,"Á":130,"Â":131,"Ã":132,"Ä":133,"Å":134,"Æ":135,"Ç":136,"È":137,"É":138,"Ê":139,"Ë":140,"Ì":141,"Í":142,"Î":143,"Ï":144,"Ð":145,"Ñ":146,"Ò":147,"Ó":148,"Ô":149,"Õ":150,"Ö":151,"×":152,"Ø":153,"Ù":154,"Ú":155,"Û":156,"Ü":157,"Ý":158,"Þ":159,"ß":160,"à":161,"á":162,"â":163,"ã":164,"ä":165,"å":166,"æ":167,"ç":168,"è":169,"é":170,"ê":171,"ë":172,"ì":173,"í":174,"î":175,"ï":176,"ð":177,"ñ":178,"ò":179,"ó":180,"ô":181,"õ":182,"ö":183,"÷":184,"ø":185,"ù":186,"ú":187,"û":188,"ü":189,"ý":190,"þ":191,"ÿ":192,"Ā":193,"ā":194,"Ă":195,"ă":196,"Ą":197,"ą":198,"Ć":199,"ć":200,"Ĉ":201,"ĉ":202,"Ċ":203,"ċ":204,"Č":205,"č":206,"Ď":207,"ď":208,"Đ":209,"đ":210,"Ē":211,"ē":212,"Ĕ":213,"ĕ":214,"Ė":215,"ė":216,"Ę":217,"ę":218,"Ě":219,"ě":220,"Ĝ":221,"ĝ":222,"Ğ":223,"ğ":224,"Ġ":225,"ġ":226,"Ģ":227,"ģ":228,"Ĥ":229,"ĥ":230,"Ħ":231,"ħ":232,"Ĩ":233,"ĩ":234,"Ī":235,"ī":236,"Ĭ":237,"ĭ":238,"Į":239,"į":240,"İ":241,"ı":242,"Ĳ":243,"ĳ":244,"Ĵ":245,"ĵ":246,"Ķ":247,"ķ":248,"ĸ":249,"Ĺ":250,"ĺ":251,"Ļ":252,"ļ":253,"Ľ":254,"ľ":255,"Ŀ":256,"ŀ":257,"Ł":258,"ł":259,"Ń":260,"an":261,"er":262,"en":263,"Ġd":264,"ar":265,"Ġm":266,"Ġp":267,"at":268,"in":269,"Ġs":270,"ang":271,"Ġk":272,"la":273,"ak":274,"Ġb":275,"Ġt":276,"si":277,"em":278,"un":279,"Ġdi":280,"ga":281,"Ġmen":282,"ta":283,"kan":284,"ad":285,"tu":286,"ya":287,"al":288,"am":289,"on":290,"ĠS":291,"Ġse":292,"ah":293,"as":294,"Ġy":295,"ĠP":296,"Ġyang":297,"ĠA":298,"el":299,"ĠB":300,"Ġdan":301,"ju":302,"or":303,"Ġber":304,"eng":305,"Ġke":306,"ing":307,"ik":308,"ĠM":309,"ap":310,"is":311,"es":312,"ala":313,"ĠK":314,"Ġper":315,"Ġter":316,"us":317,"il":318,"ari":319,"ur":320,"asi":321,"ti":322,"Ġmem":323,"Ġju":324,"ela":325,"ada":326,"akan":327,"Ġh":328,"it":329,"bu":330,"ĠI":331,"ol":332,"ĠD":333,"ek":334,"Ġ2":335,"engan":336,"Ġl":337,"ara":338,"nya":339,"ir":340,"Ġun":341,"Ġ(":342,"Ġjuga":343,"Ġdengan":344,"im":345,"tuk":346,"ĠR":347,"ĠT":348,"um":349,"ung":350,"Ġmeng":351,"ĠC":352,"Ġin":353,"Ġuntuk":354,"ĠJ":355,"uk":356,"ac":357,"Ġr":358,"gi":359,"ul":360,"id":361,"Ġ20":362,"om":363,"itu":364,"ĠL":365,"ĠIn":366,"Ġla":367,"Ġpada":368,"ba":369,"ata":370,"Ġdari":371,"ih":372,"ro":373,"Ġpen":374,"ia":375,"et":376,"sia":377,"and":378,"aca":379,"arta":380,"alam":381,"ud":382,"ĠG":383,"eb":384,"Ġ202":385,"ĠBaca":386,"ed":387,"Ġg":388,"Ġ1":389,"Ġini":390,"ut":391,"Ġitu":392,"ep":393,"âĢ":394,"ĠN":395,"adi":396,"ma":397,"lu":398,"ĠH":399,"ri":400,"angan":401,"atan":402,"one":403,"ai":404,"up":405,"ĠF":406,"emb":407,"TA":408,"ĠInd":409,"ter":410,"per":411,"RA":412,"Ġdalam":413,"aya":414,"amp":415,"NTA":416,"Ġba":417,"NTARA":418,"Ġn":419,"Ġmer":420,"but":421,"se":422,"Ġf":423,"Ġc":424,"Ġmenj":425,"Ġ2023":426,"ĠIndone":427,"ĠIndonesia":428,"ok":429,"ĠU":430,"ali":431,"Ġj":432,"Ġw":433,"akarta":434,"ew":435,"ua":436,"ra":437,"ĠE":438,"Ġakan":439,"ĠW":440,"apat":441,"ku":442,"Ġpem":443,"alah":444,"ita":445,"uh":446,"ot":447,"ab":448,"ant":449,"elah":450,"eg":451,"Ġpeng":452,"emen":453,"eh":454,"end":455,"ian":456,"Ġmela":457,"ama":458,"wa":459,"Ġa":460,"pat":461,"ingga":462,"idak":463,"Ġpro":464,"sebut":465,"eri":466,"baga":467,"anya":468,"Ġmenjadi":469,"ja":470,"aat":471,"isi":472,"Ġtersebut":473,"tr":474,"Ġmemb":475,"Ġtah":476,"Ġbis":477,"Ġtidak":478,"ĠO":479,"bagai":480,"ebih":481,"angk":482,"ana":483,"Ġak":484,"ain":485,"Ġpo":486,"lah":487,"ĠâĢ":488,"Ġmeny":489,"Ġ-":490,"ati":491,"RI":492,"Ġbisa":493,"Ġmas":494,"Ġkata":495,"Ġkar":496,"Ġmu":497,"atu":498,"yak":499,"ANTARA":500,"Ġmend":501,"Ġkon":502,"ami":503,"Ġata":504,"os":505,"Ġtahun":506,"ĠANTARA":507,"Ġdapat":508,"Ġlebih":509,"ena":510,"oleh":511,"dit":512,"Ġatau":513,"Ġsem":514,"ĠCO":515,"aru":516,"âĢĿ":517,"ch":518,"op":519,"ong":520,"ĠâĢľ":521,"GH":522,"ingk":523,"00":524,"han":525,"Ġtim":526,"aran":527,"ĠÂ":528,"ĠCOP":529,"ĠÂ©":530,"ditor":531,"ip":532,"YRI":533,"GHT":534,"ĠCOPYRI":535,"ĠCOPYRIGHT":536,"ob":537,"ub":538,"Editor":539,"man":540,"Ġsaat":541,"ĠJakarta":542,"ĠPer":543,"Ġad":544,"gu":545,"Ġu":546,"iga":547,"Ġoleh":548,"re":549,"ĠCh":550,"eta":551,"da":552,"eka":553,"gun":554,"udah":555,"alan":556,"Ġ3":557,"Ġser":558,"ina":559,"tama":560,"ĠAn":561,"ent":562,"ay":563,"Ġbah":564,"ila":565,"duk":566,"Ġmenc":567,"jar":568,"Ġpers":569,"ota":570,"Ġsek":571,"ic":572,"ewarta":573,"onal":574,"Ġsatu":575,"le":576,"Ġsebagai":577,"Ġset":578,"ka":579,"Ġseb":580,"ika":581,"Jakarta":582,"Ġmel":583,"ola":584,"aw":585,"esar":586,"Ġbagi":587,"Ġga":588,"Ġban":589,"ilik":590,"yar":591,"tas":592,"asil":593,"angkan":594,"asa":595,"Ġkep":596,"di":597,"uan":598,"Ġberk":599,"pan":600,"ingan":601,"hir":602,"Ġmereka":603,"Ġmusi":604,"Ġpel":605,"amb":606,"Ġkarena":607,"had":608,"ĠV":609,"ungan":610,"elum":611,"ima":612,"Ġtelah":613,"Ġhingga":614,"kukan":615,"Ġhar":616,"empat":617,"od":618,"angg":619,"atakan":620,"),":621,"cara":622,"mi":623,"Ġbers":624,"Ġadalah":625,"ons":626,"era":627,"ran":628,"inya":629,"Ġkem":630,"lui":631,"Ġmenga":632,"Ġv":633,"ini":634,"Pewarta":635,"wan":636,"ingkat":637,",âĢĿ":638,"Ġat":639,"Ġked":640,"ib":641,"Ġada":642,"sa":643,"Ġ5":644,"ni":645,"angat":646,"ilan":647,"Ġmembu":648,"perti":649,"Ġkami":650,"iliki":651,"ĠY":652,"unia":653,"Ġdia":654,"tand":655,"Ġbaru":656,"ula":657,"Ġker":658,"gr":659,"por":660,"Ġas":661,"apa":662,"api":663,"Ġlain":664,"Ġsudah":665,"Ġseperti":666,"Ġmelalui":667,"ov":668,"arkan":669,"Ġpemain":670,"Ġsela":671,"ĠZ":672,"Ġmemper":673,"for":674,"Ġbahwa":675,"tor":676,"inta":677,"tal":678,"Ġdua":679,"ĠSela":680,"Ġproduk":681,"Ġserta":682,"asih":683,"tara":684,"Ġmemiliki":685,"tem":686,"Ġsetelah":687,"Ġsecara":688,"jut":689,"Ġmengatakan":690,"Ġsel":691,"pa":692,"Ġo":693,"orang":694,"Ġdik":695,"ĠAl":696,"itas":697,"Ġsaya":698,"unc":699,"Ġ4":700,"akat":701,"Ġseh":702,"main":703,"Ġgol":704,"ec":705,"Ġpara":706,"ĠAS":707,"ĠMen":708,"??":709,"ses":710,"ensi":711,"Ġpoin":712,"Ġpersen":713,"Ġpertama":714,"Ġres":715,"ember":716,"ahan":717,"etap":718,"ilm":719,"anjut":720,"Ġkom":721,"ĠAr":722,"olo":723,"20":724,"Ġbaik":725,"asional":726,"Ġmemberi":727,"amun":728,"ind":729,"Ġsangat":730,"inal":731,"ulan":732,"aan":733,"jak":734,"tif":735,"gar":736,"mb":737,"ĠPro":738,"aman":739,"Ġhari":740,"sung":741,"yarakat":742,"tur":743,"ungk":744,"bak":745,"uar":746,"uran":747,"ev":748,"iv":749,"Ġek":750,"Ġkepada":751,"upakan":752,"jang":753,"Ġberh":754,"Ġkedua":755,"osi":756,"Ġpeny":757,"he":758,"Ġmusim":759,").":760,"Ġmasyarakat":761,"Ġmerupakan":762,"ikasi":763,"st":764,"ulit":765,"tasi":766,"Ġan":767,"ani":768,"ĠMar":769,"iri":770,"ekan":771,"tandingan":772,"Ġbanyak":773,"ĠKe":774,"Ġhanya":775,"Ġneg":776,"Ġwak":777,"ementara":778,"Ġdis":779,"Ġatas":780,"ting":781,"Ġmemberikan":782,"Ġbeb":783,"gus":784,"ahkan":785,"ĠUn":786,"atih":787,"Ġterb":788,"Ġbesar":789,"form":790,"urut":791,"ĠSe":792,"Ġmasih":793,"Ġkes":794,"Ġdib":795,"lub":796,"Ġsama":797,"Ġpas":798,"ĠBer":799,"Ġtetap":800,"abu":801,"apan":802,"Ġku":803,"Ġpertandingan":804,"gunakan":805,"Ġant":806,"ukan":807,"anan":808,"asan":809,"Ġharus":810,"elar":811,"usah":812,"Ġbersama":813,"Ġmembuat":814,"ig":815,"ĠSep":816,"Ġlalu":817,"og":818,"anti":819,"ĠRp":820,"ĠPen":821,"apkan":822,"uti":823,"inggu":824,"angsung":825,"Ġresmi":826,"epat":827,"Ġsebelum":828,"aj":829,"erapa":830,"ĠSel":831,"Ġtiga":832,"Ġmelakukan":833,"ĠSh":834,"Ġsed":835,"ĠLiga":836,"Ġsen":837,"gah":838,"Ġkel":839,"arn":840,"mas":841,"ck":842,"uju":843,"ĠPem":844,"arga":845,"Ġkemb":846,"ĠChina":847,"ĠPol":848,"Ġkali":849,"Ġposi":850,"Ġ6":851,"Ġsalah":852,"Ġwaktu":853,"ern":854,"ĠAp":855,"enc":856,"unya":857,"Ġfilm":858,"ag":859,"tri":860,"ow":861,"ĠBar":862,"Ġdunia":863,"res":864,"Ġorang":865,"gal":866,"Ġyak":867,"emenangan":868,"emp":869,"ĠTim":870,"ologi":871,"Ġpes":872,"Ġdip":873,"yah":874,"Ġkita":875,"Ġtr":876,"Ġakhir":877,"und":878,"mlah":879,"Ġbeberapa":880,"Ġkembali":881,"uang":882,"Ġmenit":883,"Ġkec":884,"Ġmendapat":885,"ha":886,"itar":887,"Ġpenggun":888,"Ġagar":889,"Ġsehingga":890,"ĠDi":891,"aikan":892,"imp":893,"int":894,"ĠSelain":895,"Ġklub":896,"araan":897,"iala":898,"li":899,"inggi":900,"ikan":901,"tember":902,"Ġpend":903,"Ġbabak":904,"Ġsi":905,"tus":906,"ea":907,"ef":908,"pe":909,"Ġ7":910,"gram":911,"ĠSeptember":912,"Ġpemb":913,"erja":914,"ĠMan":915,"Ġ10":916,"epan":917,"lai":918,"Ġsep":919,"umat":920,"ener":921,"angka":922,"Ġdil":923,"Ġberb":924,"uruh":925,"elas":926,"Ġujar":927,"rans":928,"ĠSab":929,"Ġhad":930,"Ġi":931,"Ġma":932,"eksi":933,"ilai":934,"atkan":935,"Ġtamp":936,"Ġmeningkat":937,"ingin":938,"tiv":939,"oh":940,"wal":941,"edia":942,"Ġkh":943,"Ġmulai":944,"Ġsk":945,"Ġkemenangan":946,"Ġya":947,"Ġyakni":948,"ebut":949,"Ġberbagai":950,"Ġnegara":951,"Ġkulit":952,"isata":953,"Ġmemba":954,"nas":955,"arang":956,"gas":957,"usi":958,"Ġtinggi":959,"Ġdila":960,"Ġkons":961,"Ġselama":962,"ungkin":963,"ili":964,"Ġhal":965,"Ġgr":966,"Ġket":967,"ekn":968,"gital":969,"resi":970,"if":971,"las":972,"ĠPiala":973,"ĠKom":974,"Ġap":975,"ĠSementara":976,"aga":977,"aksi":978,"Ġbola":979,"mer":980,"baik":981,"engah":982,"Ġind":983,"ton":984,"erinta":985,"Ġmenghad":986,"ĠMinggu":987,"etak":988,"udian":989,"Ġtan":990,"Ġterj":991,"Ġterus":992,"Ġfinal":993,"eal":994,"Ġberp":995,"Ġkeb":996,"Ġterd":997,"Ġung":998,"23":999,"Ġberl":1000,"usus":1001,"Ġlaga":1002,"Ġlainnya":1003,"Ġbermain":1004,"irkan":1005,"Ġ0":1006,"ĠKemen":1007,"Ġdepan":1008,"Ġpan":1009,"Ġsamp":1010,"Ġmengh":1011,"tern":1012,"ji":1013,"Ġal":1014,"ark":1015,"engk":1016,"ilih":1017,"anda":1018,"jalan":1019,"ui":1020,"Ġmenya":1021,"ĠSen":1022,"Ġ201":1023,"itur":1024,"Ġposisi":1025,"aih":1026,"Ġ8":1027,"Ġtak":1028,"apai":1029,"Ġjuta":1030,"ten":1031,"Ġpela":1032,"est":1033,"Ġters":1034,"tahan":1035,"Ġ15":1036,"Ġair":1037,"Ġpun":1038,"pen":1039,"umah":1040,"Ġsemua":1041,"erintah":1042,"Ġpr":1043,"akhir":1044,"Ġmenggunakan":1045,"Ġmendapatkan":1046,"enal":1047,"ĠThe":1048,"uda":1049,"ĠSabtu":1050,"omi":1051,"Ġyaitu":1052,"Ġar":1053,"Ġdigital":1054,"Ġketer":1055,"ĠX":1056,"Ġtent":1057,"Ġdiper":1058,"ĠPada":1059,"ist":1060,"ard":1061,"udi":1062,"IB":1063,"Ġia":1064,"ers":1065,"Ġpengg":1066,"usia":1067,"emar":1068,"ori":1069,"hadap":1070,"me":1071,"Ġtur":1072,"Ġterhadap":1073,"ura":1074,"utri":1075,"eo":1076,"Ġac":1077,"erah":1078,"ĠGr":1079,"angun":1080,"Ġtekn":1081,"ĠKep":1082,"mp":1083,"unj":1084,"alay":1085,"ĠJumat":1086,"tar":1087,"Ġsa":1088,"ekerja":1089,"eda":1090,"Ġnamun":1091,"000":1092,"Ġdim":1093,"ihat":1094,"Ġbagian":1095,"Ġpengguna":1096,"alaysia":1097,"ersi":1098,"Ġbi":1099,"ĠKota":1100,"ĠAnd":1101,"yo":1102,"umum":1103,"ĠLa":1104,"ci":1105,"Ġempat":1106,"antu":1107,"Ġsejak":1108,"ĠDunia":1109,"iran":1110,"Ġ2022":1111,"onsel":1112,"ĠSelatan":1113,"ce":1114,"angkat":1115,"Ġanak":1116,"angi":1117,"atif":1118,"ikuti":1119,"ĠKami":1120,"wi":1121,"Ġben":1122,"tim":1123,"Ġkerja":1124,"Ġmin":1125,"Ġjadi":1126,"ki":1127,"anyak":1128,"Ġtrans":1129,"Ġluar":1130,"Ġ2024":1131,"EA":1132,"Ġdem":1133,"Ġlagi":1134,"ampu":1135,"su":1136,"aris":1137,"Ġhasil":1138,"buah":1139,"aling":1140,"upun":1141,"Ġseluruh":1142,"????":1143,"Ġantara":1144,"ff":1145,"Ġ9":1146,"Ġmampu":1147,"ĠMalaysia":1148,"raga":1149,"Ġberhasil":1150,"ustri":1151,"aian":1152,"Ġkhusus":1153,"yanan":1154,"ĠSer":1155,"tisi":1156,"ĠDalam":1157,"ĠNamun":1158,"ater":1159,"juk":1160,"Ġpenting":1161,"ilayah":1162,"Ġmeningkatkan":1163,"com":1164,"ĠAsia":1165,"Ġkese":1166,"Ġpern":1167,"Ġterbaik":1168,"Ġrumah":1169,"âĢĭ":1170,"Ġsebelumnya":1171,"Ġdilakukan":1172,"ĠAs":1173,"jumlah":1174,"Ġlima":1175,"Ġlangsung":1176,"Ġhadir":1177,"engg":1178,"lahraga":1179,"bab":1180,"upaya":1181,"Ġacara":1182,"fi":1183,"men":1184,"atang":1185,"Ġsuk":1186,"Ġkek":1187,"ĠKam":1188,"Ġawal":1189,"formasi":1190,"Ġskor":1191,"Ġtentang":1192,"ĠAd":1193,"Ġterl":1194,"ity":1195,"Ġketika":1196,"Ġpenggemar":1197,"av":1198,"hone":1199,"ĠPS":1200,"ikut":1201,"ukung":1202,"alitas":1203,"Ġsekitar":1204,"Ġkemudian":1205,"gulan":1206,"Ġstr":1207,"Ġteknologi":1208,"ho":1209,"lat":1210,"Ġ19":1211,"Ġingin":1212,"Ġdit":1213,"Ġmemen":1214,"Ġasal":1215,"annya":1216,"Ġdir":1217,"ĠIa":1218,"ihak":1219,"teri":1220,"uj":1221,"tikan":1222,"eks":1223,"Ġpenga":1224,"Ġterjadi":1225,"onomi":1226,"Ġberada":1227,"den":1228,"Ġmenamb":1229,"ambut":1230,"Ġ12":1231,"Ġmembawa":1232,"Ġponsel":1233,"ona":1234,"Ġsebuah":1235,"ĠDengan":1236,"Ġfitur":1237,"anto":1238,"Ġmusik":1239,"usahaan":1240,"af":1241,"idup":1242,"iti":1243,"masuk":1244,"Ġsaja":1245,"usat":1246,"ilis":1247,"urkan":1248,"tiap":1249,"kait":1250,"Ġem":1251,"ĠRos":1252,"atis":1253,"akin":1254,"lan":1255,"Ġdes":1256,"Ġmod":1257,"Ġdid":1258,"Ġmengg":1259,"Ġkeseh":1260,"aka":1261,"ĠSeb":1262,"ĠDir":1263,"Ġtampil":1264,"egi":1265,"let":1266,"utu":1267,"Ġmengak":1268,"oto":1269,"otensi":1270,"Ġkota":1271,"port":1272,"Ġindustri":1273,"fer":1274,"san":1275,"angga":1276,"ĠSaya":1277,"ĠMad":1278,"isasi":1279,"Ġtermasuk":1280,"omor":1281,"andang":1282,"Ġgelar":1283,"Ġmasa":1284,"ĠPersi":1285,"Ġsekali":1286,"ĠSenin":1287,"erman":1288,"Ġpol":1289,"uni":1290,"asis":1291,"ĠTer":1292,"Ġwilayah":1293,"paten":1294,"Ġkesehatan":1295,"Ġpak":1296,"Ġmemas":1297,"ĠDia":1298,"ĠOpen":1299,"likasi":1300,"ris":1301,"ves":1302,"itik":1303,"Ġpelatih":1304,"Ġeks":1305,"arna":1306,"ĠKamis":1307,"cel":1308,"Ġseri":1309,"adan":1310,"all":1311,"ĠMes":1312,"ĠMari":1313,"obil":1314,"Ġ30":1315,"abupaten":1316,"Ġsampai":1317,"Ġpekan":1318,"ĠPr":1319,"istr":1320,"Ġlok":1321,"Ġlap":1322,"Ġcepat":1323,"aik":1324,"ee":1325,"ine":1326,"Ġlanjut":1327,"Ġgim":1328,"Ġprogram":1329,"Ġmembantu":1330,"ber":1331,"bang":1332,"bor":1333,"our":1334,"enis":1335,"Ġman":1336,"Ġkas":1337,"buh":1338,"ĠWIB":1339,"dag":1340,"art":1341,"Ġbelum":1342,"udara":1343,"âĢĭâĢĭ":1344,"ĠMenurut":1345,"ggr":1346,"ham":1347,"emah":1348,"Ġdiri":1349,"aham":1350,"Ġlagu":1351,"ĠGam":1352,"encana":1353,"ggris":1354,"Ġdaya":1355,"Ġmaupun":1356,"17":1357,"Ġbulan":1358,"Ġmelawan":1359,"Ġtimnas":1360,"osial":1361,"arap":1362,"Ġof":1363,"ĠSta":1364,"Ġketi":1365,"Ġri":1366,"ĠOl":1367,"Ġmendukung":1368,"ĠiP":1369,"Ġtanpa":1370,"erta":1371,"Ġkam":1372,"Ġrek":1373,"ĠInggris":1374,"atanya":1375,"Ġjuara":1376,"ĠReal":1377,"Ġ16":1378,"faat":1379,"uas":1380,"giatan":1381,"ĠFa":1382,"unjung":1383,"ge":1384,"lo":1385,"ĠPas":1386,"ump":1387,"usaha":1388,"MK":1389,"entu":1390,"inan":1391,"ulang":1392,"ayaan":1393,"oko":1394,"aerah":1395,"ban":1396,"oba":1397,"arik":1398,"Ġpihak":1399,"ĠRo":1400,"Ġutama":1401,"ĠAnda":1402,"Ġmencapai":1403,"ulai":1404,"ĠUnit":1405,"Ġsedang":1406,"Ġangg":1407,"any":1408,"Ġbela":1409,"ĠCity":1410,"uhan":1411,"inggal":1412,"Ġharga":1413,"Ġekonomi":1414,"10":1415,"ez":1416,"lik":1417,"rid":1418,"Ġe":1419,"enam":1420,"Ġsetiap":1421,"Ġlayanan":1422,"Ġketerangan":1423,"ĠiPhone":1424,"erang":1425,"Ġbu":1426,"Ġtamb":1427,"unjuk":1428,"Ġsejumlah":1429,"ĠMas":1430,"terian":1431,"trak":1432,"Ġberharap":1433,"residen":1434,"vin":1435,"Ġkatanya":1436,"use":1437,"hi":1438,"Ġtapi":1439,"Ġolahraga":1440,"KI":1441,"ĠAgus":1442,"ikian":1443,"ĠIs":1444,"embangan":1445,"ampilan":1446,"olabor":1447,"Ġudara":1448,"Ġdol":1449,"Ġsosial":1450,"ĠPeng":1451,"orong":1452,"Ġberd":1453,"ĠNasional":1454,"atur":1455,"ĠSeri":1456,"Ġintern":1457,"Ġpenc":1458,"ĠBarat":1459,"mad":1460,"nis":1461,"Ġdata":1462,"ĠPutri":1463,"itra":1464,"ĠJerman":1465,"ĠLiv":1466,"ĠGo":1467,"aEditor":1468,"etu":1469,"Ġkur":1470,"ond":1471,"Ġsesu":1472,"Ġperlu":1473,"perasi":1474,"Ġsemakin":1475,"ĠUnited":1476,"ij":1477,"po":1478,"Ġpaling":1479,"Ġsis":1480,"ĠPT":1481,"ikat":1482,"Ġterkait":1483,"buka":1484,"ĠJep":1485,"Ġajang":1486,"angkah":1487,"tivitas":1488,"io":1489,"Ġkend":1490,"Ġdig":1491,"ĠBay":1492,"Ġsiap":1493,"sist":1494,"oleksi":1495,"Ġtetapi":1496,"ko":1497,"ateg":1498,"ukup":1499,"15":1500,"IM":1501,"anc":1502,"ĠPewarta":1503,"ĠKabupaten":1504,"usai":1505,"ideo":1506,"eter":1507,"utan":1508,"Ġmeraih":1509,"Ġpemerintah":1510,"ĠSelasa":1511,"Ġkualitas":1512,"Ġdolar":1513,"Ġim":1514,"Ġmuda":1515,"Ġkini":1516,"Ġterk":1517,"ĠDwi":1518,"Ġgrup":1519,"istrik":1520,"esi":1521,"ĠSet":1522,"Ġkegiatan":1523,"ester":1524,"alau":1525,"Ġperusahaan":1526,"ĠInter":1527,"Ġpasar":1528,"Ġdemikian":1529,"olaborasi":1530,"na":1531,"sel":1532,"Ġand":1533,"ĠRom":1534,"Ġwisata":1535,"jarah":1536,"EAN":1537,"nam":1538,"Ġst":1539,"Ġtengah":1540,"ĠAh":1541,"ĠRabu":1542,"rab":1543,"Ġmencetak":1544,"ranc":1545,"ibat":1546,"Ġberlangsung":1547,"dagangan":1548,"agi":1549,"cap":1550,"Ġsend":1551,"Ġbukan":1552,"Ġdih":1553,"ĠIni":1554,"Ġlama":1555,"ĠHal":1556,"Ġkond":1557,"panjang":1558,"bung":1559,"Ġgel":1560,"ampak":1561,"Ġcukup":1562,"Ġwarga":1563,"Ġmenyebut":1564,"ĠKementerian":1565,"useum":1566,"Ġmudah":1567,"Ġmungkin":1568,"lami":1569,"Ġtu":1570,"Ġbertem":1571,"uki":1572,"Ġpeluang":1573,"Ġkasus":1574,"vinsi":1575,"wang":1576,"ĠPel":1577,"uli":1578,"Ġbantu":1579,"Ġupaya":1580,"inasi":1581,"Ġtingkat":1582,"Ġterakhir":1583,"ĠJaya":1584,"bagi":1585,"udaya":1586,"Ġwarna":1587,"antan":1588,"Ġproses":1589,"Ġantar":1590,"Ġketiga":1591,"atas":1592,"laman":1593,"iket":1594,"ĠMilan":1595,"Ġmemp":1596,"ĠDes":1597,"Ġvideo":1598,"ports":1599,"Ġkamera":1600,"ĠJepang":1601,"ions":1602,"ple":1603,"Ġsementara":1604,"ĠItal":1605,"ĠRI":1606,"idang":1607,"ropa":1608,"Ġmenjalan":1609,"uncurkan":1610,"ĠMaria":1611,"ĠQ":1612,"Ġbak":1613,"Ġpermain":1614,"Ġlistrik":1615,"anding":1616,"kuat":1617,"Ġmengalami":1618,"ĠDirek":1619,"ĠGames":1620,"lob":1621,"Ġmener":1622,"ĠMer":1623,"Ġjalan":1624,"ation":1625,"Ġsebesar":1626,"ĠMenteri":1627,"ĠUntuk":1628,"latform":1629,"ĠAgustus":1630,"ano":1631,"ĠSem":1632,"Ġberju":1633,"ĠDKI":1634,"Ġmengen":1635,"idikan":1636,"embang":1637,"ĠEropa":1638,"Ġkontrak":1639,"ingkungan":1640,"ode":1641,"19":1642,"lim":1643,"eran":1644,"uman":1645,"ĠJa":1646,"ulu":1647,"Ġnomor":1648,"ewat":1649,"enda":1650,"Ġsempat":1651,"Ġkomp":1652,"Ġmenghadirkan":1653,"Ġpernah":1654,"Ġmenambahkan":1655,"Ġtuju":1656,"tua":1657,"ĠSt":1658,"eli":1659,"ĠKal":1660,"ĠKor":1661,"Ġperangkat":1662,"ĠHa":1663,"Ġkeluar":1664,"jalanan":1665,"lobal":1666,"12":1667,"co":1668,"Ġob":1669,"ank":1670,"Ġterp":1671,"umen":1672,"Ġ14":1673,"anjutnya":1674,"to":1675,"Ġmalam":1676,"Ġpuk":1677,"Ġkaw":1678,"orm":1679,"ĠMet":1680,"Ġnaik":1681,"Ġsebanyak":1682,"awat":1683,"ĠStadi":1684,"unjukkan":1685,"ne":1686,"inj":1687,"ĠUS":1688,"ĠUni":1689,"etah":1690,"Ġterbaru":1691,"fo":1692,"Ġput":1693,"lay":1694,"aki":1695,"Ġbekerja":1696,"Ġtepat":1697,"ĠPresiden":1698,"ĠMe":1699,"ĠKong":1700,"ukungan":1701,"terima":1702,"Ġnilai":1703,"Ġjika":1704,"chester":1705,"Ġmencat":1706,"iliun":1707,"Ġkendaraan":1708,"ĠItalia":1709,"Ġpotensi":1710,"Ġsisi":1711,"ĠSin":1712,"ĠAt":1713,"Ġlawan":1714,"Ġnasional":1715,"alahan":1716,"Ġmasuk":1717,"Ġgawang":1718,"Ġselalu":1719,"iliar":1720,"Ġaplikasi":1721,"Ġkondisi":1722,"Ġpermainan":1723,"Ġenam":1724,"Ġdigunakan":1725,"itmen":1726,"Ġrambut":1727,"Ġlaman":1728,"opi":1729,"otal":1730,"Ġproduksi":1731,"ĠManchester":1732,"dul":1733,"uc":1734,"Ġusai":1735,"arat":1736,"ord":1737,"Ġperjalanan":1738,"unggulan":1739,"elaskan":1740,"kom":1741,"ny":1742,"arg":1743,"Ġmiliar":1744,"ate":1745,"tam":1746,"ĠAri":1747,"Ġbersi":1748,"urun":1749,"Ġlewat":1750,"edi":1751,"Ġ13":1752,"Ġpelangg":1753,"ĠTimur":1754,"Ġpengalaman":1755,"ĠRosari":1756,"ĠMadrid":1757,"utus":1758,"Ġmana":1759,"Ġmobil":1760,"Ġbudaya":1761,"sian":1762,"ema":1763,"unt":1764,"ĠKar":1765,"ĠRed":1766,"engkapi":1767,"umumkan":1768,"AS":1769,"jemah":1770,"Ġtempat":1771,"Ġseg":1772,"Ġperc":1773,"Ġperd":1774,"Ġ21":1775,"ĠChamp":1776,"ĠASEAN":1777,"Ġsendiri":1778,"ich":1779,"lam":1780,"tuhan":1781,"ĠSam":1782,"ĠAir":1783,"Ġmemang":1784,"Ġ18":1785,"ĠEn":1786,"Ġpengh":1787,"ober":1788,"Ġsektor":1789,"evel":1790,"petisi":1791,"ifinal":1792,"ĠPSG":1793,"Ġmemenangkan":1794,"ĠBayern":1795,"rad":1796,"Ġmenarik":1797,"Ġsejarah":1798,"ill":1799,"ĠChampions":1800,"99":1801,"NI":1802,"ebab":1803,"Ġmes":1804,"Ġplatform":1805,"info":1806,"gabung":1807,"ĠHong":1808,"Ġcara":1809,"Ġmenjelaskan":1810,"okus":1811,"pany":1812,"vestasi":1813,"Ġdigelar":1814,"Ġpukul":1815,"Ġapa":1816,"atar":1817,"Ġkoleksi":1818,"Ġtiket":1819,"emi":1820,"ĠPusat":1821,"Ġjumlah":1822,"oli":1823,"ĠRam":1824,"Ġpenampilan":1825,"Ġsemifinal":1826,"lasemen":1827,"Ġsukses":1828,"Ġanggota":1829,"ĠJawa":1830,"uf":1831,"zz":1832,"Ġum":1833,"anta":1834,"Ġdaerah":1835,"Ġdukungan":1836,"Ġmedia":1837,"Ġklasemen":1838,"sir":1839,"Ġmenunjukkan":1840,"alu":1841,"ĠAk":1842,"ĠBr":1843,"ĠBel":1844,"Ġperdagangan":1845,"ĠJan":1846,"Ġ11":1847,"Ġmenjaga":1848,"ubah":1849,"celona":1850,"PO":1851,"min":1852,"wah":1853,"Ġid":1854,"ĠSur":1855,"ĠSaat":1856,"juaraan":1857,"Ġkeunggulan":1858,"ĠMa":1859,"ilkan":1860,"bum":1861,"Ġ25":1862,"uka":1863,"andung":1864,"uhi":1865,"ubahan":1866,"Ġsetempat":1867,"ĠApple":1868,"Ġbiasa":1869,"fir":1870,"gul":1871,"iper":1872,"Ġop":1873,"Ġdin":1874,"Ġkal":1875,"Ġmenang":1876,"elang":1877,"ĠLe":1878,"Ġ17":1879,"Ġag":1880,"ips":1881,"empatan":1882,"ilihan":1883,"ujan":1884,"Ġemas":1885,"Ġsekaligus":1886,"faatkan":1887,"Ġbantuan":1888,"tan":1889,"Ġmenurut":1890,"ĠSo":1891,"ass":1892,"Ġkeh":1893,"ilang":1894,"Ġgame":1895,"Ġpeserta":1896,"Ġribu":1897,"ĠSetelah":1898,"Ġdr":1899,"Ġdar":1900,"Ġtotal":1901,"onel":1902,"Ġhujan":1903,"ekat":1904,"Ġjam":1905,"otor":1906,"anggung":1907,"Ġpelaku":1908,"ht":1909,"yat":1910,"Ġdew":1911,"ono":1912,"buhan":1913,"baya":1914,"ĠNur":1915,"ĠUm":1916,"ingkatan":1917,"2023":1918,"impin":1919,"risti":1920,"Ġinternasional":1921,"fikasi":1922,"ug":1923,"ans":1924,"Ġmew":1925,"ĠAmer":1926,"ĠBe":1927,"Ġlayar":1928,"uper":1929,"ublik":1930,"uncak":1931,"ĠKetua":1932,"Ġbelak":1933,"ĠAmerika":1934,"enar":1935,"ator":1936,"Ġsur":1937,"asarkan":1938,"Ġperk":1939,"ĠTan":1940,"Ġbawah":1941,"Ġjelas":1942,"ayang":1943,"ĠYo":1944,"ĠBarcelona":1945,"Ġakhirnya":1946,"Ġsepak":1947,"aksim":1948,"16":1949,"ks":1950,"ket":1951,"versi":1952,"Ġsitu":1953,"Ġken":1954,"eles":1955,"jualan":1956,"ĠNov":1957,"egara":1958,"Ġakses":1959,"Ġmelihat":1960,"aterai":1961,"Ġsesuai":1962,"21":1963,"eam":1964,"fa":1965,"Ġis":1966,"Ġef":1967,"tah":1968,"Ġhidup":1969,"Ġ200":1970,"ĠLi":1971,"epatan":1972,"Ġbisnis":1973,"Ġtimnya":1974,"Ġmenghadapi":1975,"ĠKepala":1976,"Ġkhususnya":1977,"Ġkawasan":1978,"Pener":1979,"sta":1980,"Ġmed":1981,"Ġpri":1982,"ats":1983,"Ġsini":1984,"Ġkaki":1985,"aks":1986,"gam":1987,"Ġsepat":1988,"ĠAsian":1989,"Ġberm":1990,"ĠTur":1991,"uler":1992,"Ġglobal":1993,"upa":1994,"Ġch":1995,"Ġmasalah":1996,"Ġ50":1997,"asiswa":1998,"ĠKorea":1999,"ĠStadion":2000,"Penerjemah":2001,"PR":2002,"ger":2003,"sp":2004,"wit":2005,"xy":2006,"Ġkopi":2007,"Ġtend":2008,"alik":2009,"Ġberla":2010,"Ġkebu":2011,"tion":2012,"Ġhuk":2013,"ĠRa":2014,"ĠJadi":2015,"Ġkuat":2016,"ĠSebelum":2017,"namen":2018,"rancis":2019,"ĠDirektur":2020,"Ġsepatu":2021,"arEditor":2022,"Ġmah":2023,"atunya":2024,"Ġkor":2025,"tuju":2026,"ĠSat":2027,"ĠPO":2028,"ish":2029,"ĠKem":2030,"umber":2031,"Ġgener":2032,"ĠEd":2033,"yakit":2034,"Ġucap":2035,"Ġpanas":2036,"Ġmenyamp":2037,"ĠMetro":2038,"Ġbelakang":2039,"takan":2040,"Ġik":2041,"tum":2042,"alkan":2043,"ĠAc":2044,"apun":2045,"ulis":2046,"iaya":2047,"ĠGala":2048,"ĠAng":2049,"mbil":2050,"ĠPemerintah":2051,"Ġberbeda":2052,"Ġbertemu":2053,"panyol":2054,"Ġtendangan":2055,"erd":2056,"inc":2057,"ĠMuseum":2058,"ĠKed":2059,"Ġperubahan":2060,"elapan":2061,"Ġlingkungan":2062,"omp":2063,"epak":2064,"ĠFilm":2065,"Ġkonten":2066,"ovic":2067,"ĠShop":2068,"ĠPolda":2069,"Ġtriliun":2070,"Ġterdapat":2071,"te":2072,"tra":2073,"Ġel":2074,"Ġso":2075,"ĠSa":2076,"ĠKan":2077,"Ġ24":2078,"Ġpeningkatan":2079,"Ġjar":2080,"ender":2081,"ĠOk":2082,"Ġdibanding":2083,"pesi":2084,"ategori":2085,"ĠGalaxy":2086,"PU":2087,"Ġes":2088,"arl":2089,"intas":2090,"onton":2091,"ĠSal":2092,"ĠPrancis":2093,"Ġbagus":2094,"Ġfokus":2095,"ĠUtara":2096,"Ġmendorong":2097,"Ġalbum":2098,"Ġsistem":2099,"Ġsegera":2100,"CO":2101,"oc":2102,"sama":2103,"atangan":2104,"Ġsu":2105,"Ġbaterai":2106,"Ġinf":2107,"ĠProvinsi":2108,"ĠSeries":2109,"ey":2110,"ve":2111,"Ġditerima":2112,"Ġmenamp":2113,"ikm":2114,"olos":2115,"ĠTidak":2116,"Ġmembuka":2117,"angunan":2118,"ĠUmum":2119,"hon":2120,"Ġed":2121,"Ġsaham":2122,"elu":2123,"Ġberusia":2124,"usta":2125,"tip":2126,"old":2127,"Ġlangkah":2128,"isian":2129,"Ġgaya":2130,"Ġtersedia":2131,"Ġdesain":2132,"utup":2133,"Ġmengaku":2134,"Ġmemastikan":2135,"Ġlokasi":2136,"Ġdewasa":2137,"Ġmat":2138,"Ġkalah":2139,"Ġkolaborasi":2140,"Ġkategori":2141,"Ġtangan":2142,"unga":2143,"ĠArab":2144,"Ġbertahan":2145,"Ġlapor":2146,"Ġadanya":2147,"Ġkompetisi":2148,"Ġkesempatan":2149,"Ġmenyampaikan":2150,"BA":2151,"ca":2152,"Ġon":2153,"Ġmul":2154,"ĠBo":2155,"ĠBali":2156,"Ġmeman":2157,"Ġlem":2158,"irim":2159,"ĠHar":2160,"Ġmengambil":2161,"masing":2162,"intang":2163,"Ġkonser":2164,"Ġrekor":2165,"Ġtambah":2166,"gan":2167,"kap":2168,"line":2169,"tober":2170,"Ġperm":2171,"ĠTh":2172,"ĠTah":2173,"Ġinformasi":2174,"ach":2175,"Ġro":2176,"Ġnanti":2177,"Ġja":2178,"Ġterbesar":2179,"Ġsenang":2180,"ujud":2181,"Ġturun":2182,"Ġbentuk":2183,"MKM":2184,"Ġmenjalani":2185,"ĠOktober":2186,"GB":2187,"lus":2188,"utama":2189,"Ġkasih":2190,"ĠSed":2191,"ĠSpanyol":2192,"ĠPB":2193,"Ġperingkat":2194,"ĠRus":2195,"Ġraih":2196,"Ġpenjualan":2197,"ewa":2198,"Ġakibat":2199,"forma":2200,"Ġminyak":2201,"do":2202,"egas":2203,"pasi":2204,"uanya":2205,"Ġalam":2206,"Ġmakan":2207,"Ġpet":2208,"ade":2209,"ĠSek":2210,"oro":2211,"ĠDari":2212,"Ġrilis":2213,"Ġpener":2214,"Ġgun":2215,"ampuan":2216,"Ġfes":2217,"Ġmasing":2218,"iptakan":2219,"ĠGrand":2220,"Ġantaranya":2221,"kominfo":2222,"iy":2223,"pura":2224,"aro":2225,"Ġbidang":2226,"Ġtro":2227,"Ġsepanjang":2228,"Ġbergabung":2229,"engar":2230,"arian":2231,"Ġinov":2232,"ĠEs":2233,"tral":2234,"Ġmemperk":2235,"tinggi":2236,"merce":2237,"Ġturnamen":2238,"urabaya":2239,"egitu":2240,"ĠMereka":2241,"Ġumpan":2242,"24":2243,"SI":2244,"ky":2245,"top":2246,"yan":2247,"yata":2248,"Ġmaka":2249,"atus":2250,"ĠParis":2251,"ess":2252,"imb":2253,"ĠJuli":2254,"Ġpenuh":2255,"Ġwaj":2256,"ĠWor":2257,"ubungan":2258,"Ġusia":2259,"Ġbahkan":2260,"Ġkemampuan":2261,"Ġatlet":2262,"Ġsedangkan":2263,"Ġpositif":2264,"Ġdirinya":2265,"Ġtujuh":2266,"ID":2267,"ling":2268,"ment":2269,"rasi":2270,"uangan":2271,"Ġpekerja":2272,"Ġkr":2273,"Ġbek":2274,"Ġdic":2275,"Ġdiku":2276,"alis":2277,"ont":2278,"ĠSw":2279,"Ġterc":2280,"Ġterutama":2281,"ilu":2282,"Ġlevel":2283,"ĠRes":2284,"Ġmengikuti":2285,"truk":2286,"Ġtahu":2287,"Ġmendatang":2288,"Ġsekarang":2289,"Ġpendidikan":2290,"Ġkurang":2291,"Ġbersih":2292,"hari":2293,"yi":2294,"Ġot":2295,"Ġumum":2296,"enti":2297,"Ġdelapan":2298,"Ġkiper":2299,"Ġmenuju":2300,"tamb":2301,"Ġseorang":2302,"ĠBen":2303,"Ġkebak":2304,"ĠMed":2305,"Ġmengungk":2306,"epas":2307,"raf":2308,"abis":2309,"Ġpengembangan":2310,"Ġaku":2311,"Ġpop":2312,"awan":2313,"Ġpanjang":2314,"ĠGrup":2315,"Ġmencatatkan":2316,"Ġkebutuhan":2317,"Ġlaporan":2318,"Ġkebakaran":2319,"hkan":2320,"ld":2321,"pada":2322,"qu":2323,"Ġdebut":2324,"Ġminggu":2325,"Ġpor":2326,"anggal":2327,"sis":2328,"Ġlolos":2329,"ire":2330,"ĠJuni":2331,"roduk":2332,"ĠNew":2333,"rick":2334,"Ġnama":2335,"endah":2336,"gue":2337,"Ġbahan":2338,"Ġkomun":2339,"agam":2340,"ĠPelatih":2341,"Ġpelanggan":2342,"Ġperdana":2343,"Ġmahasiswa":2344,"Ġgenerasi":2345,"tumbuhan":2346,"ĠSaudi":2347,"ĠTahun":2348,"14":2349,"dang":2350,"ual":2351,"yanto":2352,"Ġpar":2353,"ĠSalah":2354,"ĠSain":2355,"ĠSiti":2356,"ĠSurabaya":2357,"ĠAb":2358,"iksa":2359,"isal":2360,"Ġ22":2361,"imana":2362,"etik":2363,"ĠFC":2364,"okter":2365,"Ġdesa":2366,"Ġlapangan":2367,"ĠSinga":2368,"Ġmenampilkan":2369,"Ġmemanfaatkan":2370,"luk":2371,"ero":2372,"tup":2373,"ĠSant":2374,"ĠBudi":2375,"ore":2376,"ĠMuh":2377,"ĠKel":2378,"Ġpenyakit":2379,"ĠUMKM":2380,"Ġjenis":2381,"engkap":2382,"enalkan":2383,"Ġpolitik":2384,"Ġmengenai":2385,"etahui":2386,"ĠSebelumnya":2387,"MI":2388,"kar":2389,"wisata":2390,"Ġpuncak":2391,"Ġsang":2392,"Ġkap":2393,"Ġbur":2394,"Ġdisi":2395,"elan":2396,"Ġbert":2397,"Ġberjalan":2398,"ĠKu":2399,"ĠKes":2400,"Ġperforma":2401,"irakan":2402,"Ġmengur":2403,"Ġ2021":2404,"Ġujarnya":2405,"tival":2406,"ĠSerikat":2407,"hou":2408,"ĠDesa":2409,"witter":2410,"ikmati":2411,"Ġjauh":2412,"Ġusaha":2413,"anak":2414,"Ġdekat":2415,"arin":2416,"Ġmaksim":2417,"atangkan":2418,"Ġdij":2419,"tudi":2420,"ĠSp":2421,"ĠAus":2422,"ĠIr":2423,"olusi":2424,"Ġrasa":2425,"ebar":2426,"embangkan":2427,"angkaian":2428,"Ġuji":2429,"Ġdilengkapi":2430,"Ġunggul":2431,"Ġungkap":2432,"????????":2433,"Ġbakal":2434,"arget":2435,"ĠSedangkan":2436,"13":2437,"ES":2438,"Kami":2439,"olah":2440,"Ġsta":2441,"Ġtanggal":2442,"yas":2443,"ĠSuper":2444,"Ġkelas":2445,"ĠKon":2446,"Ġmengu":2447,"ĠCo":2448,"omo":2449,"Ġmerasa":2450,"Ġcat":2451,"ĠErick":2452,"Ġpersonel":2453,"ight":2454,"Ġseni":2455,"arning":2456,"Ġpenggunaan":2457,"Ġunggulan":2458,"Ġbenar":2459,"Ġtrofi":2460,"PS":2461,"ry":2462,"Ġulang":2463,"Ġdatang":2464,"Ġpilihan":2465,"Ġspesi":2466,"Ġkan":2467,"Ġkalau":2468,"Ġband":2469,"Ġditem":2470,"Ġbern":2471,"buat":2472,"ĠII":2473,"ĠDan":2474,"ĠJun":2475,"ack":2476,"ampung":2477,"ubung":2478,"iburan":2479,"temuan":2480,"ĠTimnas":2481,"ĠPOCO":2482,"AM":2483,"iz":2484,"kip":2485,"enang":2486,"are":2487,"arapkan":2488,"Ġsatunya":2489,"Ġbiaya":2490,"Ġdiikuti":2491,"ĠMat":2492,"ilitas":2493,"ariwisata":2494,"iter":2495,"Ġ2020":2496,"luck":2497,"Ġfoto":2498,"Ġmenciptakan":2499,"Ġhukum":2500,"Ġdikutip":2501,"kipun":2502,"Pluck":2503,"dy":2504,"tyas":2505,"ven":2506,"Ġsulit":2507,"angsa":2508,"Ġtuan":2509,"Ġturut":2510,"asar":2511,"ĠPL":2512,"ĠPal":2513,"jual":2514,"Ġberat":2515,"ĠDj":2516,"ĠTong":2517,"Ġinvestasi":2518,"âĢĻ":2519,"ĠWak":2520,"antor":2521,"lahkan":2522,"Ġgagal":2523,"Ġkeras":2524,"Ġkonsumen":2525,"Ġdimulai":2526,"Ġtransfer":2527,"enggara":2528,"Ġlokal":2529,"ijakan":2530,"ĠWorld":2531,"ĠSingapura":2532,"ĠSantos":2533,"30":2534,"PB":2535,"baru":2536,"kr":2537,"tin":2538,"yek":2539,"eno":2540,"iner":2541,"Ġkari":2542,"Ġbuk":2543,"Ġbunga":2544,"Ġbegitu":2545,"amatan":2546,"ĠSu":2547,"ĠBandung":2548,"ikit":2549,"esan":2550,"ĠNot":2551,"Ġced":2552,"Ġmembangun":2553,"Ġmenyatakan":2554,"Ġberkat":2555,"antikan":2556,"ĠApri":2557,"Ġtampilan":2558,"ungkinkan":2559,"ĠAdapun":2560,"atisha":2561,"ĠSamsung":2562,"ĠTanah":2563,"Ġtitik":2564,"Ġtulis":2565,"gahan":2566,"alti":2567,"ĠSya":2568,"asanya":2569,"ĠBadan":2570,"ĠMeng":2571,"Ġpertumbuhan":2572,"Ġterla":2573,"Ġmeminta":2574,"Ġmemungkinkan":2575,"ith":2576,"ĠTrans":2577,"ĠNatisha":2578,"ĠEv":2579,"ĠEx":2580,"Ġkarya":2581,"ĠVal":2582,"Ġnegeri":2583,"Ġdiberi":2584,"Ġsedikit":2585,"argaan":2586,"impi":2587,"ĠAndarning":2588,"Ġmenerima":2589,"ĠMuham":2590,"ĠAndarningtyas":2591,"11":2592,"Ġala":2593,"anita":2594,"erita":2595,"Ġpunya":2596,"atik":2597,"lasi":2598,"Ġmenem":2599,"adia":2600,"asakan":2601,"Ġdana":2602,"jukan":2603,"Ġkeku":2604,"Ġpersi":2605,"Ġmemulai":2606,"Ġint":2607,"idik":2608,"ĠIntern":2609,"Ġmerek":2610,"ĠEka":2611,"Ġakun":2612,"Ġaktivitas":2613,"ongan":2614,"awatan":2615,"asaan":2616,"Ġmengalahkan":2617,"Ġmemperkuat":2618,"anjutan":2619,"ĠPemain":2620,"Ġputra":2621,"18":2622,"GA":2623,"th":2624,"ench":2625,"ĠSim":2626,"ĠAI":2627,"Ġtertinggi":2628,"elaj":2629,"Ġmengumumkan":2630,"Ġruang":2631,"ayakan":2632,"Ġberkom":2633,"ĠArn":2634,"osis":2635,"ĠPolri":2636,"Ġterlihat":2637,"ĠShopee":2638,"Ġmengungkapkan":2639,"bo":2640,"bon":2641,"mat":2642,"tis":2643,"akit":2644,"Ġtemb":2645,"ĠSan":2646,"Ġsesi":2647,"ĠPlay":2648,"ĠBesar":2649,"ĠLA":2650,"Ġpenalti":2651,"ĠPers":2652,"entina":2653,"dukung":2654,"anjutkan":2655,"atihan":2656,"ĠKomun":2657,"Ġmenyam":2658,"Ġtersangka":2659,"Ġpakaian":2660,"ĠMessi":2661,"Ġkalinya":2662,"Ġdibandingkan":2663,"Ġmengurangi":2664,"Ġcedera":2665,"ps":2666,"ret":2667,"uari":2668,"Ġikut":2669,"Ġpetu":2670,"Ġpagi":2671,"Ġkre":2672,"Ġbala":2673,"Ġdihad":2674,"elola":2675,"ĠBas":2676,"ĠBank":2677,"ikha":2678,"isa":2679,"ĠKT":2680,"Ġperawatan":2681,"Ġterh":2682,"ĠJon":2683,"ĠJung":2684,"Ġcom":2685,"kuad":2686,"Ġberkembang":2687,"uncul":2688,"Ġkomitmen":2689,"ivo":2690,"ĠPeny":2691,"ĠPolisi":2692,"anyi":2693,"ei":2694,"ega":2695,"ksan":2696,"Ġor":2697,"Ġputri":2698,"Ġpusat":2699,"ino":2700,"inar":2701,"Ġmenilai":2702,"amu":2703,"Ġberita":2704,"roid":2705,"rag":2706,"awarkan":2707,"Ġgamb":2708,"ambil":2709,"ulaikha":2710,"ĠZha":2711,"ĠZulaikha":2712,"uncuran":2713,"Ġgratis":2714,"bagian":2715,"Ġpercaya":2716,"Ġpenghargaan":2717,"Ġdaring":2718,"ĠEsports":2719,"ksanakan":2720,"22":2721,"50":2722,"jir":2723,"yen":2724,"ansir":2725,"ĠSn":2726,"ĠMu":2727,"Ġperi":2728,"uru":2729,"Ġhak":2730,"Ġhubungan":2731,"bul":2732,"ĠDr":2733,"ĠRonal":2734,"ĠCon":2735,"ĠGen":2736,"edung":2737,"Ġ100":2738,"lukan":2739,"luas":2740,"ĠHer":2741,"alifikasi":2742,"egang":2743,"ulasi":2744,"Ġassist":2745,"Ġdikenal":2746,"Ġsehari":2747,"Ġpesan":2748,"ĠUniversi":2749,"LI":2750,"MN":2751,"MP":2752,"TS":2753,"hya":2754,"jen":2755,"pek":2756,"zig":2757,"Ġangka":2758,"Ġsemb":2759,"Ġti":2760,"ĠAdi":2761,"ĠMela":2762,"ĠKec":2763,"Ġpertemuan":2764,"uro":2765,"Ġlintas":2766,"ĠJika":2767,"Ġrendah":2768,"Ġlahan":2769,"artai":2770,"uduk":2771,"ĠFed":2772,"ĠEl":2773,"Ġprof":2774,"Ġmenyebab":2775,"enaga":2776,"ipzig":2777,"Ġkekalahan":2778,"Ġmodel":2779,"Ġkeluarga":2780,"ĠNovember":2781,"stagram":2782,"ompok":2783,"Ġterlalu":2784,"Ġmenyebabkan":2785,"hut":2786,"lok":2787,"ys":2788,"zio":2789,"Ġmom":2790,"Ġsaling":2791,"aku":2792,"tuhkan":2793,"ork":2794,"bud":2795,"Ġ23":2796,"Ġlatihan":2797,"ĠRO":2798,"ĠTengah":2799,"ĠJu":2800,"andia":2801,"Ġfak":2802,"abarkan":2803,"icara":2804,"Ġselanjutnya":2805,"Ġpenyel":2806,"ĠKejuaraan":2807,"ĠBerikut":2808,"intar":2809,"tahankan":2810,"istik":2811,"tisipasi":2812,"Ġmemenuhi":2813,"Ġmenambah":2814,"Ġpolusi":2815,"Ġtubuh":2816,"ĠHae":2817,"Ġoptim":2818,"Ġdrama":2819,"elesaikan":2820,"Ġperiode":2821,"AK":2822,"badi":2823,"mpa":2824,"Ġdini":2825,"Ġmata":2826,"Ġmantan":2827,"Ġtab":2828,"Ġsebut":2829,"ikir":2830,"ĠKh":2831,"ĠDu":2832,"impan":2833,"ĠRah":2834,"idhya":2835,"ĠLebih":2836,"ĠLea":2837,"ĠNBA":2838,"ĠIndra":2839,"okoh":2840,"abat":2841,"antara":2842,"isiko":2843,"ubern":2844,"Ġwakil":2845,"ogle":2846,"Ġdilansir":2847,"âĢĭâĢĭâĢĭâĢĭ":2848,"firaEditor":2849,"Ġkorban":2850,"ujudkan":2851,"Ġfesyen":2852,"Ġinovasi":2853,"ĠArnidhya":2854,"ĠZhafiraEditor":2855,"ubernur":2856,"EO":2857,"go":2858,"mart":2859,"oot":2860,"qiy":2861,"rom":2862,"Ġmil":2863,"Ġmeter":2864,"Ġpintar":2865,"atch":2866,"Ġka":2867,"Ġtip":2868,"Ġmeninggal":2869,"adah":2870,"ĠSul":2871,"jur":2872,"oritas":2873,"ĠMem":2874,"ĠMal":2875,"ĠDua":2876,"ĠCom":2877,"ukuran":2878,"ampir":2879,"Ġbaga":2880,"Ġproyek":2881,"tandar":2882,"ĠSelanjutnya":2883,"Ġkecil":2884,"Ġkebijakan":2885,"unjungan":2886,"Ġsuku":2887,"ferensi":2888,"ĠPasal":2889,"ĠGoogle":2890,"ĠArifa":2891,"ediakan":2892,"zza":2893,"ĠLeipzig":2894,"Ġefek":2895,"ĠRusqiy":2896,"Ġmaksimal":2897,"ĠRusqiyati":2898,"None":2899,"dani":2900,"ead":2901,"jangan":2902,"lis":2903,"rik":2904,"Ġaman":2905,"erpo":2906,"Ġmarat":2907,"Ġmuncul":2908,"atian":2909,"Ġbar":2910,"Ġmenawarkan":2911,"alur":2912,"ĠSum":2913,"ĠSuh":2914,"ĠSIM":2915,"ast":2916,"ĠPemb":2917,"eluruh":2918,"Ġperan":2919,"tic":2920,"ĠTel":2921,"Ġrekan":2922,"Ġger":2923,"ĠHarga":2924,"peran":2925,"abar":2926,"ainkan":2927,"Ġbanjir":2928,"Ġpeluncuran":2929,"turut":2930,"Ġtren":2931,"Ġterdiri":2932,"istan":2933,"cial":2934,"ĠMeski":2935,"Ġbuat":2936,"Ġonline":2937,"tambah":2938,"ĠWakil":2939,"Ġkekuatan":2940,"erpool":2941,"In":2942,"kon":2943,"lip":2944,"sh":2945,"Ġ&":2946,"Ġbintang":2947,"Ġtem":2948,"Ġtum":2949,"Ġthe":2950,"Ġmenurun":2951,"ĠPor":2952,"ĠPep":2953,"ĠBul":2954,"oreh":2955,"ĠMah":2956,"ĠMana":2957,"Ġperh":2958,"ite":2959,"busi":2960,"ĠDin":2961,"ĠDep":2962,"Ġlini":2963,"Ġluas":2964,"ĠNus":2965,"ĠHand":2966,"ĠFIB":2967,"ĠUs":2968,"eguh":2969,"ĠOP":2970,"ational":2971,"Ġmeluncurkan":2972,"Ġoperasi":2973,"Ġdikabarkan":2974,"Ġ40":2975,"Ġ2019":2976,"Ġpakai":2977,"Ġdiharapkan":2978,"ĠSuryanto":2979,"eaming":2980,"ĠPLN":2981,"ĠFIBA":2982,"jek":2983,"lin":2984,"par":2985,"laim":2986,"akter":2987,"Ġtel":2988,"Ġmenikmati":2989,"adwal":2990,"ĠSus":2991,"ĠStr":2992,"aspada":2993,"ĠAda":2994,"Ġberubah":2995,"apres":2996,"elam":2997,"ĠItu":2998,"olan":2999,"arai":3000,"ĠJam":3001,"Ġrencana":3002,"ĠGubernur":3003,"ebat":3004,"ice":3005,"Ġsiaran":3006,"Ġsepeda":3007,"Ġlaptop":3008,"unjungi":3009,"Ġtambahan":3010,"ĠLiverpool":3011,"Ġmenyebutkan":3012,"Ġsurat":3013,"ragon":3014,"Ġbagaimana":3015,"CL":3016,"bia":3017,"dian":3018,"gen":3019,"ner":3020,"ras":3021,"tik":3022,"Ġz":3023,"Ġera":3024,"Ġpasi":3025,"Ġsumber":3026,"Ġditu":3027,"asaran":3028,"ĠPam":3029,"else":3030,"Ġberikut":3031,"Ġberusaha":3032,"Ġberagam":3033,"ĠMo":3034,"ĠMon":3035,"ĠIl":3036,"Ġleg":3037,"ĠRusia":3038,"ĠTeguh":3039,"Ġreg":3040,"Ġrangkaian":3041,"Ġkarakter":3042,"empuan":3043,"Ġkecepatan":3044,"Ġpembangunan":3045,"resiasi":3046,"Ġtanah":3047,"ĠRoma":3048,"enarnya":3049,"ĠJonatan":3050,"ĠRonaldo":3051,"elsea":3052,"dus":3053,"egah":3054,"les":3055,"oga":3056,"Ġpand":3057,"aturan":3058,"Ġkusta":3059,"Ġbarang":3060,"unan":3061,"Ġdibuka":3062,"ase":3063,"Ġberupa":3064,"ĠMin":3065,"apd":3066,"Ġtertu":3067,"usul":3068,"illa":3069,"Ġ26":3070,"oma":3071,"ĠHasil":3072,"rafi":3073,"abel":3074,"egan":3075,"angkap":3076,"Ġmenyi":3077,"asilkan":3078,"ibatkan":3079,"porkan":3080,"ĠSho":3081,"Ġmau":3082,"Ġgelandang":3083,"ESF":3084,"Ġcatatan":3085,"ĠSnapd":3086,"BRI":3087,"DM":3088,"IC":3089,"airan":3090,"de":3091,"gung":3092,"mar":3093,"ning":3094,"rah":3095,"Ġmotor":3096,"Ġped":3097,"Ġsal":3098,"akai":3099,"akyat":3100,"Ġtentu":3101,"alen":3102,"elanjutan":3103,"ĠMel":3104,"ĠMul":3105,"ĠKeb":3106,"ĠKons":3107,"Ġperempat":3108,"ĠIm":3109,"ĠTi":3110,"Ġmenging":3111,"ombang":3112,"ĠInf":3113,"ĠGol":3114,"okovic":3115,"Ġjalur":3116,"Ġwanita":3117,"pati":3118,"Ġkonsist":3119,"osok":3120,"cher":3121,"ĠChelsea":3122,"Ġmelanjutkan":3123,"Ġkepala":3124,"tanding":3125,"Ġdikon":3126,"Ġsehat":3127,"ĠArg":3128,"ĠArs":3129,"amanan":3130,"aniel":3131,"Ġbebas":3132,"Ġstreaming":3133,"Ġsituasi":3134,"enderal":3135,"Ġpekerjaan":3136,"Ġdiberikan":3137,"Ġpersiapan":3138,"ĠDinas":3139,"ĠSnapdragon":3140,"CT":3141,"FA":3142,"FP":3143,"az":3144,"lor":3145,"masi":3146,"war":3147,"Ġpanggung":3148,"Ġkunjungan":3149,"Ġbr":3150,"Ġbus":3151,"ĠSon":3152,"estival":3153,"urah":3154,"Ġmemainkan":3155,"ĠIESF":3156,"unggu":3157,"Ġmengembangkan":3158,"ide":3159,"ĠLuk":3160,"ĠLalu":3161,"etika":3162,"ĠWapres":3163,"Ġsemp":3164,"reen":3165,"Ġgam":3166,"Ġmengajak":3167,"Ġvivo":3168,"Ġarea":3169,"Ġmenggelar":3170,"anggap":3171,"Ġpihaknya":3172,"ĠKanada":3173,"eluarkan":3174,"Ġkomunitas":3175,"ĠNote":3176,"Ġtipis":3177,"IN":3178,"ML":3179,"Un":3180,"ly":3181,"okan":3182,"syah":3183,"Ġdampak":3184,"Ġpam":3185,"inkan":3186,"Ġto":3187,"Ġtinggal":3188,"Ġdita":3189,"ĠPR":3190,"ĠBl":3191,"Ġberakhir":3192,"Ġkeper":3193,"ĠMaru":3194,"alap":3195,"buk":3196,"iro":3197,"ĠRep":3198,"ĠJenderal":3199,"ukur":3200,"Ġginj":3201,"adisi":3202,"adiah":3203,"ĠEzza":3204,"ĠWh":3205,"Ġpemilik":3206,"Ġaktor":3207,"Ġmenyelesaikan":3208,"Ġmenyediakan":3209,"Ġsemangat":3210,"chni":3211,"guna":3212,"ley":3213,"awab":3214,"Ġ500":3215,"ĠZaro":3216,"olog":3217,"ive":3218,"Ġkelima":3219,"tribusi":3220,"Ġhadirkan":3221,"ungkinan":3222,"Ġgram":3223,"Ġpria":3224,"aftar":3225,"ĠLive":3226,"utusan":3227,"Ġkenaikan":3228,"ĠSatri":3229,"Ġpopuler":3230,"roduksi":3231,"ĠDjokovic":3232,"ĠSyachni":3233,"Ġpetugas":3234,"Ġmenyiapkan":3235,"ĠArgentina":3236,"ĠMaruf":3237,"Ġginjal":3238,"ĠSyachniarEditor":3239,"ej":3240,"wak":3241,"Ġnya":3242,"Ġev":3243,"enter":3244,"Ġstandar":3245,"Ġkri":3246,"Ġtri":3247,"Ġtarget":3248,"Ġdidukung":3249,"adang":3250,"Ġkeempat":3251,"ĠMusi":3252,"ĠMobil":3253,"isah":3254,"ĠKita":3255,"asitas":3256,"Ġli":3257,"Ġunit":3258,"ĠJalan":3259,"ukasi":3260,"Ġram":3261,"Ġringan":3262,"ĠInstagram":3263,"Ġganda":3264,"Ġfor":3265,"Ġform":3266,"Ġcoba":3267,"ĠWisata":3268,"Ġmencoba":3269,"Ġsekolah":3270,"utih":3271,"Ġ60":3272,"tahanan":3273,"Ġemisi":3274,"Ġmanusia":3275,"MKG":3276,"Ġberdasarkan":3277,"umania":3278,"urunan":3279,"ĠBelanda":3280,"ksana":3281,"ĠKemudian":3282,"yataan":3283,"ĠSaint":3284,"engkapnya":3285,"Ġbukti":3286,"Ġmenemukan":3287,"osistem":3288,"ĠLALI":3289,"ĠUniversitas":3290,"ĠLALIGA":3291,"45":3292,"BL":3293,"sen":3294,"son":3295,"sek":3296,"str":3297,"ugi":3298,"anj":3299,"ens":3300,"Ġpangg":3301,"Ġpres":3302,"Ġsus":3303,"Ġbas":3304,"Ġdiak":3305,"alon":3306,"ĠBog":3307,"ĠBach":3308,"Ġberas":3309,"Ġmemer":3310,"ekraf":3311,"ĠTr":3312,"ĠTapi":3313,"umi":3314,"ĠLo":3315,"ĠGun":3316,"uth":3317,"ĠNegara":3318,"riani":3319,"ĠFr":3320,"ĠFestival":3321,"ĠIndeks":3322,"Ġpemer":3323,"jau":3324,"ongk":3325,"Ġkemungkinan":3326,"ĠSelama":3327,"unci":3328,"Ġpenyerang":3329,"ĠSebagai":3330,"Ġkualifikasi":3331,"Ġtradisi":3332,"Ġberpotensi":3333,"Ġkeber":3334,"Ġalat":3335,"Ġ2018":3336,"Ġbiasanya":3337,"ĠLaut":3338,"Ġdemi":3339,"Ġputaran":3340,"ĠJanji":3341,"Ġjaringan":3342,"egaskan":3343,"Ġmakanan":3344,"Ġwajah":3345,"Ġprofesi":3346,"Fadia":3347,"Saya":3348,"UMN":3349,"zhou":3350,"anad":3351,"Ġdasar":3352,"anggu":3353,"Ġkanan":3354,"Ġbes":3355,"Ġbangga":3356,"Ġtekan":3357,"Ġmenand":3358,"ĠSy":3359,"ĠStar":3360,"ĠAm":3361,"Ġberin":3362,"Ġberperan":3363,"ĠMus":3364,"ĠKap":3365,"Ġperl":3366,"ĠTenggara":3367,"baikan":3368,"ĠHam":3369,"Ġmerasakan":3370,"ĠWid":3371,"uhnya":3372,"antung":3373,"Ġpengend":3374,"endra":3375,"ĠOr":3376,"Ġberkelanjutan":3377,"ĠVin":3378,"ulauan":3379,"pora":3380,"Ġoper":3381,"Ġdiperk":3382,"Ġtransformasi":3383,"ĠRosa":3384,"ĠRoy":3385,"Ġesports":3386,"ocok":3387,"Ġguna":3388,"Ġorgan":3389,"ĠLeague":3390,"ĠRepublik":3391,"ĠBachti":3392,"80":3393,"Ap":3394,"cayaan":3395,"kop":3396,"vid":3397,"erat":3398,"Ġdom":3399,"Ġmitra":3400,"ategi":3401,"Ġkot":3402,"lama":3403,"Ġdimain":3404,"amkan":3405,"Ġsebagian":3406,"ahas":3407,"ĠPC":3408,"ĠPara":3409,"ĠPend":3410,"ĠPark":3411,"eliti":3412,"oria":3413,"enggar":3414,"ĠKas":3415,"ĠKBRI":3416,"usan":3417,"uri":3418,"Ġmemilih":3419,"Ġhiburan":3420,"Ġhadiah":3421,"ĠDaerah":3422,"ĠRumania":3423,"ĠTak":3424,"umsi":3425,"omb":3426,"ander":3427,"ĠGB":3428,"ĠGar":3429,"ĠHot":3430,"ĠFil":3431,"raz":3432,"itasi":3433,"Ġpengunjung":3434,"ĠâĢĶ":3435,"atuan":3436,"ipta":3437,"ĠVi":3438,"ĠYork":3439,"portasi":3440,"Ġekosistem":3441,"ografi":3442,"ence":3443,"impinan":3444,"Ġberbasis":3445,"Ġkhas":3446,"arkas":3447,"ĠSerbia":3448,"idupan":3449,"ĠOleh":3450,"ĠFajar":3451,"Ġimbang":3452,"Ġwisatawan":3453,"Ġstatus":3454,"ĠAhmad":3455,"injaman":3456,"Ġlembaga":3457,"tralia":3458,"Ġbernama":3459,"Ġgambar":3460,"ĠMelalui":3461,"ĠHandoko":3462,"ĠOPPO":3463,"ĠArsenal":3464,"Ġdimainkan":3465,"enggarakan":3466,"25":3467,"AR":3468,"Tok":3469,"benar":3470,"dak":3471,"ech":3472,"hati":3473,"va":3474,"Ġup":3475,"Ġener":3476,"antas":3477,"Ġde":3478,"inerja":3479,"Ġstudi":3480,"Ġkandang":3481,"tusi":3482,"yal":3483,"alangan":3484,"onik":3485,"onom":3486,"ĠSri":3487,"ĠPri":3488,"Ġkejuaraan":3489,"alal":3490,"ĠKen":3491,"ĠKantor":3492,"urna":3493,"Ġhabis":3494,"Ġhampir":3495,"olisian":3496,"unggal":3497,"ace":3498,"Ġrisiko":3499,"alaman":3500,"ĠNeg":3501,"Ġbawa":3502,"Ġcu":3503,"Ġcocok":3504,"antinya":3505,"Ġmelaju":3506,"ĠOperasi":3507,"ibli":3508,"Ġmembutuhkan":3509,"indung":3510,"indungan":3511,"ohon":3512,"Ġindeks":3513,"Ġmode":3514,"Ġobat":3515,"ĠRedmi":3516,"ĠJanuari":3517,"ĠBeat":3518,"Ġmedis":3519,"ĠMuhammad":3520,"Ġberkomitmen":3521,"Ġberasal":3522,"Rp":3523,"ex":3524,"ear":3525,"ners":3526,"oord":3527,"rak":3528,"entuk":3529,"Ġdah":3530,"Ġsakit":3531,"Ġbadan":3532,"Ġdira":3533,"adhan":3534,"ĠSak":3535,"ĠBa":3536,"ĠBUMN":3537,"Ġberta":3538,"Ġperju":3539,"usung":3540,"elaka":3541,"ĠDen":3542,"ĠDadan":3543,"ektr":3544,"Ġluncurkan":3545,"ira":3546,"ĠRe":3547,"ukai":3548,"Ġrut":3549,"Ġlaut":3550,"Ġpenonton":3551,"andi":3552,"abi":3553,"Ġaktif":3554,"âĢĿ,":3555,"Ġmencari":3556,"odo":3557,"Ġversi":3558,"Ġselaku":3559,"indakan":3560,"ĠAndar":3561,"Ġpernyataan":3562,"Ġterlibat":3563,"Ġstrategi":3564,"hion":3565,"ondon":3566,"tamanya":3567,"Ġmewujudkan":3568,"ĠRauf":3569,"epakatan":3570,"truktur":3571,"ĠAustralia":3572,"Ġmenguat":3573,"ĠAdipati":3574,"hutla":3575,"Ġfaktor":3576,"Ġprofesional":3577,"Ġkotak":3578,"ĠAdipatiEditor":3579,"PK":3580,"aing":3581,"ft":3582,"wanto":3583,"Ġang":3584,"Ġengg":3585,"ermain":3586,"Ġmain":3587,"Ġmilik":3588,"Ġpula":3589,"Ġpember":3590,"Ġpublik":3591,"Ġkil":3592,"Ġtema":3593,"Ġtayang":3594,"ĠSuk":3595,"ason":3596,"ashion":3597,"ingi":3598,"ĠMb":3599,"isti":3600,"Ġperek":3601,"Ġperempuan":3602,"ile":3603,"irasi":3604,"Ġ(@":3605,"imantan":3606,"ĠTik":3607,"uma":3608,"ĠCar":3609,"omba":3610,"ĠLump":3611,"bawa":3612,"ros":3613,"udin":3614,"ĠFF":3615,"Ġbayi":3616,"Ġfasil":3617,"antangan":3618,"Ġserangan":3619,"ici":3620,"Ġsebenarnya":3621,"Ġmelepas":3622,"Ġmengap":3623,"inix":3624,"Ġasuhan":3625,"osiasi":3626,"tasiun":3627,"Ġpasangan":3628,"Ġkelompok":3629,"Ġsepakan":3630,"Ġpelayanan":3631,"Ġbelajar":3632,"ĠRamadhan":3633,"Ġperkembangan":3634,"Ġpribadi":3635,"ĠAceh":3636,"Ġsoal":3637,"Ġjarak":3638,"Ġmenyambut":3639,"Ġcommerce":3640,"impanan":3641,"ĠSultan":3642,"ĠInfinix":3643,"Ġkepercayaan":3644,"Ġenergi":3645,"ĠNegeri":3646,"elakaan":3647,"ĠLumpur":3648,"BB":3649,"ker":3650,"low":3651,"vel":3652,"atasi":3653,"Ġbatik":3654,"Ġtop":3655,"Ġtenaga":3656,"kannya":3657,"ĠSk":3658,"ĠSumat":3659,"ĠSlam":3660,"ĠAmb":3661,"ĠAFP":3662,"elenggarakan":3663,"ĠBi":3664,"tian":3665,"ĠDo":3666,"ĠTot":3667,"ĠJo":3668,"Ġpenangan":3669,"Ġpenurunan":3670,"ĠNet":3671,"ĠFat":3672,"ĠWanad":3673,"Ġpemimpin":3674,"abang":3675,"egrasi":3676,"jaga":3677,"isik":3678,"Ġkarbon":3679,"Ġkont":3680,"Ġuang":3681,"lec":3682,"indari":3683,"ĠProgram":3684,"Ġpenyebab":3685,"stan":3686,"ĠSecara":3687,"Ġpendek":3688,"Ġibu":3689,"Ġmaju":3690,"ĠKemenkominfo":3691,"Ġdimana":3692,"avi":3693,"Ġdidapat":3694,"ĠOly":3695,"ĠMaster":3696,"ategis":3697,"ĠRomano":3698,"ĠAhn":3699,"Ġmenjalankan":3700,"untung":3701,"firmasi":3702,"Ġkehidupan":3703,"Ġpetenis":3704,"impiade":3705,"Ġpasien":3706,"ĠMobile":3707,"Ġbertajuk":3708,"ĠWanadriani":3709,"Ch":3710,"gn":3711,"mark":3712,"yle":3713,"erse":3714,"Ġdu":3715,"Ġsana":3716,"Ġkamp":3717,"Ġkinerja":3718,"Ġtunggal":3719,"Ġtantangan":3720,"ahari":3721,"asta":3722,"ĠAC":3723,"ĠBur":3724,"ĠBagi":3725,"Ġberger":3726,"ĠKim":3727,"ĠKristi":3728,"Ġmemutus":3729,"ĠDon":3730,"ĠDis":3731,"ĠDit":3732,"ĠDPR":3733,"Ġmengisi":3734,"Ġindi":3735,"ĠLap":3736,"ĠNU":3737,"ĠNah":3738,"ĠHad":3739,"ĠHyo":3740,"Ġjelang":3741,"itam":3742,"Ġprovinsi":3743,"obatan":3744,"jarlah":3745,"panjangan":3746,"eraj":3747,"Ġmengad":3748,"ĠYang":3749,"intaan":3750,"indak":3751,"ĠBerd":3752,"encan":3753,"tenham":3754,"ĠKepulauan":3755,"yoEditor":3756,"timewa":3757,"ĠOlimpiade":3758,"Ġsesuatu":3759,"ĠKalimantan":3760,"Ġedukasi":3761,"Ġalami":3762,"Ġstab":3763,"enchen":3764,"ĠMuenchen":3765,"elamatan":3766,"ĠBlibli":3767,"App":3768,"ĠTottenham":3769,"ĠOlymp":3770,"Ġbergerak":3771,"36":3772,"PL":3773,"bi":3774,"caman":3775,"operasi":3776,"pon":3777,"tinya":3778,"atal":3779,"ins":3780,"Ġsh":3781,"Ġmenutup":3782,"Ġmenegaskan":3783,"tap":3784,"ĠAM":3785,"ĠBor":3786,"Ġperpanjangan":3787,"Ġhutan":3788,"ĠTab":3789,"ungsi":3790,"Ġref":3791,"ĠLay":3792,"Ġlayak":3793,"ĠFran":3794,"ĠIndia":3795,"okasi":3796,"ewan":3797,"ĠEm":3798,"ĠWire":3799,"ĠWatch":3800,"ital":3801,"Ġprodus":3802,"Ġtahunan":3803,"ditya":3804,"âĢĿ.":3805,"ree":3806,"Ġsering":3807,"lex":3808,"Ġmelew":3809,"Ġpelari":3810,"Ġaturan":3811,"Ġpenyimpanan":3812,"Ġpasti":3813,"Ġmenghasilkan":3814,"ĠPersija":3815,"ĠSemua":3816,"Ġmeski":3817,"ĠRamdani":3818,"atsApp":3819,"ĠTurki":3820,"Ġtambahnya":3821,"Ġalasan":3822,"bulkan":3823,"Ġtiba":3824,"Ġmomen":3825,"ĠROG":3826,"rastruktur":3827,"90":3828,"bes":3829,"eor":3830,"jakan":3831,"uji":3832,"enakan":3833,"Ġdulu":3834,"Ġmo":3835,"atat":3836,"atuh":3837,"atama":3838,"Ġmenun":3839,"aha":3840,"ĠPe":3841,"ĠPap":3842,"ĠAK":3843,"Ġkelah":3844,"ĠMak":3845,"Ġpert":3846,"Ġperairan":3847,"urg":3848,"urasi":3849,"tia":3850,"Ġjumpa":3851,"Ġhitam":3852,"ĠIN":3853,"ĠIb":3854,"ĠDokter":3855,"Ġlari":3856,"Ġlive":3857,"iru":3858,"ĠRAM":3859,"ĠTok":3860,"Ġlakukan":3861,"Ġpenj":3862,"lusi":3863,"ĠFA":3864,"Ġfin":3865,"ĠUlama":3866,"alian":3867,"kusi":3868,"Ġpembuka":3869,"Ġkartu":3870,"ipina":3871,"manEditor":3872,"Ġkemarin":3873,"Ġkerap":3874,"over":3875,"Ġmempertahankan":3876,"etapkan":3877,"Ġpenyanyi":3878,"ĠKejarlah":3879,"Ġkesepakatan":3880,"Ġpesta":3881,"Ġkecelakaan":3882,"arkoba":3883,"Ġtransportasi":3884,"ujian":3885,"ĠMeskipun":3886,"anye":3887,"Ġberjudul":3888,"ĠYou":3889,"ĠTurk":3890,"ĠKedua":3891,"Ġroda":3892,"Ġkapasitas":3893,"elanja":3894,"ĠKhusus":3895,"parekraf":3896,"ĠWhatsApp":3897,"Ġnyaman":3898,"Ġpanggilan":3899,"Ġindivid":3900,"Ġkelahiran":3901,"27":3902,"HO":3903,"klusi":3904,"no":3905,"put":3906,"ward":3907,"erit":3908,"Ġpic":3909,"Ġputih":3910,"Ġsw":3911,"Ġsosok":3912,"lawan":3913,"Ġbencana":3914,"emat":3915,"Ġmenekan":3916,"ĠSolo":3917,"ĠAku":3918,"ĠBaru":3919,"ort":3920,"oran":3921,"Ġberc":3922,"Ġkeamanan":3923,"ilangan":3924,"tico":3925,"ĠDa":3926,"Ġmengubah":3927,"Ġmengunjungi":3928,"ĠJoko":3929,"ulih":3930,"ĠLy":3931,"utrad":3932,"Ġcapai":3933,"abri":3934,"Ġpengisian":3935,"ehatan":3936,"mankan":3937,"olak":3938,"Ġmengamankan":3939,"Ġkeduanya":3940,"ulitan":3941,"Ġkeseluruh":3942,"Ġkesulitan":3943,"Ġyakin":3944,"undang":3945,"Ġ70":3946,"Ġminim":3947,"Ġdirilis":3948,"Ġpelatihan":3949,"Ġseries":3950,"umpul":3951,"ĠIslam":3952,"Ġberdampak":3953,"Ġtujuan":3954,"Ġmencatat":3955,"ĠKarena":3956,"Ġefisi":3957,"Ġinfrastruktur":3958,"ĠKesehatan":3959,"ĠInternational":3960,"ĠKomunikasi":3961,"ĠSatriyoEditor":3962,"ongkok":3963,"Ġdiperkirakan":3964,"ĠBeatles":3965,"ĠSumatera":3966,"Ġpenanganan":3967,"ĠKristianti":3968,"CA":3969,"VID":3970,"ael":3971,"car":3972,"fum":3973,"ler":3974,"negara":3975,"ph":3976,"rist":3977,"yani":3978,"Ġ:":3979,"Ġab":3980,"erahkan":3981,"Ġpariwisata":3982,"atistik":3983,"Ġsig":3984,"Ġkunci":3985,"Ġtokoh":3986,"Ġtoreh":3987,"Ġdibuat":3988,"Ġsese":3989,"ele":3990,"ĠBahkan":3991,"Ġberku":3992,"appe":3993,"ĠKalau":3994,"Ġperg":3995,"uskan":3996,"Ġhi":3997,"Ġhalal":3998,"buatan":3999,"Ġlo":4000,"ĠTekn":4001,"ĠTwitter":4002,"Ġmenge":4003,"Ġmengin":4004,"ĠCel":4005,"Ġrun":4006,"Ġruangan":4007,"ĠLia":4008,"ĠLight":4009,"etr":4010,"ĠHari":4011,"rig":4012,"ĠFer":4013,"ĠUl":4014,"ĠEk":4015,"abatan":4016,"abrik":4017,"Ġmembela":4018,"Ġtahan":4019,"ĠAnak":4020,"Ġkeputusan":4021,"Ġberkolaborasi":4022,"ecahkan":4023,"Ġancaman":4024,"Ġterbatas":4025,"Ġprom":4026,"Ġ90":4027,"menistan":4028,"Ġkeker":4029,"Ġterlebih":4030,"ĠPersik":4031,"Ġmanfaat":4032,"Ġgelombang":4033,"ĠAtle":4034,"Ġiklim":4035,"Ġelektr":4036,"ĠSantosaEditor":4037,"Ġsembilan":4038,"ĠKecamatan":4039,"Ġsempurna":4040,"Ġpameran":4041,"Ġkrisis":4042,"Ġbasket":4043,"Ġtekanan":4044,"ĠBachtiar":4045,"Ġangin":4046,"Ġenggak":4047,"ĠMbappe":4048,"ĠPapua":4049,"ĠTurkmenistan":4050,"Ġkeseluruhan":4051,"ED":4052,"eek":4053,"jadi":4054,"pro":4055,"sor":4056,"uch":4057,"ver":4058,"zag":4059,"Ġapi":4060,"Ġanda":4061,"ere":4062,"erahan":4063,"entr":4064,"Ġdaftar":4065,"Ġpulang":4066,"Ġmenim":4067,"tual":4068,"alo":4069,"Ġsebab":4070,"ĠPM":4071,"ĠPP":4072,"ĠAditya":4073,"ĠBat":4074,"Ġberg":4075,"iker":4076,"ĠMod":4077,"iset":4078,"esu":4079,"ĠKut":4080,"ĠKeh":4081,"Ġtert":4082,"Ġterbuka":4083,"usak":4084,"Ġhati":4085,"ĠIBL":4086,"Ġ28":4087,"iraan":4088,"ĠRR":4089,"ĠRumah":4090,"ĠTV":4091,"ĠLondon":4092,"ĠInform":4093,"ĠNomor":4094,"seop":4095,"Ġfisik":4096,"Ġcalon":4097,"ĠUp":4098,"ĠUCL":4099,"Ġwin":4100,"Ġweb":4101,"ĠWar":4102,"ĠWats":4103,"udahan":4104,"aydi":4105,"Ġvir":4106,"Ġvoli":4107,"Ġvarian":4108,"Ġselain":4109,"Ġdiketahui":4110,"ernand":4111,"ediaan":4112,"Ġprak":4113,"ĠAndroid":4114,"ĠPratama":4115,"Ġriasan":4116,"ĠFair":4117,"Ġmengenakan":4118,"antai":4119,"ipset":4120,"tahun":4121,"Ġsuatu":4122,"ontoh":4123,"Ġburuk":4124,"ĠJunaydi":4125,"ĠSuswanto":4126,"Ġtertulis":4127,"sekitar":4128,"ĠTikTok":4129,"Ġmemutuskan":4130,"ĠBerdasarkan":4131,"Ġberkualitas":4132,"ĠAtletico":4133,"zaghi":4134,"ĠKutcher":4135,"..":4136,"AC":4137,"AP":4138,"IS":4139,"PM":4140,"SG":4141,"UN":4142,"land":4143,"phone":4144,"ren":4145,"ty":4146,"var":4147,"wari":4148,"xi":4149,"Ġangk":4150,"Ġimp":4151,"aranya":4152,"Ġpla":4153,"Ġstar":4154,"Ġsolusi":4155,"Ġsinar":4156,"Ġsmart":4157,"Ġkand":4158,"Ġtangk":4159,"gala":4160,"Ġmenempat":4161,"ĠSil":4162,"ĠStasiun":4163,"ahaman":4164,"ĠPa":4165,"ĠPh":4166,"ĠPut":4167,"ĠAB":4168,"ĠAIM":4169,"ĠBeb":4170,"ĠBMKG":4171,"Ġbertambah":4172,"ĠMay":4173,"ĠMill":4174,"ĠKemenangan":4175,"ĠReno":4176,"ĠTetap":4177,"ĠTaman":4178,"ĠTour":4179,"ĠJak":4180,"Ġrangka":4181,"ĠInzaghi":4182,"ĠGuang":4183,"ĠNo":4184,"ĠNich":4185,"ĠFlip":4186,"Ġmerah":4187,"Ġfase":4188,"Ġpengu":4189,"Ġtahap":4190,"ĠOp":4191,"Ġpola":4192,"Ġkarhutla":4193,"Ġmencegah":4194,"Ġharapan":4195,"Ġbersaing":4196,"torat":4197,"mbangkan":4198,"ĠProduk":4199,"ĠSeason":4200,"cegahan":4201,"ffa":4202,"Ġstrategis":4203,"Ġpaket":4204,"artemen":4205,"ĠLivia":4206,"Ġtugas":4207,"ĠUSB":4208,"Ġagenda":4209,"Ġkehilangan":4210,"spirasi":4211,"Ġpermintaan":4212,"Ġbursa":4213,"Ġditemui":4214,"Ġoptimal":4215,"Ġmiliter":4216,"Ġtumbuh":4217,"Ġditutup":4218,"ĠFilipina":4219,"tusias":4220,"Ġdahulu":4221,"ĠKristiantiEditor":4222,"Ġseseorang":4223,"ĠWatsons":4224,"ĠAIMA":4225,"Ah":4226,"Germain":4227,"TT":4228,"ball":4229,"jah":4230,"jung":4231,"ound":4232,"za":4233,"Ġgi":4234,"enama":4235,"artisipasi":4236,"Ġmuseum":4237,"Ġpung":4238,"Ġsund":4239,"Ġsupaya":4240,"angerang":4241,"akar":4242,"Ġbang":4243,"Ġtoko":4244,"unjukan":4245,"tai":4246,"tain":4247,"ĠSi":4248,"ĠPes":4249,"ĠPela":4250,"ĠBand":4251,"Ġkehad":4252,"isme":4253,"ĠKr":4254,"urn":4255,"ĠDay":4256,"Ġ27":4257,"irw":4258,"ĠTho":4259,"Ġmengangkat":4260,"ĠCEO":4261,"Ġinter":4262,"Ġinci":4263,"ĠGP":4264,"ebra":4265,"Ġgedung":4266,"ampaikan":4267,"Ġnantinya":4268,"Ġjawab":4269,"arankan":4270,"manan":4271,"Ġbank":4272,"ĠVers":4273,"Ġmemperpanjang":4274,"Ġterbanyak":4275,"ĠSejumlah":4276,"ĠShin":4277,"Ġsenilai":4278,"owi":4279,"owo":4280,"Ġdipas":4281,"Ġtreb":4282,"ift":4283,"tentu":4284,"ĠGreg":4285,"Ġpentingnya":4286,"commerce":4287,"enggaraan":4288,"Ġserial":4289,"ĠPasar":4290,"Ġbuah":4291,"ĠMei":4292,"Ġmedali":4293,"Ġberlaga":4294,"Ġdicetak":4295,"ubungi":4296,"Ġtembakan":4297,"ĠBasuki":4298,"Ġgaming":4299,"wakilan":4300,"indungi":4301,"Ġfasilitas":4302,"tappen":4303,"Ġmelewati":4304,"ĠTokyo":4305,"ĠNichol":4306,"Ġsundulan":4307,"Ġkehadiran":4308,"ĠThohir":4309,"ĠVerstappen":4310,"29":4311,"bel":4312,"twitter":4313,"warna":4314,"zer":4315,"Ġdetik":4316,"Ġminta":4317,"Ġpad":4318,"Ġpapan":4319,"Ġpartai":4320,"atika":4321,"ining":4322,"Ġsaksi":4323,"Ġsambut":4324,"Ġkala":4325,"lack":4326,"Ġtaj":4327,"Ġtarik":4328,"Ġtamu":4329,"Ġdiad":4330,"Ġmenak":4331,"Ġmental":4332,"adar":4333,"aland":4334,"ĠStor":4335,"ĠSumber":4336,"ĠPetu":4337,"ĠPariwisata":4338,"ĠAu":4339,"ĠBima":4340,"ĠBaj":4341,"ĠBag":4342,"ingg":4343,"isan":4344,"ĠKre":4345,"Ġpertamanya":4346,"illah":4347,"Ġhangat":4348,"ĠDemb":4349,"ĠRB":4350,"ĠRod":4351,"ĠTen":4352,"Ġrakyat":4353,"ĠLee":4354,"ĠGu":4355,"uty":4356,"Ġmerilis":4357,"okumen":4358,"rael":4359,"ĠWi":4360,"Ġpemilu":4361,"Ġmenjadikan":4362,"jauh":4363,"trol":4364,"Ġmembeli":4365,"ĠOn":4366,"Ġaksi":4367,"Ġmendatangkan":4368,"Ġ32":4369,"Ġ36":4370,"entar":4371,"entingan":4372,"Ġmelemah":4373,"awaran":4374,"Ġberkon":4375,"ĠVer":4376,"caraz":4377,"Ġasing":4378,"Ġseles":4379,"Ġselengkapnya":4380,"ĠAlcaraz":4381,"ect":4382,"Ġantusias":4383,"Ġdisampaikan":4384,"Ġketat":4385,"Ġpelaksana":4386,"estinasi":4387,"Ġdimiliki":4388,"ĠAshari":4389,"Ġ199":4390,"uasana":4391,"ĠFaisal":4392,"ĠGojek":4393,"Ġberjuluk":4394,"Ġchipset":4395,"Ġberlaku":4396,"ĠSalma":4397,"Ġraihan":4398,"Ġwajib":4399,"ĠIrwan":4400,"Ġkanal":4401,"Ġditemukan":4402,"Ġkarier":4403,"Ġbalapan":4404,"ĠBull":4405,"Ġberikutnya":4406,"Ġkonsisten":4407,"Ġlipat":4408,"Ġtradisional":4409,"ĠSakina":4410,"35":4411,"HK":4412,"TI":4413,"fr":4414,"liga":4415,"nu":4416,"ping":4417,"Ġ#":4418,"enangkan":4419,"Ġdestinasi":4420,"Ġpiala":4421,"Ġpabrik":4422,"atasan":4423,"Ġskuad":4424,"Ġsasaran":4425,"aksa":4426,"Ġbangsa":4427,"tugal":4428,"ĠSig":4429,"ĠPU":4430,"ĠAlex":4431,"orit":4432,"Ġterasa":4433,"Ġmemimpin":4434,"Ġhebat":4435,"Ġlatar":4436,"iring":4437,"iman":4438,"ĠClub":4439,"ida":4440,"ometer":4441,"bau":4442,"iaomi":4443,"ĠHo":4444,"ĠFor":4445,"ĠFitur":4446,"okowi":4447,"angkit":4448,"Ġkonferensi":4449,"oskop":4450,"Ġsemuanya":4451,"Ġkepentingan":4452,"Ġberkunjung":4453,"Ġmusisi":4454,"ĠZebra":4455,"Ġoff":4456,"Ġ45":4457,"ĠMarc":4458,"ĠSeti":4459,"Ġkuarta":4460,"arnai":4461,"ower":4462,"Ġtampak":4463,"oham":4464,"ĠKomisi":4465,"Ġberpartisipasi":4466,"Ġterdampak":4467,"Ġarah":4468,"ĠXavi":4469,"ĠLazio":4470,"Ġekspor":4471,"Ġeuro":4472,"Ġbuatan":4473,"Ġtutur":4474,"Ġberjuang":4475,"aluasi":4476,"Ġidola":4477,"assr":4478,"Ġsitus":4479,"tujuh":4480,"arly":4481,"atangani":4482,"Ġmatahari":4483,"Ġrock":4484,"Ġpenerima":4485,"Ġmemperkenalkan":4486,"que":4487,"iksaan":4488,"isalnya":4489,"lukkan":4490,"Ġdisiarkan":4491,"ventus":4492,"Ġkarir":4493,"Ġkreatif":4494,"ĠHeru":4495,"ĠSuhirw":4496,"Ġperhatian":4497,"Ġpandemi":4498,"ĠShoffa":4499,"ĠTiongkok":4500,"Ġorganisasi":4501,"Ġcuaca":4502,"Ġrutin":4503,"istiwa":4504,"Ġmengapresiasi":4505,"ĠFath":4506,"tainment":4507,"Ġtajam":4508,"ĠDembele":4509,"ĠSuhirwandi":4510,"TC":4511,"cepat":4512,"hen":4513,"hawat":4514,"iah":4515,"iel":4516,"kes":4517,"mon":4518,"oy":4519,"sat":4520,"wai":4521,"Ġduduk":4522,"Ġmist":4523,"Ġsar":4524,"Ġsamb":4525,"Ġby":4526,"Ġtun":4527,"Ġtua":4528,"siapkan":4529,"gama":4530,"alin":4531,"ĠSeh":4532,"Ġsegala":4533,"ahaya":4534,"ĠPat":4535,"ĠPav":4536,"ĠPlus":4537,"elian":4538,"ĠBek":4539,"Ġberj":4540,"ĠMU":4541,"ĠMall":4542,"ĠKun":4543,"ĠKetika":4544,"Ġperb":4545,"Ġmemf":4546,"ĠTips":4547,"ĠTangerang":4548,"Ġmengetahui":4549,"ĠCol":4550,"ĠCristi":4551,"ĠCenter":4552,"Ġrel":4553,"ĠLu":4554,"ĠLat":4555,"ĠLeg":4556,"ĠLingkungan":4557,"Ġpeneliti":4558,"udukan":4559,"ĠGel":4560,"ĠGro":4561,"Ġ120":4562,"ĠNan":4563,"embak":4564,"okwari":4565,"Ġjaj":4566,"Ġjangka":4567,"Ġpengobatan":4568,"aruan":4569,"ĠArena":4570,"ĠPemilu":4571,"Ġpesawat":4572,"ĠDigital":4573,"Ġdilaksanakan":4574,"Ġtanaman":4575,"ĠXi":4576,"Ġlanjutan":4577,"Ġmanis":4578,"ĠIsrael":4579,"Ġbertema":4580,"Ġmesin":4581,"Ġmeskipun":4582,"Ġchip":4583,"tujuan":4584,"ĠKane":4585,"Ġtercatat":4586,"PBD":4587,"retaris":4588,"ĠJuventus":4589,"Ġmarathon":4590,"Ġlegenda":4591,"stru":4592,"ĠBogor":4593,"ĠKapol":4594,"ĠVinny":4595,"Ġmelepaskan":4596,"Ġmengadakan":4597,"Ġindividu":4598,"utradara":4599,"ĠEkonomi":4600,"Ġpromosi":4601,"ĠInformatika":4602,"ĠBeberapa":4603,"ĠMills":4604,"ĠGregoria":4605,"ĠSalmaEditor":4606,"200":4607,"AY":4608,"ER":4609,"FC":4610,"PA":4611,"eet":4612,"iwa":4613,"jas":4614,"mo":4615,"ru":4616,"ril":4617,"vasi":4618,"zin":4619,"Ġ/":4620,"ansia":4621,"Ġdukung":4622,"Ġdorong":4623,"Ġdokter":4624,"Ġmus":4625,"Ġmakin":4626,"Ġpat":4627,"Ġpinjaman":4628,"Ġsy":4629,"Ġboleh":4630,"Ġbenda":4631,"Ġbuka":4632,"Ġtes":4633,"Ġtari":4634,"Ġtegas":4635,"Ġdiw":4636,"Ġdisebut":4637,"Ġdiranc":4638,"Ġmenengah":4639,"Ġmenonton":4640,"ĠSar":4641,"ĠPet":4642,"ĠBB":4643,"ĠBang":4644,"ĠBlu":4645,"ĠBea":4646,"ĠBidang":4647,"ĠBraz":4648,"juan":4649,"Ġberupaya":4650,"ĠMc":4651,"ĠMaj":4652,"iss":4653,"ĠKer":4654,"Ġterg":4655,"usakan":4656,"ille":4657,"urat":4658,"adaan":4659,"Ġlansia":4660,"ĠRek":4661,"ĠCre":4662,"ĠJoh":4663,"acam":4664,"idi":4665,"idana":4666,"ĠLeo":4667,"bay":4668,"rop":4669,"udut":4670,"ĠGa":4671,"ĠGan":4672,"ĠHak":4673,"ĠHidup":4674,"ĠFashion":4675,"Ġnon":4676,"Ġnarkoba":4677,"Ġjarang":4678,"Ġpemenang":4679,"iansyah":4680,"ĠOs":4681,"ĠPerusahaan":4682,"etail":4683,"ĠYuni":4684,"Ġkering":4685,"Ġmemperoleh":4686,"Ġselatan":4687,"ungkas":4688,"Ġpasokan":4689,"ogy":4690,"own":4691,"empang":4692,"Ġkecamatan":4693,"ĠSabalen":4694,"inginkan":4695,"ifa":4696,"aksikan":4697,"Ġberlanjut":4698,"Ġsampah":4699,"yoff":4700,"ĠAde":4701,"ĠDesember":4702,"ĠDirektorat":4703,"ĠHaaland":4704,"ĠMax":4705,"Ġistimewa":4706,"Ġsuara":4707,"Ġparfum":4708,"MII":4709,"ĠKuala":4710,"omotif":4711,"Ġtablet":4712,"Ġmenurunkan":4713,"ĠManager":4714,"ĠPamela":4715,"onomian":4716,"oordinasi":4717,"Ġperekonomian":4718,"Ġkampanye":4719,"Ġfinis":4720,"Ġmenimbulkan":4721,"ĠRRQ":4722,"Ġberkontribusi":4723,"Ġselesai":4724,"ĠSakinaEditor":4725,"Ġdirancang":4726,"ĠSabalenka":4727,"26":4728,"DI":4729,"JRI":4730,"NU":4731,"TH":4732,"creen":4733,"fe":4734,"foma":4735,"jo":4736,"jam":4737,"jid":4738,"pons":4739,"rat":4740,"set":4741,"saham":4742,"via":4743,"ved":4744,"wakan":4745,"zi":4746,"eral":4747,"Ġda":4748,"arti":4749,"Ġpot":4750,"atm":4751,"iness":4752,"Ġsik":4753,"Ġsudut":4754,"Ġklasi":4755,"Ġbalik":4756,"Ġtol":4757,"Ġtips":4758,"Ġtutup":4759,"ahami":4760,"ĠPi":4761,"ĠPonsel":4762,"ĠPihak":4763,"ĠAg":4764,"ĠAmin":4765,"ell":4766,"ĠBah":4767,"ĠBund":4768,"Ġberbagi":4769,"Ġberterima":4770,"ĠMac":4771,"alagi":4772,"Ġperp":4773,"Ġperayaan":4774,"iling":4775,"uren":4776,"urahan":4777,"Ġjustru":4778,"ĠIbu":4779,"ĠDikuti":4780,"ĠDort":4781,"imfoma":4782,"ĠRaya":4783,"ĠTai":4784,"Ġmengeluarkan":4785,"Ġmengusung":4786,"ĠCup":4787,"ukses":4788,"aco":4789,"omend":4790,"Ġlahir":4791,"andy":4792,"alami":4793,"ĠGer":4794,"ĠHy":4795,"ĠFinal":4796,"ampingi":4797,"Ġjangan":4798,"Ġjiwa":4799,"Ġpemeran":4800,"uhkan":4801,"ement":4802,"Ġmelaksanakan":4803,"ĠâĢĵ":4804,"cho":4805,"ĠChi":4806,"Ġ33":4807,"Ġ35":4808,"asilan":4809,"ibur":4810,"ĠYus":4811,"ulau":4812,"Ġaspek":4813,"Ġmempersiapkan":4814,"Ġseharga":4815,"2024":4816,"indah":4817,"tifikasi":4818,"evisi":4819,"ston":4820,"Ġdiselenggarakan":4821,"Ġdibander":4822,"Ġmembagi":4823,"Ġserius":4824,"ĠPremi":4825,"ĠRoch":4826,"Ġimbuh":4827,"Ġpelanggaran":4828,"Ġsocial":4829,"iriman":4830,"Ġgunakan":4831,"Ġspesial":4832,"board":4833,"Ġpenyelenggaraan":4834,"ĠPortugal":4835,"adwalkan":4836,"Ġbusana":4837,"ĠSony":4838,"Ġramah":4839,"Ġpemeriksaan":4840,"Ġmenandatangani":4841,"Ġpengendara":4842,"Ġoperasional":4843,"hatikan":4844,"erajat":4845,"Ġpertunjukan":4846,"klusif":4847,"Ġpunggung":4848,"ĠKreatif":4849,"ĠSigit":4850,"ĠCristiano":4851,"ĠDikutip":4852,"Ġdibanderol":4853,"OL":4854,"Tub":4855,"air":4856,"fikan":4857,"gak":4858,"kra":4859,"lian":4860,"mund":4861,"ook":4862,"sus":4863,"teng":4864,"erb":4865,"erti":4866,"Ġderajat":4867,"aruh":4868,"inh":4869,"Ġsuh":4870,"Ġsuasana":4871,"Ġkabupaten":4872,"ake":4873,"akup":4874,"Ġbatas":4875,"Ġtid":4876,"Ġdibu":4877,"Ġditer":4878,"Ġmenu":4879,"Ġmenju":4880,"Ġmenangkap":4881,"amai":4882,"ĠSE":4883,"ĠSaham":4884,"ash":4885,"astian":4886,"ĠPartai":4887,"ĠBus":4888,"ĠBud":4889,"ĠBatur":4890,"ĠBrig":4891,"Ġberturut":4892,"Ġberarti":4893,"ĠMy":4894,"ĠMaka":4895,"apatan":4896,"ĠKali":4897,"Ġpertahanan":4898,"Ġperbaikan":4899,"Ġperwakilan":4900,"Ġtertentu":4901,"ĠDav":4902,"ektur":4903,"Ġliga":4904,"ĠRempang":4905,"ĠTek":4906,"Ġmengga":4907,"Ġmengant":4908,"ĠCan":4909,"ulangan":4910,"ĠLen":4911,"Ġpencegahan":4912,"eth":4913,"edar":4914,"Ġinisi":4915,"utar":4916,"ĠHingga":4917,"angani":4918,"ĠFitra":4919,"ĠUtama":4920,"alikan":4921,"ĠWol":4922,"abilitas":4923,"Ġpengembang":4924,"Ġmenyusul":4925,"Ġkonf":4926,"ost":4927,"ĠCOVID":4928,"Ġserupa":4929,"Ġbahasa":4930,"ingkatkan":4931,"nifikan":4932,"Ġkerusakan":4933,"Ġasli":4934,"ĠZhou":4935,"Ġdiklaim":4936,"indahan":4937,"Ġkesalahan":4938,"ĠBerb":4939,"ĠBerk":4940,"ĠPenga":4941,"ress":4942,"Ġpembalap":4943,"Ġpembelian":4944,"ĠManokwari":4945,"Ġmenghadiri":4946,"apaian":4947,"ĠXiaomi":4948,"Ġtentunya":4949,"Ġbioskop":4950,"Ġsuka":4951,"Ġmodern":4952,"Ġeksp":4953,"itraan":4954,"ijing":4955,"ĠQatar":4956,"ĠKalteng":4957,"Ġterpilih":4958,"etahuan":4959,"untungan":4960,"ĠEnter":4961,"raden":4962,"ĠAktor":4963,"Ġ256":4964,"Ġopsi":4965,"Ġprioritas":4966,"spur":4967,"Ġedisi":4968,"lingham":4969,"truksi":4970,"ĠAbdul":4971,"Ġteman":4972,"ĠNusantara":4973,"ĠImam":4974,"Ġsusu":4975,"ĠSyifa":4976,"Ġperlindungan":4977,"ĠHotspur":4978,"Ġkilometer":4979,"ĠFFML":4980,"Ġprodusen":4981,"Ġpembukaan":4982,"ĠYouTub":4983,"Ġswasta":4984,"Ġsignifikan":4985,"Ġwinners":4986,"Ġsmartphone":4987,"Ġtreble":4988,"Ġkuartal":4989,"ĠFathur":4990,"Ġjajaran":4991,"ogyakarta":4992,"ĠDortmund":4993,"omendasi":4994,"ĠRochmanEditor":4995,"kraina":4996,"Ġtidur":4997,"ĠBaturraden":4998,"ĠYouTube":4999,"70":5000,"75":5001,"Daniel":5002,"bar":5003,"din":5004,"eu":5005,"eja":5006,"hton":5007,"jaya":5008,"led":5009,"mala":5010,"ood":5011,"produk":5012,"rus":5013,"ue":5014,"uga":5015,"ugr":5016,"yono":5017,"zen":5018,"Ġ@":5019,"Ġ????":5020,"erina":5021,"Ġpresiden":5022,"ating":5023,"Ġtra":5024,"Ġdise":5025,"Ġdiumumkan":5026,"Ġdibawa":5027,"Ġmentah":5028,"alph":5029,"ĠSEA":5030,"ĠStudi":5031,"ahabatan":5032,"ĠPar":5033,"eluang":5034,"Ġberf":5035,"Ġberad":5036,"Ġkela":5037,"Ġketujuh":5038,"ikro":5039,"ĠMil":5040,"ilangkan":5041,"urangan":5042,"ĠDec":5043,"irku":5044,"ĠRS":5045,"ĠRi":5046,"ĠRiz":5047,"umbang":5048,"Ġmengatasi":5049,"ĠJokowi":5050,"ukkan":5051,"Ġrob":5052,"Ġrent":5053,"ĠLib":5054,"ĠInvestasi":5055,"iau":5056,"Ġganggu":5057,"ĠNor":5058,"ĠNic":5059,"adio":5060,"ĠFar":5061,"Ġnyata":5062,"Ġcabang":5063,"Ġwaspada":5064,"ĠWeek":5065,"Ġpemahaman":5066,"Ġmembahas":5067,"ĠOlahraga":5068,"Ġmenyer":5069,"opsi":5070,"ĠPerdagangan":5071,"real":5072,"udahkan":5073,"asilitasi":5074,"Ġkereta":5075,"Ġdikenakan":5076,"2022":5077,"anitia":5078,"Ġdiskusi":5079,"unyai":5080,"agang":5081,"ows":5082,"resh":5083,"Ġpesepak":5084,"elasan":5085,"Ġizin":5086,"inginan":5087,"Ġdilaporkan":5088,"Ġ2016":5089,"Ġ80":5090,"akhiri":5091,"latul":5092,"Ġmengakui":5093,"Ġanggaran":5094,"Ġprosesor":5095,"Ġmempunyai":5096,"anker":5097,"Ġmanaj":5098,"Ġisu":5099,"aliknya":5100,"Ġiklan":5101,"krim":5102,"Ġintensi":5103,"âĢĭâĢĭâĢĭâĢĭâĢĭâĢĭ":5104,"Ġgerai":5105,"ĠMonaco":5106,"Ġmengingatkan":5107,"Ġevaluasi":5108,"ĠPendidikan":5109,"ĠGaruda":5110,"ĠLyon":5111,"Ġtorehan":5112,"Ġhijau":5113,"ĠPutra":5114,"Ġbanget":5115,"ĠAshariEditor":5116,"hawatiran":5117,"ĠHakim":5118,"Ġmembagikan":5119,"Ġsuhu":5120,"ĠEntertainment":5121,"40":5122,"An":5123,"Di":5124,"GP":5125,"Men":5126,"OTA":5127,"SM":5128,"ajak":5129,"bour":5130,"egal":5131,"hy":5132,"ior":5133,"leksi":5134,"oti":5135,"rut":5136,"so":5137,"vok":5138,"wat":5139,"yev":5140,"¸ı":5141,"ï¸ı":5142,"Ġah":5143,"ergi":5144,"Ġmati":5145,"Ġmarkas":5146,"Ġpilih":5147,"Ġpikir":5148,"ato":5149,"Ġkiri":5150,"Ġkanker":5151,"Ġbelanja":5152,"oner":5153,"Ġseluas":5154,"Ġseiring":5155,"ahi":5156,"ĠPulau":5157,"ĠAwan":5158,"Ġberencana":5159,"Ġberukuran":5160,"Ġberwarna":5161,"ĠMur":5162,"ĠMoto":5163,"ĠMantan":5164,"aptasi":5165,"ĠKlub":5166,"Ġperistiwa":5167,"usnya":5168,"uruan":5169,"asif":5170,"tiga":5171,"Ġmemad":5172,"Ġmemakai":5173,"Ġmemecahkan":5174,"Ġjual":5175,"elap":5176,"ĠIk":5177,"irian":5178,"ĠTri":5179,"ĠTMII":5180,"umas":5181,"ĠCop":5182,"ĠCarl":5183,"ĠJef":5184,"ular":5185,"ĠLangkah":5186,"andalkan":5187,"Ġgem":5188,"uting":5189,"utanan":5190,"ĠNik":5191,"ĠNey":5192,"ĠHang":5193,"ĠHend":5194,"ĠFujian":5195,"Ġmeres":5196,"ĠUkraina":5197,"ĠEr":5198,"Ġpembuatan":5199,"Ġpengelola":5200,"Ġajak":5201,"ĠOff":5202,"ĠOne":5203,"Ġmenyenangkan":5204,"Ġataupun":5205,"ĠChristi":5206,"ĠAnt":5207,"ĠAnwar":5208,"Ġmelibatkan":5209,"Ġvisi":5210,"Ġkedudukan":5211,"Ġkerugi":5212,"ĠMenpora":5213,"ĠProf":5214,"bakar":5215,"osisi":5216,"Ġpenyer":5217,"Ġterbang":5218,"ĠSejak":5219,"ĠSherina":5220,"Ġkalian":5221,"Ġtrad":5222,"Ġdiluncurkan":5223,"ebutkan":5224,"Ġkonsol":5225,"ĠKominfo":5226,"Ġdiperlukan":5227,"Ġpengganti":5228,"avorit":5229,"Ġdidatangkan":5230,"ĠTerima":5231,"ĠMenurutnya":5232,"ĠFaish":5233,"entukan":5234,"Ġgelaran":5235,"Ġkompon":5236,"999":5237,"ĠBellingham":5238,"ĠSoci":5239,"ĠYoung":5240,"Ġdijadwalkan":5241,"ĠInternasional":5242,"ĠDuta":5243,"Ġdikonfirmasi":5244,"ĠMuslim":5245,"ĠPrix":5246,"ĠBursa":5247,"ĠNahd":5248,"Ġstabil":5249,"ĠAMD":5250,"ĠTeknologi":5251,"Ġmengejar":5252,"Ġvirtual":5253,"Ġkandungan":5254,"ĠPetualangan":5255,"frika":5256,"jasama":5257,"ĠBrazil":5258,"Ġahli":5259,"ĠNeymar":5260,"Ġkerugian":5261,"ĠFaishal":5262,"78":5263,"AI":5264,"HSG":5265,"NE":5266,"bit":5267,"dayaan":5268,"hai":5269,"hana":5270,"oper":5271,"sur":5272,"warkan":5273,"yang":5274,"ze":5275,"Ã©":5276,"Ġikuti":5277,"Ġukuran":5278,"Ġpin":5279,"Ġpil":5280,"Ġsub":5281,"Ġsutradara":5282,"anggi":5283,"Ġkun":5284,"Ġkantor":5285,"Ġbiru":5286,"Ġtangga":5287,"sit":5288,"sidi":5289,"emudi":5290,"Ġdijual":5291,"Ġdiambil":5292,"ĠSula":5293,"ĠSandia":5294,"ahlawan":5295,"ĠAkan":5296,"ĠBant":5297,"ĠBantu":5298,"ĠBTS":5299,"ĠBumi":5300,"Ġbertanding":5301,"Ġpergi":5302,"Ġterima":5303,"Ġterbakar":5304,"ily":5305,"iland":5306,"urt":5307,"Ġmemudahkan":5308,"ĠDe":5309,"ĠDar":5310,"ĠDem":5311,"ĠDim":5312,"ĠDaniel":5313,"ĠRy":5314,"ĠRob":5315,"ĠRober":5316,"Ġmengandung":5317,"Ġinstan":5318,"ĠJul":5319,"ĠJos":5320,"ĠJaf":5321,"Ġrep":5322,"Ġreal":5323,"ĠLos":5324,"ĠLith":5325,"ataan":5326,"ando":5327,"uduki":5328,"ĠGedung":5329,"ebr":5330,"edik":5331,"Ġgo":5332,"Ġgula":5333,"ĠHas":5334,"ĠFind":5335,"ĠIndustri":5336,"ĠIndoro":5337,"Ġjatuh":5338,"Ġwith":5339,"ĠWater":5340,"ĠWilayah":5341,"ends":5342,"Ġmelainkan":5343,"tris":5344,"Ġmenyerang":5345,"ative":5346,"osan":5347,"ipoti":5348,"ayu":5349,"Ġpersahabatan":5350,"Ġmelengkapi":5351,"Ġgas":5352,"Ġgaun":5353,"uania":5354,"hadapan":5355,"onsumsi":5356,"Ġkematian":5357,"ĠYogyakarta":5358,"ĠZh":5359,"Ġsayap":5360,"Ġ44":5361,"Ġanti":5362,"ĠMarcel":5363,"ĠMarket":5364,"ĠSetiap":5365,"Ġdibangun":5366,"ĠBerita":5367,"Ġmembuatnya":5368,"ĠPolres":5369,"ĠApril":5370,"angkau":5371,"lash":5372,"Ġberpeluang":5373,"Ġpelajar":5374,"estari":5375,"Ġarus":5376,"Ġdiperkuat":5377,"Ġditingkatkan":5378,"eksp":5379,"Ġmemasukkan":5380,"istrasi":5381,"bank":5382,"ĠPengguna":5383,"Ġkursi":5384,"Ġobor":5385,"Ġumur":5386,"Ġdinilai":5387,"Ġkalangan":5388,"ĠLionel":5389,"Ġhukuman":5390,"Ġucapnya":5391,"ĠMedved":5392,"Ġsenior":5393,"ĠSantoso":5394,"Ġmeninggalkan":5395,"Ġmaraton":5396,"Ġsaluran":5397,"Ġmengingat":5398,"ĠWidodo":5399,"daknya":5400,"echn":5401,"ĠIbnu":5402,"eritakan":5403,"Ġmenempati":5404,"ĠSilva":5405,"ĠOppo":5406,"Ġdiadakan":5407,"ĠRodri":5408,"ĠLatvia":5409,"Ġpenelitian":5410,"ĠBBM":5411,"Ġklasik":5412,"Ġmenjuarai":5413,"ĠLibya":5414,"Ġgangguan":5415,"ĠNahdlatul":5416,"ĠSandiaga":5417,"ĠLithuania":5418,"ĠIndorock":5419,"ipotiroid":5420,"ĠMedvedev":5421,"38":5422,"KB":5423,"KP":5424,"LO":5425,"ajuan":5426,"dan":5427,"fitur":5428,"kus":5429,"kota":5430,"lih":5431,"ou":5432,"yukur":5433,"Ġ????????":5434,"Ġdingin":5435,"aren":5436,"Ġmir":5437,"Ġmatang":5438,"Ġpe":5439,"Ġpita":5440,"Ġpec":5441,"Ġpark":5442,"Ġpuas":5443,"inting":5444,"Ġsingkat":5445,"Ġkabar":5446,"Ġkisah":5447,"akkan":5448,"akah":5449,"Ġtindakan":5450,"emas":5451,"Ġdialami":5452,"adinya":5453,"ĠSub":5454,"ĠSidik":5455,"ĠPekan":5456,"ĠAv":5457,"ĠBan":5458,"ora":5459,"Ġbertu":5460,"Ġberhadapan":5461,"ikri":5462,"ĠMP":5463,"ĠMi":5464,"ĠKud":5465,"Ġperse":5466,"Ġtertahan":5467,"ilater":5468,"urus":5469,"uruk":5470,"Ġmemori":5471,"Ġhid":5472,"Ġhalaman":5473,"ĠDev":5474,"ektivitas":5475,"Ġlengkap":5476,"Ġliter":5477,"Ġund":5478,"Ġunik":5479,"iminal":5480,"ĠRun":5481,"Ġmengar":5482,"Ġmengec":5483,"Ġmengirim":5484,"ĠCA":5485,"ĠCak":5486,"ĠCall":5487,"ĠJus":5488,"omatis":5489,"ĠLew":5490,"ĠLisa":5491,"ĠHU":5492,"ĠHans":5493,"ĠFold":5494,"Ġmerayakan":5495,"Ġfavorit":5496,"Ġcuma":5497,"Ġmenjelang":5498,"Ġmenjamu":5499,"Ġjo":5500,"ĠWest":5501,"Ġpengetahuan":5502,"Ġtimur":5503,"ĠPertandingan":5504,"ekaan":5505,"Ġ31":5506,"Ġ34":5507,"entari":5508,"ilal":5509,"Ġmencakup":5510,"Ġseksu":5511,"Ġsetara":5512,"dium":5513,"ambang":5514,"eragam":5515,"Ġmemperluas":5516,"ĠAldi":5517,"uncur":5518,"Ġ46":5519,"ĠMarat":5520,"ĠMaroko":5521,"Ġdisabilitas":5522,"ĠUndang":5523,"ĠPener":5524,"ĠShang":5525,"Ġkecantikan":5526,"hailand":5527,"integrasi":5528,"Ġkonsep":5529,"baiki":5530,"Ġdepannya":5531,"Ġpremi":5532,"ĠKepa":5533,"ĠKepolisian":5534,"Ġtransaksi":5535,"Ġkekhawatiran":5536,"Ġstriker":5537,"Ġmemasuki":5538,"ĠMario":5539,"Ġpencapaian":5540,"Ġmenerapkan":5541,"Ġ2008":5542,"erdasan":5543,"Ġmateri":5544,"ĠSekretaris":5545,"Ġfestival":5546,"engaruhi":5547,"ĠSwift":5548,"Ġotot":5549,"entitas":5550,"ĠTransfer":5551,"ĠKTT":5552,"Ġterhubung":5553,"adahal":5554,"Ġbarel":5555,"ĠDepartemen":5556,"ĠUsaha":5557,"ĠMulti":5558,"Ġmemerlukan":5559,"Ġperjuangan":5560,"abrizio":5561,"Ġefisiensi":5562,"Ġstartup":5563,"ĠTetapi":5564,"ĠGuangxi":5565,"ield":5566,"Ġmemfasilitasi":5567,"Ġsyuting":5568,"ĠTaiwan":5569,"ĠPremier":5570,"irkuit":5571,"//":5572,"://":5573,"Hz":5574,"ON":5575,"RT":5576,"Th":5577,"The":5578,"XPO":5579,"bangan":5580,"dilan":5581,"hal":5582,"jolan":5583,"nografi":5584,"oul":5585,"satunya":5586,"tps":5587,"uit":5588,"Ġul":5589,"ering":5590,"Ġmand":5591,"Ġmisalnya":5592,"Ġsol":5593,"Ġsila":5594,"Ġsilang":5595,"Ġsambil":5596,"Ġbutu":5597,"Ġtadi":5598,"sik":5599,"Ġdiman":5600,"Ġdibagi":5601,"gaman":5602,"amanya":5603,"onc":5604,"oni":5605,"ĠSl":5606,"ĠSatu":5607,"ĠSDM":5608,"asang":5609,"ĠPo":5610,"ĠPed":5611,"ĠAfrika":5612,"ello":5613,"ĠBanyak":5614,"Ġkeuangan":5615,"Ġkeuntungan":5616,"ingatan":5617,"ĠMend":5618,"ĠMuda":5619,"ĠMoham":5620,"ĠKond":5621,"ĠKJRI":5622,"aria":5623,"Ġmemegang":5624,"Ġjudi":5625,"itan":5626,"ĠDaya":5627,"ĠDewan":5628,"Ġlimfoma":5629,"imbau":5630,"ĠTiga":5631,"ĠTNI":5632,"Ġmengend":5633,"ĠCip":5634,"Ġre":5635,"Ġrup":5636,"ĠLima":5637,"etan":5638,"ĠGinting":5639,"edakan":5640,"Ġgen":5641,"ĠNugr":5642,"ric":5643,"upuk":5644,"Ġng":5645,"Ġfil":5646,"Ġfot":5647,"Ġjasa":5648,"Ġwe":5649,"uaw":5650,"ĠEko":5651,"otakan":5652,"abila":5653,"iani":5654,"iano":5655,"Ġmelaporkan":5656,"Ġagama":5657,"Ġmenyarankan":5658,"iputi":5659,"ĠPerm":5660,"Ġadegan":5661,"Ġmeliputi":5662,"ĠVen":5663,"Ġkedatangan":5664,"Ġproduktif":5665,"Ġdikembangkan":5666,"ĠAll":5667,"Ġdisambut":5668,"Ġdiserta":5669,"ĠBersama":5670,"abuan":5671,"ĠBarca":5672,"intangi":5673,"Ġpenduduk":5674,"ĠMane":5675,"tivasi":5676,"Ġmenghilangkan":5677,"Ġ2010":5678,"Ġdiperdag":5679,"ardo":5680,"tarik":5681,"Ġdiminta":5682,"umuman":5683,"Ġtransp":5684,"arisan":5685,"Ġpenggemarnya":5686,"ujung":5687,"umpang":5688,"Ġstatistik":5689,"Ġdihubungi":5690,"ĠKaltim":5691,"ĠStadium":5692,"Ġperkiraan":5693,"trait":5694,"Ġinfeksi":5695,"Ġinovatif":5696,"Ġtercipta":5697,"Ġkomunikasi":5698,"ĠSainz":5699,"box":5700,"Ġdihadiri":5701,"ootball":5702,"Ġefektif":5703,"ĠIlham":5704,"Ġbrand":5705,"Ġditawarkan":5706,"Ġprestasi":5707,"Ġdiraih":5708,"icial":5709,"Ġdidapatkan":5710,"ĠMasterson":5711,"encanakan":5712,"ĠBorus":5713,"Ġkekeringan":5714,"Ġelektronik":5715,"ernandez":5716,"ĠStore":5717,"Ġpelaksanaan":5718,"ĠGroup":5719,"ĠPetenis":5720,"bayaran":5721,"ĠCarlos":5722,"ĠRyzen":5723,"ĠJafar":5724,"ilateral":5725,"Ġseksual":5726,"ĠMarathon":5727,"Ġpremium":5728,"Ġdisertai":5729,"Ġdiperdagangkan":5730,"BS":5731,"EXPO":5732,"Fi":5733,"HL":5734,"Per":5735,"Se":5736,"SIM":5737,"iat":5738,"ke":5739,"ken":5740,"lar":5741,"mu":5742,"outh":5743,"yu":5744,"yana":5745,"yangkan":5746,"erasi":5747,"entikan":5748,"Ġdokumen":5749,"Ġpip":5750,"Ġsat":5751,"Ġsun":5752,"Ġsuper":5753,"Ġkul":5754,"Ġklik":5755,"Ġth":5756,"sip":5757,"untu":5758,"Ġdiisi":5759,"Ġmenjual":5760,"alih":5761,"ĠSis":5762,"ĠPan":5763,"ĠAward":5764,"ĠBot":5765,"Ġberani":5766,"iko":5767,"ĠML":5768,"ĠMun":5769,"ĠMini":5770,"esliga":5771,"asit":5772,"Ġjudul":5773,"Ġhot":5774,"Ġhilang":5775,"oll":5776,"ĠDy":5777,"ĠDiv":5778,"ĠDewa":5779,"eku":5780,"ekali":5781,"Ġ29":5782,"Ġlihat":5783,"Ġliburan":5784,"Ġlomba":5785,"ĠRay":5786,"ĠRiv":5787,"ĠRich":5788,"ĠRiau":5789,"ĠJe":5790,"uku":5791,"Ġrum":5792,"ome":5793,"ĠLuc":5794,"ĠLintas":5795,"Ġpenjaga":5796,"ĠGeta":5797,"ĠGlobal":5798,"ĠFI":5799,"Ġnar":5800,"Ġcerah":5801,"Ġmenjalin":5802,"Ġwasit":5803,"ĠEmp":5804,"ĠWali":5805,"Ġpemegang":5806,"Ġpembayaran":5807,"antang":5808,"Ġpengumuman":5809,"ianjur":5810,"isih":5811,"isial":5812,"Ġmemben":5813,"Ġmembentuk":5814,"Ġmenyaksikan":5815,"Ġmenduduki":5816,"oser":5817,"ubes":5818,"ĠPertam":5819,"day":5820,"Ġ38":5821,"dukkan":5822,"Ġmelatih":5823,"Ġmelindungi":5824,"Ġmeluncur":5825,"Ġgabung":5826,"yarat":5827,"Ġkepem":5828,"anggar":5829,"ove":5830,"ovasi":5831,"Ġmempercepat":5832,"Ġmemperebutkan":5833,"Ġproduktivitas":5834,"Ġseluler":5835,"ector":5836,"mbat":5837,"osikan":5838,"ĠMaret":5839,"Ġdiproduksi":5840,"Ġpendapatan":5841,"Ġpembaruan":5842,"tive":5843,"Ġhalus":5844,"Ġ2017":5845,"estina":5846,"mpu":5847,"ĠLaura":5848,"comm":5849,"Ġterbaiknya":5850,"ĠSebanyak":5851,"Ġrekaman":5852,"ĠQual":5853,"Ġjalannya":5854,"Ġbersiap":5855,"ASEAN":5856,"Ġidentitas":5857,"ĠPON":5858,"Ġmemperkirakan":5859,"Ġotomotif":5860,"Ġotomatis":5861,"Ġdebutnya":5862,"ĠKonferensi":5863,"elajari":5864,"elajaran":5865,"Ġassists":5866,"budayaan":5867,"romosikan":5868,"ĠNusa":5869,"Ġregulasi":5870,"lorasi":5871,"ĠLukaku":5872,"Ġpendekatan":5873,"ĠDito":5874,"jadian":5875,"Ġdipastikan":5876,"ĠBajo":5877,"ĠBekasi":5878,"ĠKunis":5879,"ĠLegends":5880,"inhua":5881,"Ġinisiatif":5882,"Ġparkir":5883,"ĠKudus":5884,"Ġmandiri":5885,"Ġdimanfaatkan":5886,"ĠGetafe":5887,"ĠPertamina":5888,"09":5889,"73":5890,"AN":5891,"CS":5892,"Con":5893,"GT":5894,"KJ":5895,"Kemen":5896,"Laren":5897,"OS":5898,"PT":5899,"Pod":5900,"St":5901,"TE":5902,"US":5903,"bilitas":5904,"cast":5905,"des":5906,"ganya":5907,"hasilan":5908,"ique":5909,"lemen":5910,"mara":5911,"madi":5912,"minya":5913,"nama":5914,"oem":5915,"oalan":5916,"rari":5917,"sediaan":5918,"vitas":5919,"ery":5920,"eni":5921,"Ġdel":5922,"Ġdek":5923,"Ġdef":5924,"arunya":5925,"Ġmet":5926,"Ġpimpinan":5927,"Ġsl":5928,"Ġkabel":5929,"akwa":5930,"Ġbilateral":5931,"Ġtemp":5932,"Ġtanda":5933,"sipasi":5934,"unkan":5935,"Ġdiaman":5936,"Ġditambah":5937,"Ġmenaik":5938,"adem":5939,"ador":5940,"aduan":5941,"alog":5942,"amera":5943,"onic":5944,"Ġsebaga":5945,"Ġseusai":5946,"ĠPul":5947,"ĠPres":5948,"ĠAP":5949,"elis":5950,"ĠBam":5951,"ĠBola":5952,"ĠBukan":5953,"ĠBig":5954,"ĠBanda":5955,"ĠBPBD":5956,"Ġberi":5957,"Ġberak":5958,"Ġberisi":5959,"Ġbertujuan":5960,"ikahan":5961,"ĠMich":5962,"apar":5963,"isk":5964,"alas":5965,"ĠKC":5966,"ĠKa":5967,"Ġterang":5968,"asia":5969,"its":5970,"ĠDel":5971,"ĠDubes":5972,"arab":5973,"ĠRM":5974,"ĠRad":5975,"ĠRub":5976,"ĠRaf":5977,"ĠRalph":5978,"ĠCor":5979,"ĠJer":5980,"Ġrata":5981,"Ġrate":5982,"Ġ2000":5983,"oman":5984,"ominasi":5985,"ĠInformasi":5986,"Ġdaripada":5987,"roses":5988,"etz":5989,"etis":5990,"etnam":5991,"andal":5992,"ĠGul":5993,"ĠGener":5994,"ĠNas":5995,"ĠNap":5996,"ĠHind":5997,"ĠFE":5998,"ampus":5999,"Ġmerebut":6000,"seille":6001,"Ġcel":6002,"Ġcontoh":6003,"ĠUE":6004,"ĠUV":6005,"Ġjenama":6006,"ewas":6007,"alahkan":6008,"Ġpengiriman":6009,"endo":6010,"angkapan":6011,"ĠâĢĭ":6012,"yakini":6013,"Ġkongen":6014,"Ġdapatkan":6015,"ĠPerh":6016,"ĠPeraturan":6017,"ĠCharl":6018,"Ġpersa":6019,"Ġseks":6020,"icu":6021,"Ġkepolisian":6022,"dies":6023,"Ġberkes":6024,"ĠVir":6025,"Ġberseragam":6026,"Ġasuhnya":6027,"ford":6028,"Ġdikeluarkan":6029,"ĠAlv":6030,"Ġresolusi":6031,"Ġresminya":6032,"ĠArda":6033,"uardi":6034,"ĠMartin":6035,"ĠMarseille":6036,"ĠKebudayaan":6037,"Ġbeban":6038,"gust":6039,"Ġterbarunya":6040,"Ġkesan":6041,"igh":6042,"antisipasi":6043,"agli":6044,"Ġkecerdasan":6045,"Ġsiang":6046,"Ġialah":6047,"Ġmembawakan":6048,"ĠKomite":6049,"Ġapik":6050,"Ġberpend":6051,"Ġ08":6052,"Ġpantai":6053,"Ġmenghindari":6054,"Ġtersebar":6055,"Ġketersediaan":6056,"Ġminum":6057,"Ġpernikahan":6058,"babkan":6059,"Ġditetapkan":6060,"Ġmengakses":6061,"likasikan":6062,"anyakan":6063,"Ġinternal":6064,"Ġinternet":6065,"Ġsiswa":6066,"ancam":6067,"Ġimpor":6068,"Ġterkena":6069,"Ġterkenal":6070,"ĠSteam":6071,"ĠHaag":6072,"awatir":6073,"antau":6074,"Ġdinam":6075,"Ġagensi":6076,"aksimalkan":6077,"aksud":6078,"aksono":6079,"ĠEdy":6080,"Ġinflasi":6081,"eyang":6082,"Ġmatch":6083,"Ġlembut":6084,"ĠHarry":6085,"ĠPBNU":6086,"Ġpetern":6087,"Ġpenerbangan":6088,"engaruh":6089,"ĠNewcast":6090,"ĠAustr":6091,"PSG":6092,"ĠPalembang":6093,"ĠPalestina":6094,"ĠSimons":6095,"ĠPersatuan":6096,"ĠKTP":6097,"ĠComm":6098,"ĠKasoem":6099,"Ġrefresh":6100,"ĠFrank":6101,"ĠPearly":6102,"ĠAKHL":6103,"etron":6104,"Ġtertinggal":6105,"Ġplayoff":6106,"ĠPaul":6107,"ĠForum":6108,"ĠSehingga":6109,"ĠBundesliga":6110,"vokal":6111,"ĠMotoGP":6112,"Ġkomponen":6113,"ĠSocied":6114,"ĠCakra":6115,"ĠShanghai":6116,"Ġsilam":6117,"ĠBorussia":6118,"ĠQualcomm":6119,"Pods":6120,"Ġdiamankan":6121,"agliari":6122,"ĠNewcastle":6123,"ĠAKHLAK":6124,"53":6125,"68":6126,"69":6127,"EN":6128,"KC":6129,"PD":6130,"bek":6131,"back":6132,"can":6133,"fat":6134,"ie":6135,"iasaan":6136,"nan":6137,"olahraga":6138,"pem":6139,"pop":6140,"screen":6141,"tel":6142,"Ġâ":6143,"Ġilm":6144,"Ġumumkan":6145,"enom":6146,"Ġdo":6147,"Ġdetail":6148,"Ġmar":6149,"Ġmelah":6150,"Ġmimpi":6151,"Ġmikro":6152,"Ġpay":6153,"atori":6154,"ink":6155,"Ġsolo":6156,"Ġkain":6157,"Ġkampung":6158,"akaran":6159,"Ġbila":6160,"Ġbangkit":6161,"Ġtaman":6162,"eman":6163,"unda":6164,"als":6165,"amat":6166,"ameyang":6167,"ĠSM":6168,"ĠSky":6169,"Ġsegi":6170,"ĠAub":6171,"ĠBL":6172,"ĠBung":6173,"ĠBro":6174,"Ġberse":6175,"Ġberawan":6176,"Ġkeenam":6177,"ingle":6178,"isar":6179,"esm":6180,"ĠKend":6181,"ĠKaz":6182,"Ġperingatan":6183,"Ġterm":6184,"Ġteratas":6185,"aribu":6186,"tie":6187,"ĠDek":6188,"ĠData":6189,"ĠDOTA":6190,"irmala":6191,"Ġunsur":6192,"imer":6193,"ĠTO":6194,"Ġmenguc":6195,"Ġmengandalkan":6196,"ĠCitar":6197,"Ġins":6198,"Ġinti":6199,"Ġinves":6200,"ĠJA":6201,"acara":6202,"ull":6203,"ulunya":6204,"omas":6205,"ĠLas":6206,"andeng":6207,"andra":6208,"ĠGus":6209,"ebasan":6210,"Ġ2026":6211,"edaan":6212,"uto":6213,"ĠNTT":6214,"ĠNirmala":6215,"ĠFak":6216,"ĠFadia":6217,"embus":6218,"Ġcap":6219,"Ġcamp":6220,"Ġjadwal":6221,"Ġwater":6222,"ĠEur":6223,"ĠWic":6224,"Ġpengaturan":6225,"ĠOb":6226,"ĠPerc":6227,"gunaan":6228,"awal":6229,"anggulangan":6230,"Ġkemudahan":6231,"Ġkemajuan":6232,"ovo":6233,"2019":6234,"ĠKegiatan":6235,"Ġnegatif":6236,"ĠBerlin":6237,"Ġbersamaan":6238,"ogan":6239,"Ġseder":6240,"Ġsentral":6241,"ago":6242,"Ġpendamp":6243,"Ġsiapa":6244,"Ġsiapkan":6245,"Ġpembeli":6246,"Ġhadapi":6247,"Ġkhawatir":6248,"Ġskema":6249,"ĠKombes":6250,"Ġindah":6251,"ĠKemenparekraf":6252,"Ġjutaan":6253,"Ġsekitarnya":6254,"kaitan":6255,"Ġpolisi":6256,"hamdul":6257,"ezu":6258,"ĠMasyarakat":6259,"Ġpencetak":6260,"Ġsisa":6261,"Ġandalan":6262,"Ġtingkatkan":6263,"Ġmemproduksi":6264,"Ġmempelajari":6265,"Ġmempromosikan":6266,"Ġbakteri":6267,"Ġpenampilannya":6268,"Ġmewah":6269,"Ġbermarkas":6270,"oroti":6271,"karmat":6272,"ĠPenyerang":6273,"ĠRahman":6274,"Ġgerakan":6275,"alenta":6276,"Undang":6277,"ology":6278,"ejala":6279,"Ġdiakses":6280,"ĠSultanEditor":6281,"ĠAmbon":6282,"markt":6283,"ĠLayanan":6284,"ĠWireEditor":6285,"eorologi":6286,"Ġpenjara":6287,"ulihan":6288,"prov":6289,"ĠAugust":6290,"Ġsarana":6291,"ĠNanning":6292,"Ġtarif":6293,"ĠDavid":6294,"Ġkonflik":6295,"Ġmanajemen":6296,"Ġintensitas":6297,"bourne":6298,"ĠHangzhou":6299,"ĠHendri":6300,"Ġpenyerapan":6301,"ediksi":6302,"ĠTransfermarkt":6303,"ĠMLBB":6304,"Ġkongenital":6305,"ĠCharles":6306,"enomena":6307,"Ġmelahirkan":6308,"ĠAubameyang":6309,"Ġbersejarah":6310,"ĠCitarum":6311,"ĠWicaksono":6312,"hamdulillah":6313,"32":6314,"49":6315,"60":6316,"Hilal":6317,"IA":6318,"II":6319,"Ku":6320,"Pers":6321,"SD":6322,"TB":6323,"WI":6324,"XGT":6325,"ced":6326,"eat":6327,"jin":6328,"kot":6329,"nilai":6330,"rol":6331,"ttps":6332,"wo":6333,"wali":6334,"Ġx":6335,"Ġur":6336,"Ġok":6337,"ananya":6338,"enga":6339,"Ġme":6340,"Ġmm":6341,"Ġmurah":6342,"Ġpidana":6343,"Ġpajak":6344,"atek":6345,"inda":6346,"Ġsup":6347,"Ġsayang":6348,"Ġsimb":6349,"Ġbend":6350,"Ġtal":6351,"Ġtawaran":6352,"Ġtalenta":6353,"Ġmenunggu":6354,"amin":6355,"ĠSP":6356,"ĠSev":6357,"ĠSpesi":6358,"ĠPok":6359,"ĠPupuk":6360,"ĠAT":6361,"ĠAur":6362,"ĠBala":6363,"ĠBill":6364,"ĠBCA":6365,"Ġberunt":6366,"Ġberolahraga":6367,"Ġberkaitan":6368,"Ġkeadaan":6369,"Ġkejadian":6370,"ike":6371,"ikah":6372,"ikel":6373,"ĠMir":6374,"ĠMali":6375,"Ġpertahankan":6376,"uring":6377,"Ġmemahami":6378,"elak":6379,"Ġhipotiroid":6380,"Ġhttps":6381,"ĠIvar":6382,"ekatan":6383,"irk":6384,"irona":6385,"ĠRakyat":6386,"ĠRAP":6387,"ĠTa":6388,"ĠThailand":6389,"ungg":6390,"Ġmengk":6391,"Ġmenguas":6392,"Ġmengimbau":6393,"Ġmengancam":6394,"ĠCianjur":6395,"ĠCagliari":6396,"ĠJen":6397,"ukum":6398,"acket":6399,"Ġrangk":6400,"Ġ2030":6401,"ĠGarn":6402,"ebak":6403,"Ġgro":6404,"Ġgaris":6405,"ĠNint":6406,"ĠNassr":6407,"adiun":6408,"ĠHon":6409,"ĠHuaw":6410,"Ġbaju":6411,"Ġwadah":6412,"ews":6413,"raja":6414,"ĠEks":6415,"ĠWal":6416,"Ġpeman":6417,"endiri":6418,"Ġprot":6419,"Ġakrab":6420,"Ġkonektivitas":6421,"ĠPerse":6422,"ĠPeretz":6423,"Ġmelanggar":6424,"awasan":6425,"uansa":6426,"Ġberkari":6427,"Ġbersyukur":6428,"Ġkemitraan":6429,"Ġkemeja":6430,"oven":6431,"Ġselisih":6432,"2020":6433,"ĠMarco":6434,"Ġdisapa":6435,"Ġkeselamatan":6436,"ĠPenj":6437,"ajal":6438,"Ġsensor":6439,"ĠPemprov":6440,"ĠManila":6441,"Ġsepakat":6442,"Ġapakah":6443,"Ġkebiasaan":6444,"ĠKemenkes":6445,"Ġalih":6446,"Ġ2014":6447,"estik":6448,"estyle":6449,"Ġteknis":6450,"Ġsaing":6451,"ĠLauren":6452,"wiatek":6453,"Ġminuman":6454,"ekstur":6455,"afe":6456,"Ġmengakibatkan":6457,"ourn":6458,"lox":6459,"ĠPasaribu":6460,"Ġsosialisasi":6461,"atural":6462,"ĠSemarang":6463,"ordan":6464,"ĠArie":6465,"Ġmobilitas":6466,"ĠSamsat":6467,"NIQ":6468,"ĠBeijing":6469,"Ġbermotor":6470,"ĠAngg":6471,"ĠKediri":6472,"tein":6473,"PUP":6474,"ĠHarapan":6475,"Ġpenerapan":6476,"Ġbertanggung":6477,"angsaan":6478,"Ġtembus":6479,"Ġmenyamakan":6480,"egasi":6481,"ĠIndrawan":6482,"ĠMalut":6483,"ship":6484,"ĠVietnam":6485,"ohonan":6486,"Ġperjudian":6487,"ĠOlympique":6488,"esuaikan":6489,"PMG":6490,"ĠABK":6491,"Ġgigi":6492,"Ġmenaklukkan":6493,"ĠJohn":6494,"ĠBusiness":6495,"Ġdisebabkan":6496,"ĠMuryono":6497,"anggih":6498,"ĠRoblox":6499,"echnology":6500,"Ġultra":6501,"Ġkuliner":6502,"Ġhotel":6503,"lementasi":6504,"Ġmenaikkan":6505,"ĠBigetron":6506,"ĠNapoli":6507,"ĠAlviansyah":6508,"Ġberpendapat":6509,"Ġmengucapkan":6510,"ezuela":6511,"Ġsimbol":6512,"Ġberuntun":6513,"Ġmenguasai":6514,"ĠNintendo":6515,"ĠHuawei":6516,"46":6517,"500":6518,"77":6519,"BP":6520,"EC":6521,"IZ":6522,"NF":6523,"NM":6524,"ct":6525,"cak":6526,"cal":6527,"dana":6528,"fet":6529,"jib":6530,"ool":6531,"rutan":6532,"yor":6533,"Ġurut":6534,"anusia":6535,"ene":6536,"ary":6537,"arya":6538,"Ġpindah":6539,"Ġpanitia":6540,"injau":6541,"angku":6542,"Ġkos":6543,"Ġbo":6544,"Ġbasis":6545,"Ġbulu":6546,"Ġbeli":6547,"Ġtit":6548,"Ġteg":6549,"site":6550,"emouth":6551,"unting":6552,"unyi":6553,"Ġdiga":6554,"Ġdianggap":6555,"Ġmenahan":6556,"Ġmenarget":6557,"Ġmenembus":6558,"onya":6559,"ĠSari":6560,"ĠSom":6561,"ĠSkuad":6562,"ĠSwiatek":6563,"asinya":6564,"ĠPak":6565,"ĠPresi":6566,"ĠAj":6567,"ĠAwal":6568,"ĠAji":6569,"ĠAgam":6570,"ĠBNI":6571,"ĠBlack":6572,"ĠBourn":6573,"Ġberangkat":6574,"Ġketahanan":6575,"ikon":6576,"ĠMic":6577,"ĠMadiun":6578,"esla":6579,"ĠKag":6580,"Ġperila":6581,"Ġterin":6582,"Ġterny":6583,"ust":6584,"tib":6585,"Ġhere":6586,"itung":6587,"ĠDilan":6588,"ekad":6589,"Ġlebat":6590,"Ġluring":6591,"ĠRiset":6592,"ĠTu":6593,"ĠTor":6594,"ĠTentu":6595,"ĠTiket":6596,"unggah":6597,"ĠCl":6598,"ĠCadi":6599,"ĠCow":6600,"ĠJud":6601,"acu":6602,"Ġrapat":6603,"Ġriset":6604,"gio":6605,"uluh":6606,"ĠLog":6607,"bayar":6608,"rot":6609,"uddin":6610,"ĠGas":6611,"ĠGov":6612,"ebarkan":6613,"ebook":6614,"edit":6615,"Ġguru":6616,"ĠNCT":6617,"ĠHead":6618,"ĠFabrizio":6619,"ampG":6620,"Ġnamanya":6621,"Ġmerusak":6622,"Ġfungsi":6623,"Ġcitra":6624,"ĠEA":6625,"Ġpemad":6626,"Ġpemas":6627,"Ġpemulihan":6628,"Ġpemangku":6629,"antik":6630,"Ġpengusaha":6631,"Ġayat":6632,"Ġprotein":6633,"ĠâĢĺ":6634,"Ġmenyesuaikan":6635,"Ġtahunnya":6636,"ĠPerju":6637,"ĠChrom":6638,"inaan":6639,"enting":6640,"ayangan":6641,"ĠVic":6642,"erazz":6643,"Ġ512":6644,"Ġaset":6645,"ĠAld":6646,"ĠAlmer":6647,"Ġ48":6648,"ĠASIC":6649,"ĠASUS":6650,"Ġrestor":6651,"Ġkomedi":6652,"2017":6653,"2021":6654,"tifkan":6655,"Ġharian":6656,"evan":6657,"ĠKeuangan":6658,"Ġdibekali":6659,"Ġpasang":6660,"Ġpastikan":6661,"igo":6662,"ĠPenang":6663,"ajah":6664,"ĠSeluruh":6665,"Ġdipakai":6666,"lix":6667,"Ġdilihat":6668,"Ġkonsumsi":6669,"Ġapresiasi":6670,"erintahan":6671,"Ġterjadinya":6672,"Ġunggahan":6673,"Ġberlari":6674,"Ġpantas":6675,"Ġtersendiri":6676,"Ġartis":6677,"Ġminat":6678,"ĠAsosiasi":6679,"Ġmodal":6680,"ĠDirector":6681,"Ġeksklusif":6682,"ĠPram":6683,"eetie":6684,"Ġlanjutnya":6685,"Ġmanuf":6686,"ĠGame":6687,"ĠGaming":6688,"entum":6689,"Ġketerangannya":6690,"poin":6691,"Ġterkini":6692,"ĠSemoga":6693,"ĠMeteorologi":6694,"ney":6695,"ĠKarya":6696,"Ġpercepatan":6697,"ĠEng":6698,"ĠBremen":6699,"faatan":6700,"ĠLigue":6701,"ungai":6702,"Ġmulus":6703,"Ġmulti":6704,"Ġpermohonan":6705,"yanmar":6706,"ĠSweetie":6707,"ĠJunior":6708,"Ġkapten":6709,"Ġspesialis":6710,"barui":6711,"ĠMuhammadi":6712,"Ġdihadirkan":6713,"Ġamankan":6714,"ĠStreet":6715,"aspadai":6716,"ĠMelbourne":6717,"bukti":6718,"Ġdiakui":6719,"Ġbeserta":6720,"Ġberinisial":6721,"Ġdomestik":6722,"ĠView":6723,"China":6724,"umpulkan":6725,"ĠFerrari":6726,"ĠMaybank":6727,"Ġpenguasaan":6728,"ĠKriminal":6729,"ĠPUPR":6730,"Ġperbedaan":6731,"Ġrelevan":6732,"ĠMcLaren":6733,"Ġdaur":6734,"uksesan":6735,"Ġimbuhnya":6736,"Ġmengantarkan":6737,"ĠLenovo":6738,"krimsus":6739,"ĠIklim":6740,"ĠAnthon":6741,"ĠBanten":6742,"ebruari":6743,"ĠMarketing":6744,"Ġbutuh":6745,"Ġdibagikan":6746,"Ġberaktivitas":6747,"ĠRafael":6748,"ĠGulkarmat":6749,"ĠUEFA":6750,"Ġpersaingan":6751,"Ġilmu":6752,"IZE":6753,"ĠBournemouth":6754,"ĠKagendra":6755,"Ġternyata":6756,"ĠDilansir":6757,"ĠCadiz":6758,"ĠAlmeria":6759,"ĠASICS":6760,"ĠMuhammadiyah":6761,"28":6762,"33":6763,"74":6764,"95":6765,"WF":6766,"bangkan":6767,"caya":6768,"dent":6769,"ders":6770,"duc":6771,"eed":6772,"furt":6773,"flix":6774,"jata":6775,"jikan":6776,"lom":6777,"oft":6778,"rata":6779,"tung":6780,"uel":6781,"uff":6782,"van":6783,"yatakan":6784,"zon":6785,"Ġamb":6786,"Ġumat":6787,"entasi":6788,"arusnya":6789,"Ġmisi":6790,"Ġsyarat":6791,"Ġsingle":6792,"angit":6793,"Ġkemen":6794,"lak":6795,"lagu":6796,"aktur":6797,"akili":6798,"Ġbangunan":6799,"Ġtas":6800,"Ġtuk":6801,"Ġtulang":6802,"Ġtewas":6803,"embab":6804,"Ġditahan":6805,"Ġmenelan":6806,"Ġmenetapkan":6807,"Ġmenangani":6808,"adu":6809,"ture":6810,"ame":6811,"onj":6812,"onis":6813,"ĠSU":6814,"ĠSun":6815,"ĠSuj":6816,"ĠSaf":6817,"ĠSPO":6818,"ĠSayang":6819,"Ġsejalan":6820,"Ġsejauh":6821,"ĠAz":6822,"elatan":6823,"ĠBh":6824,"oral":6825,"Ġberuntung":6826,"Ġberoperasi":6827,"engarkan":6828,"ikin":6829,"ĠMor":6830,"ĠMungkin":6831,"ĠMerah":6832,"ĠMode":6833,"ĠMyanmar":6834,"isu":6835,"ĠKampung":6836,"Ġperti":6837,"usa":6838,"ild":6839,"urang":6840,"tir":6841,"Ġhewan":6842,"ĠIM":6843,"ĠIHSG":6844,"olt":6845,"ĠDC":6846,"ĠDer":6847,"ĠDuty":6848,"ĠDKJ":6849,"Ġlengan":6850,"Ġlemah":6851,"Ġlanc":6852,"ĠTuhan":6853,"ĠTown":6854,"umur":6855,"umbu":6856,"Ġmengatur":6857,"Ġmengoleksi":6858,"Ġmengeksp":6859,"ĠCS":6860,"ĠCy":6861,"ĠCap":6862,"ĠCukai":6863,"ulus":6864,"ĠLuh":6865,"ĠLec":6866,"ĠLaga":6867,"ĠLions":6868,"ĠLabuan":6869,"bai":6870,"Ġpenya":6871,"Ġpenutup":6872,"Ġpenumpang":6873,"ĠGeor":6874,"ĠGuardi":6875,"Ġgejala":6876,"adikan":6877,"ĠHP":6878,"ĠFir":6879,"embatan":6880,"Ġdalamnya":6881,"Ġnatural":6882,"Ġfenomena":6883,"Ġcurah":6884,"Ġcanggih":6885,"ĠUN":6886,"ĠUNIQ":6887,"Ġjerse":6888,"ĠEmas":6889,"ĠWin":6890,"Ġpembuat":6891,"endara":6892,"endarEditor":6893,"try":6894,"ebihan":6895,"ainya":6896,"Ġsemoga":6897,"obi":6898,"manen":6899,"Ġadmin":6900,"read":6901,"Ġpersoalan":6902,"ica":6903,"Ġberkoordinasi":6904,"ĠVigo":6905,"Ġharap":6906,"Ġvis":6907,"Ġvari":6908,"Ġmembuahkan":6909,"Ġselamat":6910,"ĠZen":6911,"Ġdikirim":6912,"Ġseharusnya":6913,"ensif":6914,"ĠAris":6915,"mbung":6916,"Ġkesuksesan":6917,"Ġdibaca":6918,"Ġpasca":6919,"ogo":6920,"Ġmelakukannya":6921,"ĠApep":6922,"agn":6923,"reskrimsus":6924,"agama":6925,"Ġdigitalisasi":6926,"istis":6927,"Ġbenjolan":6928,"Ġawalnya":6929,"Ġterletak":6930,"Ġmemenangi":6931,"Ġdirek":6932,"lantas":6933,"lantasi":6934,"egional":6935,"ĠMadura":6936,"Ġekstr":6937,"ĠRock":6938,"ĠPutriEditor":6939,"ondo":6940,"ĠSetyor":6941,"rabowo":6942,"Ġkomposer":6943,"Ġobjek":6944,"Ġmobile":6945,"ĠBrun":6946,"ĠBrent":6947,"Ġagen":6948,"assador":6949,"Ġmewakili":6950,"ĠTanjung":6951,"witch":6952,"iayaan":6953,"erdekaan":6954,"incang":6955,"Ġpermuk":6956,"ĠThur":6957,"ĠPBSI":6958,"ĠSekarang":6959,"imbangan":6960,"ĠReserse":6961,"Ġumumnya":6962,"abiskan":6963,"Ġspesifikasi":6964,"Ġdihadapi":6965,"ĠFeder":6966,"Ġmomentum":6967,"ĠSuhendarEditor":6968,"ĠPembangunan":6969,"Inter":6970,"Ġzona":6971,"CTV":6972,"MLBB":6973,"ĠBogdan":6974,"Ġkeberhasilan":6975,"ĠKenta":6976,"ĠSukma":6977,"ĠSkor":6978,"ĠNetflix":6979,"Ġmotif":6980,"Ġminimal":6981,"Ġabsen":6982,"Ġperguruan":6983,"Ġlogam":6984,"ĠUltra":6985,"ĠModel":6986,"ĠUpaya":6987,"ingginya":6988,"ĠGanjar":6989,"atmiko":6990,"ĠTekken":6991,"ĠPengadilan":6992,"euer":6993,"ĠFarhan":6994,"asifik":6995,"lihatkan":6996,"Ġbertugas":6997,"ĠKondisi":6998,"Ġfotografi":6999,"ĠVenezuela":7000,"ĠSociedad":7001,"atorium":7002,"Kuala":7003,"Persero":7004,"ĠSevilla":7005,"ĠSpesialis":7006,"ĠGarnida":7007,"ĠHonda":7008,"anusiaan":7009,"Ġmenargetkan":7010,"Ġperilaku":7011,"ĠPerjuangan":7012,"ĠAldila":7013,"Ġmanufaktur":7014,"Ġlancar":7015,"ĠGuardiola":7016,"ĠUNIQLO":7017,"ĠSetyorini":7018,".âĢĿ":7019,"100":7020,"300":7021,"54":7022,"600":7023,"86":7024,"AF":7025,"GO":7026,"IK":7027,"JK":7028,"Nil":7029,"Pem":7030,"TEA":7031,"ao":7032,"by":7033,"bungan":7034,"bahan":7035,"binasi":7036,"burg":7037,"der":7038,"fud":7039,"gitar":7040,"hop":7041,"iang":7042,"jana":7043,"num":7044,"pol":7045,"pres":7046,"play":7047,"qlo":7048,"ruk":7049,"rining":7050,"ser":7051,"tle":7052,"tine":7053,"uali":7054,"yong":7055,"yrad":7056,"Ġut":7057,"Ġisi":7058,"arge":7059,"Ġpik":7060,"Ġpengan":7061,"Ġpre":7062,"Ġpungkas":7063,"inci":7064,"Ġsc":7065,"Ġsah":7066,"Ġsore":7067,"Ġkol":7068,"Ġbatu":7069,"Ġbakat":7070,"Ġbarat":7071,"Ġtindak":7072,"sion":7073,"side":7074,"emaran":7075,"gaya":7076,"adangan":7077,"adaran":7078,"Ġseti":7079,"ahaEditor":7080,"ĠPla":7081,"ĠPil":7082,"ĠPur":7083,"ĠPand":7084,"ĠPrabowo":7085,"ĠAcara":7086,"ĠAston":7087,"elin":7088,"ella":7089,"ĠBak":7090,"ĠBRI":7091,"ĠBudaya":7092,"Ġkeinginan":7093,"ĠMis":7094,"ĠMol":7095,"ĠMemb":7096,"ĠMedia":7097,"ĠMondo":7098,"isahkan":7099,"esta":7100,"esanan":7101,"ĠKP":7102,"ĠKri":7103,"ĠKini":7104,"Ġpered":7105,"Ġperasaan":7106,"illi":7107,"Ġmemaksimalkan":7108,"itland":7109,"ĠDah":7110,"ĠDik":7111,"ĠDian":7112,"ĠDevel":7113,"ĠDPUP":7114,"ĠRen":7115,"ĠReg":7116,"ĠRating":7117,"ĠTinggi":7118,"Ġmenged":7119,"Ġmenginginkan":7120,"Ġmengakhiri":7121,"Ġmengantisipasi":7122,"ĠCal":7123,"ĠCur":7124,"ĠCCTV":7125,"ĠJAK":7126,"Ġra":7127,"Ġragam":7128,"gia":7129,"Ġ2045":7130,"omod":7131,"ĠLan":7132,"ĠLampung":7133,"Ġpendukung":7134,"iaEditor":7135,"etro":7136,"eteksi":7137,"ĠGarin":7138,"ĠGirona":7139,"ebas":7140,"eback":7141,"Ġgug":7142,"uter":7143,"ĠNice":7144,"ĠHamb":7145,"ĠHernandez":7146,"ĠFah":7147,"ĠFoot":7148,"ĠFebruari":7149,"embahkan":7150,"ayah":7151,"Ġmerata":7152,"Ġcetak":7153,"Ġcatur":7154,"Ġcerd":7155,"Ġcender":7156,"Ġcerita":7157,"Ġmenjelaj":7158,"okok":7159,"alias":7160,"Ġjaga":7161,"ĠEV":7162,"ĠEra":7163,"ĠEst":7164,"ĠEuro":7165,"itamin":7166,"Ġpengaruh":7167,"inggalan":7168,"ision":7169,"isihan":7170,"ĠOt":7171,"Ġakting":7172,"Ġmenyumbang":7173,"atiEditor":7174,"Ġkontra":7175,"olehan":7176,"opment":7177,"ream":7178,"inaah":7179,"entang":7180,"ilaian":7181,"Ġmenceritakan":7182,"ick":7183,"Ġmeles":7184,"Ġgabungan":7185,"ambahan":7186,"anggil":7187,"inyal":7188,"Ġkemanusiaan":7189,"Ġmembukukan":7190,"pertimbangkan":7191,"ĠYah":7192,"Ġpemainnya":7193,"Ġgolf":7194,"ecil":7195,"Ġkomentar":7196,"ĠArhan":7197,"indo":7198,"tifikat":7199,"turkan":7200,"uarter":7201,"ivia":7202,"ĠSeoul":7203,"oger":7204,"ĠPenyakit":7205,"Ġsentuhan":7206,"trian":7207,"Ġpembentukan":7208,"Ġpembelajaran":7209,"Ġberbahan":7210,"Ġberbicara":7211,"Ġskrining":7212,"ĠKompon":7213,"Ġapabila":7214,"ealth":7215,"Ġberpikir":7216,"Ġberlatih":7217,"Ġmenghabiskan":7218,"ternatif":7219,"jiang":7220,"Ġ2013":7221,"Ġart":7222,"udio":7223,"erson":7224,"Ġacuan":7225,"ersif":7226,"ĠAndri":7227,"ĠSergio":7228,"ĠPSSI":7229,"Ġemosi":7230,"Ġdidampingi":7231,"ĠPersiraja":7232,"ĠTerkait":7233,"Ġmemasang":7234,"ĠPras":7235,"ĠeSIM":7236,"ĠPengembangan":7237,"ĠGoC":7238,"etul":7239,"ĠPTN":7240,"Ġimersif":7241,"sell":7242,"ĠAhli":7243,"ĠRIIZE":7244,"Ġkontraknya":7245,"limat":7246,"anksi":7247,"Ġtepatnya":7248,"illar":7249,"Ġide":7250,"ĠMaju":7251,"Ġribuan":7252,"Ġdarah":7253,"Ġsurya":7254,"Ġisti":7255,"Ġelit":7256,"Ġkalahkan":7257,"ĠRestu":7258,"ĠMedan":7259,"ques":7260,"Ġport":7261,"ĠKeliling":7262,"Ġbandara":7263,"inergi":7264,"ĠEva":7265,"ĠPlaySt":7266,"ystem":7267,"ĠROM":7268,"Ġfakta":7269,"Ġkayak":7270,"ĠMemang":7271,"koni":7272,"ĠMahfud":7273,"ĠUsman":7274,"Ġkonsistensi":7275,"tandingkan":7276,"INK":7277,"Untuk":7278,"ĠFred":7279,"Ġkeberl":7280,"ĠVinici":7281,"ĠRamadhanEditor":7282,"ĠEmpat":7283,"ĠKehutanan":7284,"Ġpraktis":7285,"Ġimplementasi":7286,"Ġpenguatan":7287,"ĠSetiawan":7288,"Ġberjangka":7289,"Ġdiwarnai":7290,"ĠYunianto":7291,"ĠPihaknya":7292,"Ġmenuturkan":7293,"ĠWolves":7294,"ĠBerbicara":7295,"Ġpintu":7296,"Ġpilar":7297,"Ġkuning":7298,"estarikan":7299,"ĠNugrahaEditor":7300,"Ġfilter":7301,"ĠBotani":7302,"ĠRichard":7303,"ĠEmpoli":7304,"Ġdekade":7305,"ĠMichael":7306,"ĠHindia":7307,"ĠVirna":7308,"ĠFrankfurt":7309,"Ġsederhana":7310,"Ġtalent":7311,"ĠPersebaya":7312,"ĠIndrawanEditor":7313,"ĠAgamyrad":7314,"Ġterinspirasi":7315,"ĠAnthony":7316,"Ġkementerian":7317,"ĠSujatmiko":7318,"ĠSafri":7319,"Ġjersey":7320,"ĠSetyoriniEditor":7321,"Niles":7322,"Ġcenderung":7323,"ĠPlayStation":7324,"ĠVinicius":7325,"ĠAgamyradov":7326,"56":7327,"67":7328,"88":7329,"AD":7330,"Al":7331,"BI":7332,"FF":7333,"Football":7334,"LHK":7335,"Mer":7336,"Malaysia":7337,"Pen":7338,"Xinhua":7339,"cess":7340,"dis":7341,"eur":7342,"eba":7343,"fek":7344,"gol":7345,"hika":7346,"jaran":7347,"lek":7348,"nect":7349,"ria":7350,"reh":7351,"sasi":7352,"sinya":7353,"tatus":7354,"wesi":7355,"yur":7356,"yikan":7357,"zah":7358,"âĦ":7359,"Ġamp":7360,"Ġile":7361,"Ġarab":7362,"Ġalias":7363,"enuhnya":7364,"Ġden":7365,"Ġdon":7366,"arangan":7367,"Ġmak":7368,"Ġmay":7369,"Ġmini":7370,"Ġmega":7371,"Ġpesi":7372,"atta":7373,"atangi":7374,"Ġsp":7375,"Ġsensi":7376,"Ġsport":7377,"Ġsabar":7378,"Ġsinyal":7379,"Ġsanksi":7380,"Ġkeri":7381,"akapan":7382,"Ġboc":7383,"Ġblok":7384,"Ġbicara":7385,"Ġteb":7386,"Ġtub":7387,"Ġtandang":7388,"Ġtenang":7389,"sih":7390,"una":7391,"unyikan":7392,"Ġdias":7393,"Ġmenantikan":7394,"Ġmenikah":7395,"tau":7396,"yamanan":7397,"ĠSap":7398,"ĠSitu":7399,"ĠSud":7400,"ĠSmart":7401,"ĠSwitch":7402,"asuki":7403,"ĠPop":7404,"ĠPengg":7405,"ĠBintang":7406,"Ġbergaya":7407,"enggam":7408,"Ġkejut":7409,"Ġkeindahan":7410,"ingat":7411,"ĠMag":7412,"istor":7413,"esain":7414,"esaan":7415,"alaupun":7416,"ĠKy":7417,"ĠKek":7418,"ĠKow":7419,"ĠKiper":7420,"ĠKPU":7421,"Ġpertuk":7422,"Ġperawat":7423,"Ġterob":7424,"Ġtertarik":7425,"Ġterbukti":7426,"ilir":7427,"Ġmemaksa":7428,"Ġjuri":7429,"Ġhemat":7430,"itor":7431,"ĠIst":7432,"ĠIPMG":7433,"ĠDana":7434,"ĠDani":7435,"ĠDAY":7436,"Ġlun":7437,"Ġlepas":7438,"Ġlangit":7439,"ĠRis":7440,"ĠTol":7441,"ĠTra":7442,"ĠTop":7443,"ĠTrad":7444,"ĠTesla":7445,"umlah":7446,"umbangkan":7447,"Ġmengund":7448,"Ġmengenal":7449,"Ġmenganggap":7450,"Ġmengundang":7451,"Ġmengumpulkan":7452,"ĠCara":7453,"ĠCepat":7454,"ĠJar":7455,"ĠJat":7456,"ĠJack":7457,"Ġrusak":7458,"idyat":7459,"idrasi":7460,"ĠLev":7461,"Ġlampu":7462,"rov":7463,"Ġpensi":7464,"etakan":7465,"andro":7466,"ĠGi":7467,"ĠGian":7468,"ĠGeo":7469,"ĠGold":7470,"ebri":7471,"Ġ2025":7472,"Ġ2028":7473,"Ġgar":7474,"Ġgue":7475,"ĠNg":7476,"ĠNug":7477,"ĠNight":7478,"ĠNatal":7479,"ĠHan":7480,"ĠHel":7481,"ĠHall":7482,"ĠHendra":7483,"ĠFre":7484,"ĠFerd":7485,"ayasan":7486,"sesi":7487,"Ġcore":7488,"Ġmenjabat":7489,"ray":7490,"ĠEfek":7491,"ĠWen":7492,"ĠWah":7493,"ĠWarga":7494,"ĠWard":7495,"Ġpeminjaman":7496,"otti":7497,"ante":7498,"endaris":7499,"Ġmelakoni":7500,"wajib":7501,"Ġmember":7502,"lahan":7503,"Ġmenyimpan":7504,"Ġmenyeluruh":7505,"Ġ--":7506,"Ġkargo":7507,"Ġmendominasi":7508,"chi":7509,"opa":7510,"ĠPerk":7511,"ĠPertama":7512,"Ġujung":7513,"ĠChris":7514,"ĠChrist":7515,"Ġserba":7516,"entak":7517,"duktor":7518,"Ġsebaliknya":7519,"Ġberkata":7520,"Ġberkarya":7521,"ambi":7522,"ĠVillar":7523,"angguhan":7524,"Ġberstatus":7525,"Ġmengajukan":7526,"Ġvia":7527,"iber":7528,"sage":7529,"ĠZhe":7530,"Ġmemperlihatkan":7531,"Ġdikatakan":7532,"ĠAli":7533,"ĠMenkominfo":7534,"ĠArk":7535,"ĠMartine":7536,"Ġbanyaknya":7537,"ĠSebuah":7538,"Ġkuota":7539,"igran":7540,"antian":7541,"ajin":7542,"ĠSelengkapnya":7543,"ĠPemilihan":7544,"Ġkembangkan":7545,"ĠPolandia":7546,"Ġ64":7547,"ĠApalagi":7548,"ĠTimes":7549,"Ġdipilih":7550,"Ġkecewa":7551,"Ġkecerahan":7552,"Ġpendah":7553,"Ġ75":7554,"Ġsepenuhnya":7555,"Ġmaaf":7556,"usim":7557,"Ġkonsul":7558,"ifestyle":7559,"Ġmenghuni":7560,"Ġmengharapkan":7561,"Ġalternatif":7562,"Ġ2015":7563,"Ġaren":7564,"Ġaroma":7565,"utrisi":7566,"ĠLagu":7567,"ĠAdnan":7568,"Ġlapisan":7569,"geCon":7570,"ĠRose":7571,"ĠMasjid":7572,"ancong":7573,"Ġbukanlah":7574,"Ġberjualan":7575,"Ġkompet":7576,"ormal":7577,"neX":7578,"ĠUniqlo":7579,"ĠMetion":7580,"ĠMeidyat":7581,"ĠKarbon":7582,"Ġperdananya":7583,"ĠAirPods":7584,"ĠMaitland":7585,"Ġdinikmati":7586,"ĠSouth":7587,"entian":7588,"Ġpornografi":7589,"ĠAbd":7590,"Ġdisiapkan":7591,"ĠIII":7592,"Ġbuku":7593,"Ġkaryawan":7594,"Ġintegrasi":7595,"ĠKomunal":7596,"Ġkreator":7597,"pektasi":7598,"Ġtabir":7599,"ĠMaluku":7600,"ĠManaj":7601,"Ġlegendaris":7602,"ĠMinyak":7603,"ĠKebakaran":7604,"ĠKonser":7605,"ĠKonsul":7606,"Ġdikonversi":7607,"ejabat":7608,"ĠMusik":7609,"ugikan":7610,"Ġpemberian":7611,"ĠBiak":7612,"untungkan":7613,"ĠOlympic":7614,"Ġmotivasi":7615,"Ġmenekankan":7616,"lerc":7617,"Ġwebsite":7618,"Ġtangkis":7619,"ĠPaviliun":7620,"ĠKapolda":7621,"ĠMajelis":7622,"Ġpotongan":7623,"ĠBerkat":7624,"Ġberadaptasi":7625,"ĠChristian":7626,"ĠSulawesi":7627,"ĠRoberto":7628,"oucher":7629,"Ġmirip":7630,"Ġmengirimkan":7631,"Ġtransplantasi":7632,"ĠSistem":7633,"Ġkepemimpinan":7634,"Ġmetode":7635,"Ġslot":7636,"Ġinvestor":7637,"ĠAurel":7638,"irkabel":7639,"ĠJenner":7640,"ĠAjeng":7641,"ikonduktor":7642,"ĠVictor":7643,"ĠLeclerc":7644,"Ġvisual":7645,"Ġekstrem":7646,"ĠThuram":7647,"ĠDevelopment":7648,"Ġcerdas":7649,"Ġilegal":7650,"Ġarabika":7651,"Ġpertukaran":7652,"ĠZhejiang":7653,"ĠMartinez":7654,"ĠAdnanEditor":7655,"geConneX":7656,"ĠMeidyatama":7657,".,":7658,"39":7659,"47":7660,"59":7661,"85":7662,"89":7663,"Bang":7664,"Bud":7665,"BAS":7666,"CD":7667,"Jep":7668,"La":7669,"MC":7670,"PP":7671,"UD":7672,"bot":7673,"dik":7674,"eater":7675,"film":7676,"gy":7677,"ght":7678,"jap":7679,"lish":7680,"lindungan":7681,"nami":7682,"of":7683,"plus":7684,"sal":7685,"sch":7686,"ww":7687,"yanya":7688,"yeksi":7689,"zan":7690,"zuki":7691,"Ã¶":7692,"Ġeng":7693,"Ġambil":7694,"erkan":7695,"erton":7696,"erjakan":7697,"arm":7698,"Ġmacam":7699,"Ġpul":7700,"Ġpsik":7701,"att":7702,"inga":7703,"Ġsapi":7704,"Ġkis":7705,"Ġkera":7706,"Ġkirim":7707,"Ġkuarter":7708,"Ġbatangan":7709,"Ġtek":7710,"Ġtamun":7711,"Ġtenis":7712,"Ġtekstur":7713,"emasan":7714,"Ġdire":7715,"adung":7716,"adiran":7717,"alatan":7718,"amaian":7719,"ontrol":7720,"ĠSakit":7721,"Ġsegar":7722,"Ġsesama":7723,"ĠPac":7724,"ĠPeg":7725,"ĠPember":7726,"ĠPekerja":7727,"ĠPadang":7728,"ĠPurn":7729,"ĠPower":7730,"ĠPasifik":7731,"ĠAch":7732,"ĠAjang":7733,"ĠAbang":7734,"ĠAero":7735,"ĠBN":7736,"ĠBol":7737,"ĠBint":7738,"ĠBaik":7739,"ĠBio":7740,"ĠBWF":7741,"oror":7742,"oris":7743,"Ġberangg":7744,"Ġberapa":7745,"Ġbergul":7746,"ikal":7747,"ĠMeta":7748,"ĠMentari":7749,"apin":7750,"ise":7751,"ĠKKB":7752,"ĠKlimat":7753,"Ġpertamb":7754,"Ġperunggu":7755,"Ġperalatan":7756,"Ġtergabung":7757,"Ġmemetik":7758,"Ġho":7759,"Ġhorm":7760,"Ġhilir":7761,"Ġhoror":7762,"itis":7763,"ĠID":7764,"olly":7765,"Ġlen":7766,"Ġlebar":7767,"ird":7768,"Ġundang":7769,"ĠRain":7770,"ĠRoger":7771,"ĠTian":7772,"ĠTuju":7773,"Ġmenghan":7774,"Ġmengelola":7775,"Ġmenguntungkan":7776,"ĠCek":7777,"ĠJab":7778,"ĠJambi":7779,"Ġrela":7780,"Ġrit":7781,"Ġrub":7782,"ĠLet":7783,"ĠLok":7784,"ĠLuar":7785,"Ġlah":7786,"Ġlabor":7787,"ihara":7788,"roho":7789,"Ġpenindakan":7790,"iaga":7791,"ĠGO":7792,"ĠGla":7793,"ĠGim":7794,"ĠGreen":7795,"ĠGree":7796,"Ġgelap":7797,"uters":7798,"ĠNFC":7799,"ĠHD":7800,"ĠHe":7801,"ĠHanya":7802,"ĠHukum":7803,"ĠFree":7804,"ĠFior":7805,"ĠFlash":7806,"embapan":7807,"ters":7808,"Ġno":7809,"Ġnormal":7810,"Ġnirkabel":7811,"Ġfile":7812,"Ġfleksi":7813,"Ġco":7814,"Ġcer":7815,"Ġcari":7816,"Ġcle":7817,"Ġcegah":7818,"Ġwujud":7819,"ĠEkuad":7820,"ĠElec":7821,"ĠWind":7822,"ĠWNI":7823,"Ġpemuncak":7824,"otong":7825,"able":7826,"Ġmelacak":7827,"Ġmembob":7828,"ĠOper":7829,"Ġmendulang":7830,"Ġmenderita":7831,"oso":7832,"Ġsemikonduktor":7833,"ongkr":7834,"ubsidi":7835,"ĠPerdana":7836,"ĠPerlindungan":7837,"ĠChat":7838,"ĠAndi":7839,"ĠAntam":7840,"Ġbahas":7841,"icer":7842,"Ġberkisar":7843,"Ġberkendara":7844,"ĠVan":7845,"ĠVidi":7846,"Ġ52":7847,"ĠYayasan":7848,"Ġmempers":7849,"Ġdikelola":7850,"ĠAlim":7851,"sesu":7852,"ĠArm":7853,"2018":7854,"mbilan":7855,"even":7856,"heet":7857,"ikasikan":7858,"Ġanim":7859,"ĠKetiga":7860,"ĠUntung":7861,"Ġkesen":7862,"ĠPenc":7863,"ĠPenampilan":7864,"ĠPenanggulangan":7865,"ĠShen":7866,"Ġkelembapan":7867,"masalahan":7868,"ĠPemuda":7869,"ĠAplikasi":7870,"age":7871,"ressage":7872,"Ġdipimpin":7873,"impunan":7874,"lipat":7875,"Ġdilatih":7876,"Ġmembayar":7877,"lasan":7878,"Ġapapun":7879,"Ġapalagi":7880,"Ġkebangga":7881,"Ġ84":7882,"Ġtakut":7883,"wijaya":7884,"Ġmineral":7885,"Ġhasilnya":7886,"ffee":7887,"ĠAshton":7888,"Ġmengganti":7889,"Ġmenggantikan":7890,"ĠSebastian":7891,"ĠPersib":7892,"ĠPersita":7893,"ĠPersiba":7894,"ĠPersijap":7895,"ĠTerl":7896,"Ġeksek":7897,"loon":7898,"lock":7899,"umput":7900,"ĠRoad":7901,"ĠeFootball":7902,"ĠPengurus":7903,"ĠSerie":7904,"ĠJepara":7905,"selerasi":7906,"Ġstunting":7907,"ĠStatistik":7908,"ormatan":7909,"ĠAtlet":7910,"Ġsegmen":7911,"tanian":7912,"Ġsurplus":7913,"Ġkenyamanan":7914,"Ġkorset":7915,"ĠSatya":7916,"ĠEddy":7917,"ĠActive":7918,"ĠAngk":7919,"ĠShopping":7920,"Ġdesainer":7921,"ĠBoy":7922,"ĠThomas":7923,"atusan":7924,"Ġatletik":7925,"Ġkredit":7926,"ĠSwiss":7927,"Ġporno":7928,"ĠKelurahan":7929,"karya":7930,"Ġbertekad":7931,"ĠIIQ":7932,"ĠSuga":7933,"ĠApriyani":7934,"ĠEverton":7935,"ĠValent":7936,"ĠSanch":7937,"Ġpetualangan":7938,"ĠRahayu":7939,"ooth":7940,"Ġkaus":7941,"ĠJames":7942,"rahat":7943,"Ġpedagang":7944,"Ġpedesaan":7945,"ĠLukas":7946,"ologis":7947,"Ġevent":7948,"Ġformasi":7949,"Ġbesok":7950,"Ġdominan":7951,"ĠHotel":7952,"ARTA":7953,"Ġupacara":7954,"oordin":7955,"ĠBax":7956,"ĠReuters":7957,"ĠAmbassador":7958,"Ġduo":7959,"ĠDPRD":7960,"ĠLapangan":7961,"ĠLaporan":7962,"ĠDaily":7963,"Ġefisien":7964,"ĠCelta":7965,"ĠKehadiran":7966,"ACKP":7967,"ĠBandara":7968,"Ġsambutan":7969,"Ġkariernya":7970,"Ġsambung":7971,"Ġpatut":7972,"Ġsiklus":7973,"Ġperpaduan":7974,"ĠChief":7975,"Ġdibutuhkan":7976,"omendasikan":7977,"Ġrobusta":7978,"ï¸ıâ":7979,"ĠJefri":7980,"Ġpengelolaan":7981,"Ġpersegi":7982,"Ġmengarah":7983,"ĠCAEXPO":7984,"ĠPenerjemah":7985,"Thinaah":7986,"Ġsunscreen":7987,"ĠAwards":7988,"ĠMunas":7989,"ĠFIFA":7990,"Ġcelana":7991,"ĠâĢĭâĢĭâĢĭâĢĭâĢĭâĢĭâĢĭ":7992,"ĠBLACKP":7993,"ĠKazu":7994,"Ġpendampingan":7995,"cedes":7996,"ĠSPF":7997,"ĠBalai":7998,"Ġurutan":7999,"ĠGovinda":8000,"ĠLuhut":8001,"Ġperedaran":8002,"ĠHamburg":8003,"questrian":8004,"Ġdonasi":8005,"Ġmayoritas":8006,"Ġsensitif":8007,"ĠKowloon":8008,"Ġpensiun":8009,"ĠNugroho":8010,"Buddy":8011,"Jepang":8012,"namic":8013,"Ġtamunya":8014,"ĠAeroBuddy":8015,"Ġberanggotakan":8016,"Ġbergulir":8017,"ĠKlimatologi":8018,"Ġlaboratorium":8019,"ĠFiorentina":8020,"ĠEkuador":8021,"Ġmembobol":8022,"ĠBLACKPINK":8023,"31":8024,"43":8025,"79":8026,"83":8027,"BE":8028,"BG":8029,"BMKG":8030,"Dengan":8031,"HD":8032,"Halo":8033,"Ini":8034,"Kep":8035,"Nassr":8036,"OBAS":8037,"Pol":8038,"RTS":8039,"bal":8040,"bola":8041,"cs":8042,"cos":8043,"dar":8044,"dara":8045,"drop":8046,"eologi":8047,"fan":8048,"fisi":8049,"her":8050,"ix":8051,"iaran":8052,"iarkan":8053,"jok":8054,"ject":8055,"kala":8056,"kab":8057,"ktikan":8058,"ln":8059,"lant":8060,"leks":8061,"langkah":8062,"mm":8063,"mudahan":8064,"ohan":8065,"pu":8066,"pis":8067,"papan":8068,"plin":8069,"rn":8070,"ron":8071,"ster":8072,"ts":8073,"vi":8074,"wasa":8075,"yadi":8076,"Ġerat":8077,"erjasama":8078,"entifikasi":8079,"Ġder":8080,"Ġdep":8081,"Ġmiliki":8082,"Ġmekan":8083,"Ġmump":8084,"Ġpap":8085,"Ġputus":8086,"Ġpahlawan":8087,"Ġpejabat":8088,"atlet":8089,"insip":8090,"Ġseng":8091,"Ġsabu":8092,"Ġsantai":8093,"ange":8094,"Ġkenc":8095,"Ġkafe":8096,"Ġbe":8097,"Ġbel":8098,"Ġbob":8099,"Ġbangun":8100,"Ġbanding":8101,"Ġbumi":8102,"Ġtata":8103,"sius":8104,"embaga":8105,"unungan":8106,"Ġdiungk":8107,"Ġdituju":8108,"Ġdialog":8109,"Ġdisesu":8110,"Ġmenulis":8111,"Ġmeninjau":8112,"Ġmenonj":8113,"addies":8114,"ĠST":8115,"ĠSir":8116,"ĠSos":8117,"Ġsebaik":8118,"Ġsetuju":8119,"Ġsetahun":8120,"Ġyen":8121,"Ġyear":8122,"ĠPati":8123,"ĠPay":8124,"ĠPlatform":8125,"ĠPadahal":8126,"ĠAy":8127,"ĠAma":8128,"ĠApa":8129,"ĠBu":8130,"ĠBap":8131,"ĠBup":8132,"jub":8133,"Ġberjumlah":8134,"Ġberalih":8135,"Ġkesi":8136,"ingatkan":8137,"ĠMut":8138,"ĠMangg":8139,"isnis":8140,"ĠKus":8141,"ĠKoordin":8142,"Ġperut":8143,"Ġpertar":8144,"Ġperger":8145,"Ġpermanen":8146,"Ġterangkat":8147,"uss":8148,"usun":8149,"usman":8150,"ilton":8151,"Ġmemuji":8152,"Ġmemantau":8153,"Ġmempertimbangkan":8154,"Ġhy":8155,"Ġhand":8156,"ĠIS":8157,"ĠDI":8158,"ĠDew":8159,"ĠDaddies":8160,"ekati":8161,"Ġlantas":8162,"ĠRak":8163,"ĠRic":8164,"ĠRPL":8165,"ĠTB":8166,"ĠTo":8167,"ĠTid":8168,"ĠTeh":8169,"ĠTuch":8170,"ĠCul":8171,"ĠCour":8172,"ĠJasa":8173,"ĠJenama":8174,"ĠJumlah":8175,"ukir":8176,"ukim":8177,"Ġrevisi":8178,"Ġradio":8179,"ĠLove":8180,"ihan":8181,"Ġpenawaran":8182,"Ġpenilaian":8183,"ĠGal":8184,"ĠGay":8185,"ĠGran":8186,"ĠGiro":8187,"ĠGlow":8188,"ĠGajah":8189,"ebol":8190,"epon":8191,"ĠNilai":8192,"ĠNaz":8193,"ĠHadi":8194,"ĠHatta":8195,"ĠHwasa":8196,"upan":8197,"ĠFoto":8198,"embalikan":8199,"perusahaan":8200,"Ġnyar":8201,"Ġnuansa":8202,"Ġmerugikan":8203,"Ġfantas":8204,"Ġcinta":8205,"Ġcamera":8206,"Ġmenjawab":8207,"Ġmenjamin":8208,"ĠIndonesiaPewarta":8209,"ĠUz":8210,"ĠUdara":8211,"Ġjantung":8212,"raw":8213,"Ġpemen":8214,"Ġpemerintahan":8215,"endy":8216,"Ġmelayani":8217,"eriahkan":8218,"erico":8219,"isit":8220,"angkutan":8221,"anaan":8222,"Ġaktris":8223,"Ġpohon":8224,"Ġmenyatu":8225,"Ġmenyangka":8226,"Ġmenyelenggarakan":8227,"Ġmenyoroti":8228,"ativitas":8229,"Ġmasker":8230,"Ġmendengar":8231,"optim":8232,"mann":8233,"ĠPerti":8234,"ĠPerum":8235,"ĠPerez":8236,"ĠChandra":8237,"ĠAnton":8238,"ilau":8239,"ical":8240,"Ġsetengah":8241,"Ġmelanda":8242,"Ġbagikan":8243,"taskan":8244,"diat":8245,"Ġpeluit":8246,"ambar":8247,"odok":8248,"mikan":8249,"Ġmengajar":8250,"Ġatasi":8251,"Ġmembuktikan":8252,"ĠYour":8253,"ĠZER":8254,"ĠZikri":8255,"Ġmemperhatikan":8256,"Ġmemperbaiki":8257,"ĠAlbum":8258,"ĠAlhamdulillah":8259,"ecool":8260,"ĠMenparekraf":8261,"Ġkombinasi":8262,"Ġpenyisihan":8263,"Ġpenyiaran":8264,"anium":8265,"Ġnegosiasi":8266,"ĠUno":8267,"Ġkesadaran":8268,"ĠBern":8269,"aji":8270,"Ġsenjata":8271,"Ġ65":8272,"Ġpenggunanya":8273,"Ġsifat":8274,"eau":8275,"efak":8276,"ĠManahan":8277,"ĠManusia":8278,"ĠManuel":8279,"epankan":8280,"Ġberbentuk":8281,"resif":8282,"ife":8283,"ifi":8284,"Ġterjangkau":8285,"Ġberpengaruh":8286,"Ġterdepan":8287,"Ġsamping":8288,"estarian":8289,"Ġpromo":8290,"Ġprimer":8291,"Ġketert":8292,"ĠXabi":8293,"ĠXbox":8294,"mpilkan":8295,"Ġsaudara":8296,"Ġdimaksud":8297,"ĠAndre":8298,"Ġkekayaan":8299,"ĠPSBS":8300,"Ġmengganggu":8301,"ĠPersipa":8302,"ĠTerakhir":8303,"Ġekspektasi":8304,"encanaan":8305,"ĠRealme":8306,"ĠRoyal":8307,"Ġey":8308,"ĠIsma":8309,"ĠIsyana":8310,"aturk":8311,"ijab":8312,"ancang":8313,"Ġterkesan":8314,"ĠRomelu":8315,"Ġmempengaruhi":8316,"ĠQuran":8317,"Ġmeneruskan":8318,"Ġterpasang":8319,"ĠAth":8320,"ĠAtaturk":8321,"emaja":8322,"untak":8323,"ĠRedemp":8324,"Ġpercakapan":8325,"ataram":8326,"Ġdinyatakan":8327,"assar":8328,"Ġdewan":8329,"aksasa":8330,"alikpapan":8331,"ĠRazi":8332,"incian":8333,"ĠSaluran":8334,"Ġsuami":8335,"Ġmultin":8336,"ĠPBB":8337,"ĠRussell":8338,"ĠMedali":8339,"Ġmengungkap":8340,"Ġportrait":8341,"Ġdisiplin":8342,"Ġdijadikan":8343,"ĠCoffee":8344,"Ġcatat":8345,"ĠDanilla":8346,"ĠVallec":8347,"ĠSimanj":8348,"ĠAIS":8349,"Ġberkompetisi":8350,"Ġkreativitas":8351,"Ġterhenti":8352,"Ġhakim":8353,"ĠUniversity":8354,"ĠJuara":8355,"Ġpenyelenggara":8356,"EONE":8357,"ĠSulut":8358,"ĠMemasuki":8359,"ĠMalang":8360,"ĠSumsel":8361,"ĠTelkom":8362,"ĠBulat":8363,"Ġtelepon":8364,"ĠJamil":8365,"ĠHasilnya":8366,"Ġditampilkan":8367,"Ġliar":8368,"Ġramai":8369,"Ġformat":8370,"ĠAmeri":8371,"ĠHamilton":8372,"Ġpengendalian":8373,"Ġoperator":8374,"ĠParkir":8375,"ombol":8376,"Ġtopik":8377,"ĠDoa":8378,"Charge":8379,"Ġduta":8380,"ĠAMOL":8381,"ristek":8382,"Ġrunner":8383,"Ġkekerasan":8384,"ĠBatam":8385,"ĠBatman":8386,"Ġbergantung":8387,"Ġpraktik":8388,"UNG":8389,"ĠABC":8390,"jahter":8391,"Ġinteraksi":8392,"Ġantusiasme":8393,"ĠPUBG":8394,"oyong":8395,"ĠMUI":8396,"ĠLuis":8397,"ĠGelandang":8398,"ĠBlue":8399,"ĠRektor":8400,"ĠOsaka":8401,"ĠRizky":8402,"Ġmemadamkan":8403,"Ġgempa":8404,"Ġtrader":8405,"Ġtrading":8406,"Ã©mon":8407,"ĠBantuan":8408,"ĠLewand":8409,"ĠHUT":8410,"Ġmaterial":8411,"Ġsolid":8412,"Ġrupiah":8413,"Ġdelegasi":8414,"ĠRuben":8415,"ĠGeneral":8416,"ĠPerhimpunan":8417,"ĠKendaraan":8418,"ĠJAAS":8419,"Ġoknum":8420,"ĠPokÃ©mon":8421,"ĠBillboard":8422,"ĠTae":8423,"Ġgrogi":8424,"Ġberkarir":8425,"Ġtitanium":8426,"ĠSPORTS":8427,"Ġpertimbangkan":8428,"ĠGeorge":8429,"Ġsetidaknya":8430,"Ġmenjelajahi":8431,"Ġartefak":8432,"ĠGoCampus":8433,"âĦ¢":8434,"Ġpesisir":8435,"Ġkejutan":8436,"ĠKylian":8437,"Ġterobosan":8438,"ĠGeofisi":8439,"Ġpendahulunya":8440,"Ã¶ln":8441,"Ġpertambangan":8442,"Ġlensa":8443,"Ġrubber":8444,"Ġkebanggaan":8445,"OBASEONE":8446,"Ġmumpuni":8447,"Ġkencang":8448,"Ġdisesuaikan":8449,"Ġmenonjol":8450,"ĠSosro":8451,"ĠBupati":8452,"ĠManggarai":8453,"ĠKoordinator":8454,"Ġpertarungan":8455,"Ġpergerakan":8456,"usmane":8457,"ĠTidore":8458,"ĠTuchel":8459,"ĠGayatiEditor":8460,"ĠZEROBASEONE":8461,"Ġmultinasional":8462,"ĠSimanjuntak":8463,"ĠAMOLED":8464,"ĠGeofisika":8465,"55":8466,"58":8467,"76":8468,"82":8469,"92":8470,"AT":8471,"BT":8472,"CC":8473,"Dit":8474,"EL":8475,"ET":8476,"For":8477,"JB":8478,"Kita":8479,"Liga":8480,"MO":8481,"Man":8482,"NK":8483,"NY":8484,"Or":8485,"Sem":8486,"TP":8487,"agar":8488,"be":8489,"bk":8490,"dir":8491,"dapat":8492,"fri":8493,"fone":8494,"foto":8495,"get":8496,"gantara":8497,"iam":8498,"janj":8499,"kata":8500,"lop":8501,"met":8502,"med":8503,"mAh":8504,"oom":8505,"pos":8506,"ram":8507,"rediksi":8508,"val":8509,"win":8510,"wasan":8511,"Ġentr":8512,"Ĥ¬":8513,"ann":8514,"ermin":8515,"Ġdamai":8516,"Ġpus":8517,"Ġpart":8518,"Ġpuji":8519,"atatan":8520,"Ġsim":8521,"Ġsadar":8522,"Ġspons":8523,"Ġsirkuit":8524,"Ġkm":8525,"Ġkaca":8526,"Ġkian":8527,"Ġkiat":8528,"lag":8529,"Ġbelah":8530,"Ġblan":8531,"Ġbikin":8532,"Ġtud":8533,"Ġtanggung":8534,"Ġtombol":8535,"siden":8536,"emangat":8537,"emahan":8538,"Ġdiam":8539,"Ġdiant":8540,"Ġdiinginkan":8541,"Ġdiyakini":8542,"Ġmenoreh":8543,"Ġmenindak":8544,"Ġmenolak":8545,"Ġmenantang":8546,"adari":8547,"adilan":8548,"onjak":8549,"ĠSch":8550,"ĠSHK":8551,"ĠSadio":8552,"ĠSirkuit":8553,"ahayaan":8554,"ĠPang":8555,"ĠPus":8556,"ĠPot":8557,"ĠPakar":8558,"ĠPahlawan":8559,"ĠAR":8560,"ĠBM":8561,"ĠBab":8562,"ĠBila":8563,"ĠBany":8564,"ĠBegitu":8565,"Ġberikan":8566,"Ġkewajib":8567,"ikirkan":8568,"ĠMV":8569,"ĠMong":8570,"ĠMasa":8571,"ĠMulai":8572,"issa":8573,"eser":8574,"ĠKing":8575,"ĠKur":8576,"ĠKev":8577,"ĠKerja":8578,"ĠKaka":8579,"Ġperilis":8580,"Ġperiksa":8581,"Ġperolehan":8582,"Ġpermasalahan":8583,"Ġpertanian":8584,"Ġterpa":8585,"usarEditor":8586,"aritas":8587,"Ġjuru":8588,"Ġhek":8589,"Ġhengk":8590,"Ġhero":8591,"buan":8592,"ĠId":8593,"ĠIt":8594,"olum":8595,"olia":8596,"ĠDom":8597,"ĠDAS":8598,"Ġlul":8599,"Ġlemb":8600,"Ġlub":8601,"Ġlupa":8602,"arau":8603,"imoto":8604,"ĠRu":8605,"ĠRas":8606,"ĠRian":8607,"ĠRoh":8608,"ĠTay":8609,"ĠTampilan":8610,"ĠTapin":8611,"ĠTbk":8612,"ĠCil":8613,"ĠCiti":8614,"ĠJangan":8615,"ĠJordan":8616,"Ġreb":8617,"Ġrint":8618,"Ġremaja":8619,"ulir":8620,"ider":8621,"ĠLin":8622,"ĠLak":8623,"ĠLid":8624,"ĠLatif":8625,"ĠLRT":8626,"ĠLebak":8627,"Ġpenentu":8628,"Ġpenyal":8629,"Ġpenangguhan":8630,"etes":8631,"ĠGe":8632,"ĠGor":8633,"ebalap":8634,"Ġgemb":8635,"Ġitulah":8636,"epad":8637,"ĠNish":8638,"ĠNerazz":8639,"ĠNeuer":8640,"luar":8641,"ĠHok":8642,"ĠHistor":8643,"rip":8644,"riz":8645,"upsi":8646,"ĠFac":8647,"ĠFutu":8648,"ĠForm":8649,"ĠFound":8650,"ĠFull":8651,"ĠFXGT":8652,"ĠFeed":8653,"Ġnot":8654,"Ġcas":8655,"Ġcadangan":8656,"Ġmenjajal":8657,"ĠIndonesian":8658,"okrasi":8659,"aliz":8660,"Ġjari":8661,"Ġjeda":8662,"ĠWat":8663,"Ġpemilih":8664,"Ġpemilihan":8665,"Ġpemesanan":8666,"otanya":8667,"antoro":8668,"endag":8669,"amaan":8670,"Ġaja":8671,"Ġaudio":8672,"jax":8673,"trans":8674,"tronic":8675,"ĠOm":8676,"ĠOri":8677,"ĠOusmane":8678,"Ġpost":8679,"Ġpodium":8680,"Ġmenyukai":8681,"atikan":8682,"Ġmendalam":8683,"Ġmendengarkan":8684,"Ġkoneksi":8685,"Ġkontribusi":8686,"enazah":8687,"Ġtime":8688,"obat":8689,"ĠPerubahan":8690,"ĠChair":8691,"etabek":8692,"Ġserangkaian":8693,"Ġserentak":8694,"ĠAntara":8695,"ĠAncel":8696,"enteng":8697,"Ġpersonal":8698,"icip":8699,"Ġmelonjak":8700,"awisata":8701,"Ġgawai":8702,"yaratan":8703,"ĠVilla":8704,"empatkan":8705,"ody":8706,"oditas":8707,"angganan":8708,"ranas":8709,"Ġkemasan":8710,"Ġmengapa":8711,"Ġvi":8712,"Ġvitamin":8713,"Ġvoucher":8714,"Ġkedekatan":8715,"Ġ54":8716,"ĠYun":8717,"tanda":8718,"Ġdikalahkan":8719,"Ġ42":8720,"ĠArdian":8721,"ĠProduc":8722,"ival":8723,"Ġpenyandang":8724,"Ġpenyidik":8725,"irikan":8726,"ĠKeamanan":8727,"Ġdiskon":8728,"ĠUng":8729,"Ġdibeli":8730,"ĠBerbagai":8731,"igurasi":8732,"ĠSeperti":8733,"ĠPeneliti":8734,"utip":8735,"ajian":8736,"ĠShow":8737,"Ġsensasi":8738,"Ġkelurahan":8739,"ujuk":8740,"ĠApp":8741,"galanya":8742,"Ġdipinj":8743,"Ġdiproses":8744,"Ġdiplom":8745,"Ġtrend":8746,"Ġpendirian":8747,"Ġpendanaan":8748,"Ġ77":8749,"Ġ7000":8750,"Ġsepuluh":8751,"Ġdilarang":8752,"Ġdilanjutkan":8753,"ĠKomp":8754,"Ġberpenga":8755,"Ġkebebasan":8756,"Ġsampel":8757,"Ġmenghibur":8758,"ĠSentral":8759,"Ġ87":8760,"ersihan":8761,"ĠAndhika":8762,"ĠSerum":8763,"Ġkesejahter":8764,"ĠAss":8765,"Ġhadirnya":8766,"Ġterlarang":8767,"Ġpengambilan":8768,"aft":8769,"Ġdiduga":8770,"ĠDirgantara":8771,"utupan":8772,"Ġpakar":8773,"Ġkasual":8774,"buhkan":8775,"entuh":8776,"ĠPengend":8777,"Ġberdiri":8778,"Ġpencipta":8779,"Ġpencahayaan":8780,"etuaan":8781,"ancing":8782,"ĠAhsan":8783,"Ġdihasilkan":8784,"ĠHalim":8785,"Ġbakar":8786,"Ġjalani":8787,"ĠKaleb":8788,"Ġobr":8789,"Ġterpisah":8790,"Ġpotensial":8791,"edium":8792,"Ġperdamaian":8793,"Ġdarurat":8794,"ĠNurh":8795,"kshop":8796,"Ġaksesori":8797,"Ġ2009":8798,"spek":8799,"Ġkebudayaan":8800,"ĠRaisa":8801,"Ġgenerator":8802,"Ġikon":8803,"ĠAngka":8804,"ĠAngeles":8805,"incar":8806,"incir":8807,"incare":8808,"ompi":8809,"vei":8810,"ikmat":8811,"Ġmulut":8812,"ĠHarris":8813,"ganisasi":8814,"Ġturunkan":8815,"Ġpartisipasi":8816,"ĠKelompok":8817,"Ġmerekam":8818,"ĠSimone":8819,"Ġbalap":8820,"Ġcomeback":8821,"ĠFederico":8822,"ĠDubai":8823,"Ġbarunya":8824,"ĠDeputi":8825,"Ġtelevisi":8826,"Ġpasir":8827,"Ġpandangan":8828,"anggapi":8829,"Ġtribut":8830,"ĠFrench":8831,"ĠLautaro":8832,"Ġstudio":8833,"Ġdirawat":8834,"Ġrute":8835,"ross":8836,"rosoft":8837,"Ġkontes":8838,"lection":8839,"ĠHadid":8840,"erajinan":8841,"Ġshop":8842,"ĠLayar":8843,"Ġproduser":8844,"Ġmenundukkan":8845,"ĠMakassar":8846,"ĠINF":8847,"Ġbercak":8848,"ĠPersikab":8849,"esuaian":8850,"ACX":8851,"Ġimpian":8852,"Ġtangki":8853,"ĠPesepak":8854,"ĠAuba":8855,"ĠTenas":8856,"ĠHoaks":8857,"Ġpenerimaan":8858,"ĠPavard":8859,"Ġdorongan":8860,"ĠSarr":8861,"ĠCreative":8862,"ĠGanet":8863,"ellig":8864,"ĠBrighton":8865,"Ġtravel":8866,"owski":8867,"âĢĭâĢĭâĢĭâĢĭâĢĭâĢĭâĢĭ":8868,"egalluar":8869,"ĠErling":8870,"ĠOfficer":8871,"ĠBantul":8872,"ĠJustin":8873,"integrasikan":8874,"ĠSloven":8875,"ĠPedro":8876,"ĠMohammad":8877,"Ġnggak":8878,"ĠDynamic":8879,"ekutif":8880,"ĠRayo":8881,"ĠRivan":8882,"Ġmembentur":8883,"ĠKausarEditor":8884,"Ġberkesempatan":8885,"Ġpeternak":8886,"ĠAustria":8887,"ĠâĤ¬":8888,"Ġinstruksi":8889,"ĠWalker":8890,"Ġpemanfaatan":8891,"ĠAnggota":8892,"Ġsimbolis":8893,"Ġtegangan":8894,"ĠPresident":8895,"ĠMicrosoft":8896,"ĠJude":8897,"ĠZenfone":8898,"ĠFederer":8899,"ĠMolecool":8900,"ĠKPI":8901,"ĠDahana":8902,"Ġmengedepankan":8903,"ĠJAKARTA":8904,"ĠKomponis":8905,"Ġkeberlanjutan":8906,"rehensif":8907,"ĠIstana":8908,"ĠTravel":8909,"ĠJaringan":8910,"ĠVillarreal":8911,"ĠManajer":8912,"ĠLokawisata":8913,"ongkrak":8914,"ĠChatelin":8915,"ĠSanchez":8916,"jubkan":8917,"ĠGiroud":8918,"Ġnyaris":8919,"Ġfantastis":8920,"ĠVallecano":8921,"ĠLewandowski":8922,"janjian":8923,"Ġmenorehkan":8924,"ĠMongolia":8925,"ĠKevin":8926,"Ġhektar":8927,"Ġhengkang":8928,"Ġlubang":8929,"ĠNishimoto":8930,"ĠFuture":8931,"ĠAncelotti":8932,"Ġberpengalaman":8933,"Ġkesejahteraan":8934,"ĠSlovenia":8935,"06":8936,"08":8937,"64":8938,"65":8939,"Den":8940,"Dir":8941,"Dia":8942,"HE":8943,"LA":8944,"NP":8945,"Sum":8946,"Siti":8947,"Tim":8948,"UG":8949,"bet":8950,"barang":8951,"brid":8952,"bintang":8953,"bps":8954,"con":8955,"cup":8956,"cini":8957,"deka":8958,"fica":8959,"ges":8960,"hin":8961,"hor":8962,"ion":8963,"ianto":8964,"jono":8965,"kola":8966,"mus":8967,"mos":8968,"metik":8969,"nar":8970,"not":8971,"out":8972,"ose":8973,"rum":8974,"sti":8975,"sed":8976,"wab":8977,"wati":8978,"wulan":8979,"wujud":8980,"watch":8981,"zens":8982,"zhen":8983,"Ġib":8984,"Ġest":8985,"ļ½":8986,"ert":8987,"erv":8988,"erkus":8989,"enjar":8990,"Ġdemen":8991,"Ġdatangkan":8992,"Ġdagang":8993,"arakan":8994,"Ġmalah":8995,"Ġmeta":8996,"Ġparu":8997,"Ġpaham":8998,"Ġplus":8999,"inisi":9000,"Ġkaya":9001,"Ġkatar":9002,"lad":9003,"laku":9004,"lame":9005,"akh":9006,"aktif":9007,"akaian":9008,"Ġbaca":9009,"Ġbep":9010,"Ġbeta":9011,"Ġtran":9012,"Ġtangkap":9013,"Ġtingginya":9014,"emy":9015,"emuka":9016,"Ġdiab":9017,"Ġditon":9018,"Ġdijalan":9019,"Ġdijaga":9020,"Ġdilipat":9021,"gaja":9022,"Ġmenek":9023,"Ġmenembak":9024,"tase":9025,"tact":9026,"tafet":9027,"tut":9028,"alat":9029,"amerkan":9030,"ongi":9031,"ĠSamp":9032,"ĠSend":9033,"ĠSena":9034,"ĠSina":9035,"ĠSusi":9036,"ĠSatuan":9037,"ĠScar":9038,"Ġsec":9039,"Ġsetim":9040,"Ġsegalanya":9041,"ĠPran":9042,"ĠPord":9043,"ĠAtal":9044,"ĠAst":9045,"ĠAgung":9046,"elaran":9047,"ĠBI":9048,"ĠBon":9049,"ĠBangsa":9050,"ĠBambang":9051,"ĠBetis":9052,"ĠBAF":9053,"ĠBadung":9054,"Ġberisiko":9055,"Ġberedar":9056,"Ġkeg":9057,"Ġkew":9058,"ingati":9059,"ĠMA":9060,"ĠMB":9061,"ĠMD":9062,"ĠMate":9063,"ĠMotor":9064,"ĠMats":9065,"ĠMys":9066,"ism":9067,"isinya":9068,"ĠKub":9069,"ĠKoleksi":9070,"ĠKPK":9071,"ĠKÃ¶ln":9072,"Ġperaih":9073,"Ġperten":9074,"Ġperpanjang":9075,"Ġperkuat":9076,"Ġperbuatan":9077,"Ġperlahan":9078,"Ġperajin":9079,"Ġtersi":9080,"Ġterjual":9081,"Ġterintegrasi":9082,"Ġternama":9083,"Ġterwujud":9084,"usuri":9085,"urri":9086,"tiba":9087,"time":9088,"Ġhigh":9089,"itungan":9090,"bulu":9091,"ĠIP":9092,"ĠIku":9093,"ĠIran":9094,"ĠDab":9095,"ĠDead":9096,"ĠDream":9097,"eki":9098,"Ġlant":9099,"Ġletak":9100,"Ġlutu":9101,"Ġlibur":9102,"irina":9103,"imul":9104,"ĠRem":9105,"ĠRon":9106,"ĠRup":9107,"ĠRev":9108,"ĠTU":9109,"ĠTeam":9110,"ĠTechnology":9111,"ĠTHE":9112,"Ġmengenalkan":9113,"ĠCam":9114,"ĠCabang":9115,"Ġinsiden":9116,"ĠJuan":9117,"ukuhkan":9118,"Ġrem":9119,"Ġrad":9120,"Ġradi":9121,"Ġreh":9122,"Ġrec":9123,"Ġregional":9124,"Ġratusan":9125,"ompat":9126,"Ġlabel":9127,"Ġlambat":9128,"Ġpeneg":9129,"Ġpenda":9130,"Ġpenjual":9131,"Ġpenangkapan":9132,"andatangan":9133,"ĠGM":9134,"ĠGri":9135,"ĠGiz":9136,"ĠGaku":9137,"Ġ2027":9138,"ede":9139,"edak":9140,"Ġgandeng":9141,"utik":9142,"epeda":9143,"ĠNd":9144,"ĠNun":9145,"mawan":9146,"onesia":9147,"ĠFK":9148,"ĠFeli":9149,"ĠFernand":9150,"ĠFikri":9151,"embilan":9152,"ĠIndah":9153,"ampton":9154,"Ġmerangk":9155,"Ġfashion":9156,"Ġflag":9157,"ĠUU":9158,"ĠUba":9159,"ĠEC":9160,"ĠESI":9161,"ĠWeb":9162,"ĠWib":9163,"ĠWall":9164,"Ġpemula":9165,"Ġpemasaran":9166,"uhum":9167,"otik":9168,"antren":9169,"Ġazan":9170,"jauan":9171,"jawab":9172,"Ġmembaca":9173,"Ġmembakar":9174,"Ġmembalas":9175,"ĠOtor":9176,"angkara":9177,"Ġakar":9178,"Ġakselerasi":9179,"Ġpojok":9180,"Ġmenyerah":9181,"Ġmenyentuh":9182,"Ġmendampingi":9183,"Ġsemata":9184,"ope":9185,"ubik":9186,"ĠPerlu":9187,"Ġadat":9188,"Ġutamanya":9189,"Ġ37":9190,"Ġ39":9191,"Ġsertifikat":9192,"Ġbahu":9193,"Ġpersyaratan":9194,"icarakan":9195,"letic":9196,"Ġsetinggi":9197,"kawan":9198,"Ġgamer":9199,"dion":9200,"Ġberkap":9201,"Ġberkurang":9202,"Ġharinya":9203,"angguh":9204,"),âĢĿ":9205,"Ġbersangkutan":9206,"Ġkemerdekaan":9207,"Ġkemarau":9208,"Ġkedelapan":9209,"Ġkertas":9210,"ĠZam":9211,"ĠZul":9212,"ĠZita":9213,"Ġmemperm":9214,"Ġdikunjungi":9215,"ecah":9216,"ĠASL":9217,"ĠMenga":9218,"Ġrespon":9219,"Ġkompat":9220,"ĠArham":9221,"ĠArna":9222,"tificial":9223,"ĠProdus":9224,"ĠProject":9225,"tures":9226,"uarga":9227,"Ġpenyesuaian":9228,"stik":9229,"Ġantisipasi":9230,"ĠMarina":9231,"ĠMarino":9232,"ĠMaruhum":9233,"Ġnegaranya":9234,"Ġdiserahkan":9235,"Ġpasc":9236,"ĠSepatu":9237,"ĠPenjualan":9238,"angsungkan":9239,"ajib":9240,"ĠShield":9241,"Ġseniman":9242,"Ġkelenjar":9243,"argai":9244,"Ġpesat":9245,"Ġdipesan":9246,"Ġdipicu":9247,"Ġdiprediksi":9248,"itary":9249,"Ġpenderita":9250,"peti":9251,"Ġ79":9252,"Ġpembiayaan":9253,"ĠMancini":9254,"Ġberbelanja":9255,"Ġskincare":9256,"Ġhalnya":9257,"tono":9258,"Ġberlebihan":9259,"Ġsampaikan":9260,"Ġmenghentikan":9261,"ternal":9262,"Ġmenyajikan":9263,"Ġmenyabet":9264,"Ġtaktik":9265,"Ġtaklukkan":9266,"Ġdiperhatikan":9267,"ĠAsri":9268,"ĠAstr":9269,"ĠAsmara":9270,"enggang":9271,"fie":9272,"Ġkekurangan":9273,"Ġkeketuaan":9274,"ĠAdri":9275,"ĠPSV":9276,"ĠSebaliknya":9277,"ĠMade":9278,"ermansyah":9279,"ĠTerdapat":9280,"ĠStage":9281,"Ġketidak":9282,"Ġrekomendasi":9283,"Ġrekrutan":9284,"inancial":9285,"ĠIstimewa":9286,"ĠSerial":9287,"Ġkurangi":9288,"ondok":9289,"ijat":9290,"Ġkendali":9291,"Ġterkadang":9292,"Ġterkemuka":9293,"Ġsendok":9294,"ĠQiang":9295,"Ġkomputer":9296,"Ġkomprehensif":9297,"ĠMeirina":9298,"ĠAtsu":9299,"tamakan":9300,"ĠRamos":9301,"ĠAkhir":9302,"ĠAktris":9303,"Ġideal":9304,"Ġmenurutnya":9305,"ĠSocial":9306,"ĠSoompi":9307,"ansheet":9308,"Ġperkenalkan":9309,"Ġmahal":9310,"ĠSatgas":9311,"ĠEdgeConneX":9312,"ĠAngel":9313,"Ġtendangannya":9314,"ĠKeduanya":9315,"Ġelemen":9316,"Ġesport":9317,"Ġestafet":9318,"ĠHartono":9319,"Ġmemperkecil":9320,"Ġkritis":9321,"Ġbekerjasama":9322,"rafis":9323,"ĠKualifikasi":9324,"ubungkan":9325,"ĠNotes":9326,"ĠTransformasi":9327,"ĠExpo":9328,"ĠValley":9329,"Ġmenemui":9330,"Ġmerekrut":9331,"ĠPlayer":9332,"ĠLANY":9333,"ĠBasket":9334,"ĠPenyel":9335,"ĠPenyanyi":9336,"Ġgambaran":9337,"ĠMuara":9338,"ĠFederal":9339,"Ġprofil":9340,"budristek":9341,"mpaui":9342,"ĠDuo":9343,"Ġbareng":9344,"Ġrekannya":9345,"Instagram":9346,"Ġtertutup":9347,"ĠMulia":9348,"CTP":9349,"Ġditayangkan":9350,"Ġkriya":9351,"ĠMusim":9352,"Ġforum":9353,"anjikan":9354,"Ġmemeriksa":9355,"ĠLock":9356,"ĠGunakan":9357,"Ġbesutan":9358,"ĠKenya":9359,"exUG":9360,"rakirakan":9361,"ĠReformasi":9362,"ĠCaraka":9363,"ĠRamadhanti":9364,"ĠJoao":9365,"Ġkontak":9366,"stanbul":9367,"ĠDonnar":9368,"ĠHadir":9369,"Ġstabilitas":9370,"Ġshow":9371,"Ġabadi":9372,"entrasi":9373,"Ġangkutan":9374,"ĠNoor":9375,"Ġtugasnya":9376,"Ahmad":9377,"ĠPelaksana":9378,"Ġpadat":9379,"Ġmenakjubkan":9380,"ĠWiFi":9381,"Ġoffline":9382,"Ġsambungan":9383,"ĠSaras":9384,"ĠKereta":9385,"Ġtergel":9386,"ĠJohor":9387,"ĠGauff":9388,"Ġsikap":9389,"ĠBuds":9390,"ĠBrigjen":9391,"ĠMykola":9392,"ĠTekuk":9393,"Ġberfungsi":9394,"Ġrentang":9395,"ergian":9396,"Ġmemadukan":9397,"ĠChristie":9398,"bitkan":9399,"ĠJulian":9400,"ĠZheng":9401,"Ġ????????????????":9402,"Ġliterasi":9403,"ĠDivisi":9404,"Ġnarasi":9405,"Ġsebagaimana":9406,"ĠCommun":9407,"pemain":9408,"ĠTOP":9409,"ĠEuropa":9410,"Ġbendera":9411,"ĠHarapannya":9412,"Ġkosmetik":9413,"ĠTugas":9414,"ĠTorino":9415,"Ġpemadaman":9416,"ĠSUGA":9417,"ĠSayangnya":9418,"Ġmengeksplorasi":9419,"Ġdirekrut":9420,"ĠBrunei":9421,"Ġpermukaan":9422,"omodasi":9423,"ĠPraset":9424,"Ġtubruk":9425,"ĠLeverkus":9426,"Ġpuluhan":9427,"Ġkisaran":9428,"ĠAchmad":9429,"Ġritel":9430,"Ġcleansheet":9431,"ĠElectronic":9432,"Ġmempersembahkan":9433,"Ġmekanisme":9434,"Ġditujukan":9435,"ĠGranada":9436,"ĠAthletic":9437,"Ġsponsor":9438,"Ġblanko":9439,"Ġdiantaranya":9440,"ĠBabak":9441,"ĠBanyumas":9442,"Ġterpaut":9443,"olume":9444,"Ġlulusan":9445,"ĠLidya":9446,"ĠNerazzurri":9447,"ĠHokky":9448,"ĠPengendalian":9449,"Ġobrolan":9450,"Ġtribute":9451,"Ġshopping":9452,"elligence":9453,"Ġdemensia":9454,"Ġkatarak":9455,"Ġbepergian":9456,"Ġditonton":9457,"ĠSenayan":9458,"ĠSinaga":9459,"ĠPordasi":9460,"ĠAtalanta":9461,"Ġlutut":9462,"Ġradiasi":9463,"ĠFelix":9464,"Ġflagship":9465,"ĠOtoritas":9466,"ĠLeverkusen":9467,"42":9468,"62":9469,"84":9470,"87":9471,"Care":9472,"Dis":9473,"FID":9474,"GC":9475,"INI":9476,"Kon":9477,"LU":9478,"News":9479,"RB":9480,"RS":9481,"SDM":9482,"UM":9483,"bin":9484,"cabi":9485,"dangan":9486,"eori":9487,"got":9488,"jodo":9489,"lung":9490,"leg":9491,"landia":9492,"mur":9493,"non":9494,"nia":9495,"ock":9496,"rud":9497,"rub":9498,"sy":9499,"sul":9500,"senang":9501,"utasi":9502,"uick":9503,"vati":9504,"vest":9505,"wire":9506,"ware":9507,"yum":9508,"zo":9509,"Ġil":9510,"erve":9511,"Ġdos":9512,"Ġdarat":9513,"Ġdressage":9514,"arina":9515,"arenakan":9516,"Ġmon":9517,"Ġmadu":9518,"Ġmoral":9519,"Ġpeta":9520,"Ġplay":9521,"Ġpega":9522,"Ġpecahkan":9523,"Ġpadahal":9524,"atinya":9525,"Ġsidang":9526,"Ġspek":9527,"Ġsinergi":9528,"angs":9529,"angian":9530,"Ġkad":9531,"Ġkim":9532,"Ġkamb":9533,"Ġkoperasi":9534,"aker":9535,"Ġbon":9536,"Ġten":9537,"Ġton":9538,"Ġteh":9539,"Ġtiro":9540,"Ġtayangan":9541,"Ġtangguh":9542,"sisi":9543,"sics":9544,"unuh":9545,"unikasi":9546,"Ġdif":9547,"Ġdiju":9548,"Ġdiap":9549,"Ġdiaw":9550,"Ġditand":9551,"Ġditur":9552,"Ġdiunggah":9553,"Ġmenemp":9554,"Ġmenular":9555,"Ġmenentukan":9556,"ademi":9557,"tuh":9558,"onz":9559,"ĠSang":9560,"ĠShe":9561,"ĠSton":9562,"ĠSosial":9563,"ĠSports":9564,"ĠSMP":9565,"ĠSungai":9566,"ĠSiber":9567,"Ġsetia":9568,"Ġseumur":9569,"ĠPre":9570,"ĠPublik":9571,"ĠPFA":9572,"ĠPDI":9573,"ĠAG":9574,"ĠAyo":9575,"ĠAuto":9576,"ĠAlasan":9577,"eliner":9578,"ĠBP":9579,"ĠBuk":9580,"ĠBangk":9581,"ĠBest":9582,"ĠBencana":9583,"ĠBiro":9584,"ĠBuch":9585,"ĠBalikpapan":9586,"ors":9587,"Ġberman":9588,"Ġbertinggi":9589,"Ġberawal":9590,"Ġberagama":9591,"engsi":9592,"Ġkey":9593,"Ġkeyak":9594,"Ġkejar":9595,"ĠMuk":9596,"ĠMayang":9597,"ĠMataram":9598,"ister":9599,"isuka":9600,"ĠKA":9601,"ĠKad":9602,"ĠKup":9603,"ĠKunc":9604,"ĠKulit":9605,"ĠKho":9606,"ĠKolaborasi":9607,"ĠKlok":9608,"ĠKlop":9609,"Ġperform":9610,"Ġperaturan":9611,"Ġterper":9612,"Ġterpan":9613,"Ġterbagi":9614,"ario":9615,"urs":9616,"Ġmemandang":9617,"Ġmemeriahkan":9618,"Ġmemikirkan":9619,"elayan":9620,"Ġham":9621,"Ġhulu":9622,"Ġhiper":9623,"itzer":9624,"ĠIka":9625,"ĠIstanbul":9626,"ĠDA":9627,"ĠDil":9628,"ĠDum":9629,"ĠDukungan":9630,"ĠDandy":9631,"Ġleh":9632,"Ġlog":9633,"irik":9634,"ĠRT":9635,"ĠRec":9636,"ĠRaj":9637,"ĠRuang":9638,"ĠTapan":9639,"ĠTotal":9640,"ĠTegalluar":9641,"ĠTCTP":9642,"Ġmengon":9643,"Ġmengesan":9644,"Ġmengincar":9645,"ĠCF":9646,"ĠCin":9647,"ĠCas":9648,"ĠCatur":9649,"ĠCPU":9650,"Ġinspirasi":9651,"Ġrah":9652,"Ġrival":9653,"ulangi":9654,"idd":9655,"idat":9656,"idasi":9657,"ĠLam":9658,"ĠLong":9659,"ĠLesm":9660,"ĠIntel":9661,"bag":9662,"row":9663,"Ġpenamp":9664,"Ġpenola":9665,"Ġpenikmat":9666,"andu":9667,"andakan":9668,"ĠGang":9669,"ebalan":9670,"ebangsaan":9671,"edom":9672,"Ġganti":9673,"Ġgenc":9674,"ephy":9675,"ĠHA":9676,"ĠHemat":9677,"ĠHumas":9678,"ĠFu":9679,"ĠFest":9680,"ĠFire":9681,"ĠFast":9682,"ampur":9683,"Ġbaja":9684,"Ġnas":9685,"Ġnutrisi":9686,"Ġnelayan":9687,"Ġmerawat":9688,"Ġmerujuk":9689,"Ġcelah":9690,"Ġcantik":9691,"oksi":9692,"okrat":9693,"Ġjern":9694,"Ġjenazah":9695,"Ġwar":9696,"Ġwis":9697,"Ġwew":9698,"Ġwawasan":9699,"ĠEquestrian":9700,"ĠWimb":9701,"alahannya":9702,"abil":9703,"Ġpengurangan":9704,"Ġmelampaui":9705,"way":9706,"jajar":9707,"ĠOut":9708,"ĠOKI":9709,"ĠONF":9710,"angkal":9711,"Ġakadem":9712,"Ġpound":9713,"Ġmenyeg":9714,"Ġmenyebarkan":9715,"Ġmasjid":9716,"Ġmendatangi":9717,"Ġseminggu":9718,"ĠCODM":9719,"china":9720,"ingkir":9721,"ingkirkan":9722,"hann":9723,"ipil":9724,"obolan":9725,"uble":9726,"gukan":9727,"rey":9728,"reat":9729,"ĠChild":9730,"Ġserat":9731,"Ġserang":9732,"Ġserum":9733,"ayat":9734,"Ġmencontoh":9735,"jaringan":9736,"icaraan":9737,"leep":9738,"Ġmelestarikan":9739,"olagen":9740,"Ġgaji":9741,"yaratkan":9742,"Ġkepindahan":9743,"Ġberkebangsaan":9744,"Ġpelindung":9745,"Ġpelancong":9746,"Ġpelestarian":9747,"ambat":9748,"ĠVo":9749,"ĠVivo":9750,"Ġharganya":9751,"Ġbersenang":9752,"Ġbersubsidi":9753,"Ġberskala":9754,"onso":9755,"Ġkemas":9756,"Ġvan":9757,"Ġkedalaman":9758,"ĠYa":9759,"ĠYud":9760,"grasi":9761,"Ġasam":9762,"Ġasap":9763,"Ġasusi":9764,"ĠZeno":9765,"ĠZephy":9766,"Ġmemperbarui":9767,"Ġmempertandingkan":9768,"talent":9769,"Ġselfie":9770,"Ġdikonsumsi":9771,"Ġdikarenakan":9772,"Ġ43":9773,"ece":9774,"ection":9775,"ĠMenjadi":9776,"ĠArema":9777,"mbarkan":9778,"ĠProcess":9779,"Ġekst":9780,"Ġberhak":9781,"Ġberharga":9782,"Ġpenyeles":9783,"heim":9784,"Ġanalis":9785,"ĠMarsel":9786,"ĠMarvel":9787,"Ġdiser":9788,"Ġdiselesaikan":9789,"ĠUnitary":9790,"Ġterburuk":9791,"Ġkesembilan":9792,"ĠPenjaringan":9793,"ajai":9794,"Ġsengaja":9795,"ĠPemkab":9796,"ĠApi":9797,"gali":9798,"emprot":9799,"Ġdipasarkan":9800,"underb":9801,"Ġpendengar":9802,"Ġseputar":9803,"ĠSabitzer":9804,"Ġkemenangannya":9805,"Ġmembaik":9806,"Ġaparat":9807,"Ġkebersihan":9808,"Ġkebobolan":9809,"Ġterdekat":9810,"Ġterdakwa":9811,"Ġ07":9812,"ĠKemenpora":9813,"arkam":9814,"ĠSensor":9815,"Ġ2012":9816,"Ġartinya":9817,"Ġketerampilan":9818,"Ġdipercaya":9819,"cio":9820,"Ġanaknya":9821,"Ġbening":9822,"Ġkekasih":9823,"ava":9824,"Ġdirektur":9825,"Ġdidesain":9826,"Ġmenggandakan":9827,"ĠSeblay":9828,"ĠSebenarnya":9829,"isasikan":9830,"Ġpole":9831,"ĠTerbaik":9832,"ĠOpenPewarta":9833,"Ġjuarai":9834,"loop":9835,"ezar":9836,"ezmann":9837,"ĠSeribu":9838,"Ġperluasan":9839,"ĠPTS":9840,"sisten":9841,"ancarkan":9842,"ĠAhdiat":9843,"ĠDesain":9844,"ĠDesca":9845,"Ġterpapar":9846,"Ġpukulan":9847,"Ġkawan":9848,"ĠSinisuka":9849,"ĠAtman":9850,"ĠEnde":9851,"Ġpenghujung":9852,"antauan":9853,"ĠBelgia":9854,"Ġkeunggulannya":9855,"ĠMagu":9856,"Ġagak":9857,"Ġkehutanan":9858,"Ġjelasnya":9859,"eleskop":9860,"ĠNovak":9861,"Ġaksesoris":9862,"Ġistri":9863,"Ġ2002":9864,"Ġprivasi":9865,"PRNews":9866,"Ġberlalu":9867,"Ġelegan":9868,"Ġsound":9869,"ustain":9870,"ĠThunderb":9871,"imbangi":9872,"Ġkemampuannya":9873,"IDR":9874,"alisme":9875,"ĠSwedia":9876,"Ġtercapai":9877,"iluet":9878,"ĠReserve":9879,"entials":9880,"ĠSalahudin":9881,"ĠAbb":9882,"ĠKeluarga":9883,"Ġkapal":9884,"Ġberjalannya":9885,"Ġmaksimum":9886,"ĠSpr":9887,"ĠSpec":9888,"ESCO":9889,"ĠCoun":9890,"ĠTransaksi":9891,"ĠExp":9892,"ĠAndarningtyasEditor":9893,"Ġkekuasaan":9894,"Ġmerekomendasikan":9895,"Ġbalasan":9896,"Ġterhind":9897,"jenan":9898,"Ġsembari":9899,"Ġtiap":9900,"ĠElkan":9901,"enagai":9902,"lokasi":9903,"Ġoptimistis":9904,"ĠPasalnya":9905,"ĠSumut":9906,"ĠTelin":9907,"ĠPortrait":9908,"ĠPameran":9909,"ĠIlmu":9910,"Ġregistrasi":9911,"rahim":9912,"ĠImran":9913,"ĠGolkar":9914,"ĠLukeba":9915,"INU":9916,"Ġtargetkan":9917,"ĠMusic":9918,"ĠTreb":9919,"Ġberinvestasi":9920,"Ġberinovasi":9921,"ĠKapten":9922,"ĠOrganisasi":9923,"ĠBachtiarEditor":9924,"Ġdebu":9925,"ĠSriwijaya":9926,"ext":9927,"ĠSakti":9928,"ĠCarlo":9929,"ĠFFWI":9930,"Ġmengaplikasikan":9931,"ĠLaptop":9932,"bie":9933,"Ġlayaknya":9934,"Ġmenunjang":9935,"ĠAKBP":9936,"ulihkan":9937,"ĠWars":9938,"...":9939,"varez":9940,"ĠJaksel":9941,"Ġsambutannya":9942,"ĠAlexis":9943,"ĠAlexander":9944,"ĠMarciano":9945,"Ġmistar":9946,"ĠPatrol":9947,"ĠCollection":9948,"ĠGelora":9949,"Ġmustah":9950,"ĠBeauty":9951,"ĠMajor":9952,"ĠGaun":9953,"ĠOscar":9954,"jamin":9955,"ĠMaccabi":9956,"ĠYusli":9957,"ĠKalijodo":9958,"Ġmenggaet":9959,"ledon":9960,"ĠStudio":9961,"ĠDeck":9962,"ĠDeco":9963,"Ġrentan":9964,"ĠNicola":9965,"ĠJeff":9966,"Ġgemilang":9967,"ĠDemikian":9968,"ĠDemokrat":9969,"ĠRobert":9970,"Ġpetir":9971,"Ġpecinta":9972,"ĠAviv":9973,"ĠBanjar":9974,"Ġundangan":9975,"ĠPoin":9976,"Ġrumit":9977,"Kemenkominfo":9978,"Ġdefisit":9979,"Ġsebagainya":9980,"ĠPrestasi":9981,"ĠBamed":9982,"ĠRaden":9983,"ĠJeremy":9984,"esmian":9985,"ĠDekranas":9986,"ĠLasem":9987,"Ġurusan":9988,"ungguh":9989,"Ġmengklaim":9990,"Ġrangkuman":9991,"ĠPenjabat":9992,"Ġambisi":9993,"ĠBogdanovic":9994,"Ġpikiran":9995,"Ġragu":9996,"Ġdenim":9997,"Ġbocoran":9998,"Ġtebal":9999,"Ġlunak":10000,"ĠNataliaEditor":10001,"ĠVictoria":10002,"ĠBolivia":10003,"ĠBintan":10004,"Ġfleksibilitas":10005,"ĠWindows":10006,"ĠShenzhen":10007,"Ġsengit":10008,"Ġkafein":10009,"ĠAmazon":10010,"Ġpemenuhan":10011,"optimalkan":10012,"ĠPertiwi":10013,"ĠRedemption":10014,"Ġtuduhan":10015,"Ġkewajiban":10016,"ĠTaylor":10017,"ĠCitizens":10018,"Ġrintisan":10019,"Ġgembira":10020,"ĠFacebook":10021,"ĠFeedloop":10022,"ĠINFINI":10023,"ĠSendai":10024,"ĠMystic":10025,"Ġpertengahan":10026,"ĠDabexUG":10027,"ĠGriezmann":10028,"Ġberkapasitas":10029,"ĠZulk":10030,"Ġmempermudah":10031,"ĠSarasvati":10032,"Ġtergelincir":10033,"vestment":10034,"Ġpegawai":10035,"Ġkimia":10036,"Ġkambing":10037,"Ġtiroid":10038,"Ġditurunkan":10039,"ĠStones":10040,"Ġbermanfaat":10041,"ĠKlopp":10042,"Ġleher":10043,"ĠTapanuli":10044,"Ġmengesankan":10045,"ĠLesmana":10046,"Ġjernih":10047,"Ġwewangian":10048,"ĠWimbledon":10049,"Ġasusila":10050,"ĠZephyrus":10051,"Ġpenyelesaian":10052,"ĠMarselino":10053,"PRNewswire":10054,"ĠThunderbolt":10055,"ĠINFINITE":10056,"34":10057,"57":10058,"66":10059,"96":10060,"97":10061,"Ar":10062,"Be":10063,"Bar":10064,"Baca":10065,"Bandung":10066,"DS":10067,"EW":10068,"EET":10069,"HA":10070,"HM":10071,"HU":10072,"IT":10073,"KA":10074,"KM":10075,"Kalau":10076,"Kato":10077,"LED":10078,"Moham":10079,"NNE":10080,"OM":10081,"OO":10082,"PC":10083,"RD":10084,"Solo":10085,"SON":10086,"Tamp":10087,"UI":10088,"UP":10089,"UR":10090,"UMKM":10091,"Wh":10092,"Wang":10093,"card":10094,"core":10095,"dad":10096,"drum":10097,"foli":10098,"fps":10099,"gk":10100,"gakan":10101,"gant":10102,"har":10103,"hip":10104,"ier":10105,"ience":10106,"kay":10107,"key":10108,"lit":10109,"luki":10110,"my":10111,"mak":10112,"nm":10113,"odi":10114,"off":10115,"qsa":10116,"saat":10117,"sos":10118,"sonal":10119,"ski":10120,"td":10121,"tok":10122,"tensi":10123,"tled":10124,"uw":10125,"uta":10126,"vat":10127,"vokasi":10128,"wer":10129,"was":10130,"wide":10131,"zar":10132,"zema":10133,"Ġ+":10134,"Ġus":10135,"Ġir":10136,"Ġom":10137,"Ġet":10138,"Ġend":10139,"Ġusah":10140,"Ġayah":10141,"anulir":10142,"erun":10143,"erik":10144,"erakkan":10145,"enai":10146,"enheim":10147,"Ġdap":10148,"Ġdeg":10149,"Ġdeal":10150,"aring":10151,"arco":10152,"arbud":10153,"arudin":10154,"Ġmis":10155,"Ġmagn":10156,"Ġpir":10157,"atalan":10158,"inn":10159,"inang":10160,"Ġsint":10161,"Ġspe":10162,"Ġsiluet":10163,"Ġkat":10164,"Ġkolabor":10165,"Ġkode":10166,"Ġkokoh":10167,"Ġklaim":10168,"Ġkoordinasi":10169,"Ġkayu":10170,"Ġkerajinan":10171,"lav":10172,"lagi":10173,"Ġblu":10174,"Ġbuang":10175,"Ġbeda":10176,"Ġbass":10177,"Ġtep":10178,"Ġtolak":10179,"Ġdires":10180,"Ġdibayar":10181,"gaan":10182,"kandar":10183,"yawar":10184,"alang":10185,"alet":10186,"aldi":10187,"alith":10188,"amas":10189,"amaikan":10190,"amida":10191,"ĠSC":10192,"ĠSS":10193,"ĠStu":10194,"ĠSas":10195,"ĠSand":10196,"ĠSut":10197,"ĠSama":10198,"ĠSudah":10199,"ĠSay":10200,"ĠSaka":10201,"ĠSpo":10202,"ĠSkr":10203,"ĠSystem":10204,"Ġsejajar":10205,"ahasa":10206,"ĠPeri":10207,"ĠPena":10208,"ĠPic":10209,"ĠPeter":10210,"ĠPAM":10211,"ĠPega":10212,"ĠPutih":10213,"ĠPanitia":10214,"ĠPondok":10215,"ĠAO":10216,"ĠAre":10217,"ĠAjax":10218,"ĠAsics":10219,"elit":10220,"elle":10221,"ĠBal":10222,"ĠBrid":10223,"ĠBaterai":10224,"ĠBlok":10225,"ĠBisnis":10226,"organ":10227,"Ġbertah":10228,"Ġbertahun":10229,"Ġberujung":10230,"inggung":10231,"iku":10232,"ĠMC":10233,"ĠMit":10234,"ĠMila":10235,"ĠMilik":10236,"ĠMuni":10237,"ĠMohon":10238,"istri":10239,"esa":10240,"eskan":10241,"alaga":10242,"ĠKO":10243,"ĠKro":10244,"ĠKelas":10245,"ĠKabar":10246,"ĠKawasan":10247,"Ġperak":10248,"Ġpertem":10249,"Ġperannya":10250,"Ġperjanjian":10251,"Ġterendah":10252,"Ġterbuat":10253,"usatan":10254,"iliran":10255,"ure":10256,"asib":10257,"asio":10258,"tiban":10259,"titled":10260,"Ġmema":10261,"Ġmemin":10262,"Ġmemicu":10263,"Ġhijab":10264,"itya":10265,"bulan":10266,"ĠDw":10267,"ĠDjauh":10268,"ĠDash":10269,"ĠDendy":10270,"ekal":10271,"ektif":10272,"Ġlong":10273,"Ġlingk":10274,"Ġlangka":10275,"Ġlelu":10276,"Ġlimb":10277,"Ġlifestyle":10278,"aray":10279,"irat":10280,"ĠRef":10281,"ĠRTH":10282,"ĠRolly":10283,"ĠTI":10284,"ĠTia":10285,"ĠTamb":10286,"ĠTingkat":10287,"ĠTers":10288,"ĠTembak":10289,"ĠTissa":10290,"umor":10291,"umannya":10292,"Ġmengatas":10293,"Ġmengerahkan":10294,"Ġmengonsumsi":10295,"ĠCR":10296,"ĠCik":10297,"ĠCons":10298,"ĠCarn":10299,"ĠCemp":10300,"ĠCentr":10301,"ĠCahaya":10302,"Ġinklusi":10303,"ĠJac":10304,"ĠJUNG":10305,"ĠJava":10306,"uktur":10307,"acetan":10308,"Ġrap":10309,"Ġraya":10310,"Ġrev":10311,"Ġrasanya":10312,"Ġrasakan":10313,"Ġrayakan":10314,"Ġraksasa":10315,"Ġrerun":10316,"ulung":10317,"ĠLori":10318,"ĠLite":10319,"ĠLCS":10320,"ĠLembaga":10321,"ĠLenteng":10322,"ĠIntan":10323,"round":10324,"rofi":10325,"roversi":10326,"Ġpentas":10327,"Ġpenataan":10328,"Ġpenambahan":10329,"ĠGh":10330,"ĠGem":10331,"ĠGab":10332,"ĠGamb":10333,"ĠGund":10334,"ĠGermain":10335,"ĠGEL":10336,"ebus":10337,"Ġge":10338,"Ġgiliran":10339,"Ġ123":10340,"epis":10341,"ĠNA":10342,"ĠNational":10343,"ĠNajib":10344,"ĠNezar":10345,"ĠHag":10346,"ĠHea":10347,"ĠHav":10348,"ĠHindari":10349,"ĠHTC":10350,"ĠHaji":10351,"ĠHermansyah":10352,"rizer":10353,"ĠFur":10354,"ĠFTS":10355,"ĠFood":10356,"perience":10357,"Ġbag":10358,"Ġner":10359,"Ġnonton":10360,"Ġmera":10361,"Ġmeros":10362,"Ġcita":10363,"Ġcip":10364,"Ġciri":10365,"Ġcahaya":10366,"Ġmenjanjikan":10367,"okwi":10368,"ĠUcup":10369,"alisis":10370,"Ġwill":10371,"Ġwalaupun":10372,"ĠEsta":10373,"ĠWA":10374,"ĠWeg":10375,"ĠWond":10376,"ĠWalau":10377,"abin":10378,"abalaga":10379,"egat":10380,"Ġpengolah":10381,"Ġproperti":10382,"Ġprospek":10383,"erick":10384,"Ġmenjadikannya":10385,"Ġmembintangi":10386,"Ġmembiarkan":10387,"ĠOver":10388,"ĠOIS":10389,"ĠOLED":10390,"ebihi":10391,"Ġaksesi":10392,"Ġmenyadari":10393,"Ġkaryanya":10394,"yakinkan":10395,"Ġmendaftar":10396,"osa":10397,"Ġsembuh":10398,"cha":10399,"opuler":10400,"arannya":10401,"ĠPerb":10402,"ĠPerg":10403,"Ġadap":10404,"Ġadopsi":10405,"reich":10406,"ĠCho":10407,"etapan":10408,"daq":10409,"daan":10410,"ayano":10411,"ayangkara":10412,"Ġmencuri":10413,"Ġsekadar":10414,"ico":10415,"ics":10416,"Ġmelebar":10417,"Ġmelebihi":10418,"Ġberkumpul":10419,"ĠViv":10420,"ĠVideo":10421,"mies":10422,"Ġbersarang":10423,"Ġbersemangat":10424,"Ġkemacetan":10425,"Ġvs":10426,"Ġvolume":10427,"Ġkedalu":10428,"Ġ53":10429,"Ġ57":10430,"Ġ58":10431,"ĠYG":10432,"ĠYam":10433,"ĠYul":10434,"ĠYong":10435,"Ġkerjasama":10436,"gres":10437,"ova":10438,"Ġmemperb":10439,"teman":10440,"jutkan":10441,"Ġselebri":10442,"Ġout":10443,"ĠAlvarez":10444,"Ġrespons":10445,"Ġkompeti":10446,"ĠArriz":10447,"tify":10448,"Ġberhati":10449,"Ġpenyelamatan":10450,"stil":10451,"station":10452,"stock":10453,"ĠMark":10454,"ĠMarqu":10455,"ĠMarth":10456,"ĠMarsh":10457,"ĠKeunggulan":10458,"Ġdisukai":10459,"Ġdisarankan":10460,"tingen":10461,"Ġdibahas":10462,"Ġpastinya":10463,"ĠSepak":10464,"ĠSelang":10465,"Ġkelembab":10466,"ĠPemkot":10467,"ĠPolitik":10468,"erna":10469,"ernaan":10470,"ĠApartemen":10471,"restasi":10472,"empuran":10473,"under":10474,"undur":10475,"Ġkecemasan":10476,"ĠDie":10477,"lien":10478,"efoto":10479,"Ġpembicaraan":10480,"Ġ108":10481,"Ġberbakat":10482,"Ġberbahaya":10483,"Ġhadapan":10484,"lass":10485,"ĠKomoditas":10486,"ĠKomarudin":10487,"Ġberprestasi":10488,"Ġkebotakan":10489,"Ġkebanyakan":10490,"Ġ09":10491,"Ġmenghubungi":10492,"arkah":10493,"Ġmenyapu":10494,"Ġtersingkir":10495,"Ġ150":10496,"Ġprinsip":10497,"Ġarahan":10498,"cetic":10499,"Ġjadikan":10500,"come":10501,"Ġstruktur":10502,"Ġinginkan":10503,"Ġditanya":10504,"Ġditangani":10505,"Ġditempatkan":10506,"Ġdirencanakan":10507,"Ġpengawasan":10508,"Ġ128":10509,"lancos":10510,"Ġdidorong":10511,"Ġmenggandeng":10512,"Ġmemasarkan":10513,"ĠDiaz":10514,"ally":10515,"ĠPrak":10516,"berra":10517,"ource":10518,"ĠStaf":10519,"Ġketidaknya":10520,"gej":10521,"ĠPaser":10522,"ĠPasangan":10523,"bankan":10524,"banez":10525,"Ġanggotanya":10526,"Ġex":10527,"ĠPengelola":10528,"Ġberdaya":10529,"Ġpencemaran":10530,"Ġpencernaan":10531,"Ġkurban":10532,"bukaan":10533,"ĠBayu":10534,"rabat":10535,"Ġsendirian":10536,"Ġgelang":10537,"atasaray":10538,"Ġpermainannya":10539,"ĠMerdeka":10540,"ĠSemi":10541,"eransi":10542,"Ġkomposisi":10543,"Ġkompleks":10544,"Ġobliga":10545,"Ġlawannya":10546,"ucci":10547,"argan":10548,"ĠArief":10549,"ĠKaren":10550,"ĠReds":10551,"antah":10552,"ĠBracket":10553,"Ġ111":10554,"ĠSurat":10555,"ĠSurakarta":10556,"Ġagresif":10557,"ĠSof":10558,"Ġjaminan":10559,"uguhkan":10560,"ansyah":10561,"ĠBear":10562,"ĠEderson":10563,"epakati":10564,"Ġelim":10565,"ĠSale":10566,"Ġmenampung":10567,"BAR":10568,"ĠBoo":10569,"Ġmemperkaya":10570,"yanusa":10571,"Ġbekas":10572,"ĠResear":10573,"Ġotak":10574,"ĠBenfica":10575,"ĠBenjamin":10576,"ĠBenzema":10577,"Ġmingguan":10578,"Ġparuh":10579,"ĠKelima":10580,"Ġbertolak":10581,"ĠKutai":10582,"ĠIrjen":10583,"Ġstadium":10584,"Ġstadion":10585,"ĠSuperc":10586,"Ġbernilai":10587,"ĠMatahari":10588,"ĠMatepad":10589,"ĠPalmer":10590,"krug":10591,"ĠMengenai":10592,"ĠEvans":10593,"Ġalas":10594,"Ġpersidangan":10595,"Ġintelligence":10596,"idiki":10597,"ĠSane":10598,"ĠKomunitas":10599,"ĠControl":10600,"ĠContact":10601,"ĠKecil":10602,"Ġlintasan":10603,"Ġpenyelidikan":10604,"ĠPembalap":10605,"ĠPembaruan":10606,"konten":10607,"Ġtemuan":10608,"ĠManag":10609,"Ġperhelatan":10610,"Ġperhentian":10611,"parel":10612,"elamatkan":10613,"Ġzaman":10614,"Ġzoom":10615,"ĠMoo":10616,"ĠMois":10617,"ĠIlkay":10618,"Ġreguler":10619,"rahman":10620,"ĠKeber":10621,"ĠKebijakan":10622,"warsa":10623,"ĠSonokwi":10624,"ING":10625,"bukota":10626,"ĠSatrio":10627,"Ġtriwulan":10628,"strumen":10629,"ĠGunung":10630,"ĠAmanda":10631,"ĠAmrabat":10632,"ĠMusyawar":10633,"ĠHamid":10634,"ĠOratm":10635,"Ġupayakan":10636,"ftaran":10637,"Ġmiliknya":10638,"ĠSkin":10639,"ĠSlamet":10640,"Ġkontroversi":10641,"gnosis":10642,"encananya":10643,"ĠBlibliCare":10644,"biotik":10645,"Ġpenjelasan":10646,"ĠFANM":10647,"lawanan":10648,"VIDIA":10649,"ĠUlreich":10650,"Ġbergengsi":10651,"Ġangklung":10652,"Ġmenempatkan":10653,"Ġinteraktif":10654,"Ġdipasang":10655,"ĠBajcetic":10656,"ĠBaggot":10657,"ĠTennis":10658,"ĠVeron":10659,"ĠVerge":10660,"Ġoffside":10661,"ĠMarcus":10662,"ĠSetiadi":10663,"Ġtuturnya":10664,"Ġsarjana":10665,"Ġtundukkan":10666,"ĠNanon":10667,"Ġmuslim":10668,"ĠCreed":10669,"Ġdibukukan":10670,"ĠCancel":10671,"ĠCanberra":10672,"ĠLennon":10673,"ĠSEASON":10674,"Ġberfokus":10675,"Ġberadu":10676,"ĠMilk":10677,"ĠRibuan":10678,"Ġrobot":10679,"ĠNorris":10680,"ĠCopa":10681,"ĠCoppa":10682,"Ġsubsidi":10683,"Ġkuno":10684,"sitektur":10685,"ĠDimarco":10686,"ĠJoselu":10687,"ĠMarcelo":10688,"Ġpersetujuan":10689,"Ġhidrasi":10690,"ĠLewis":10691,"ĠHUB":10692,"Ġmengendalikan":10693,"Ġreaksi":10694,"Ġgenre":10695,"ĠPermendag":10696,"Ġrumor":10697,"enial":10698,"Ġtempo":10699,"ĠNasdaq":10700,"Ġdinamis":10701,"Ġdinamika":10702,"Ġpeternakan":10703,"Ġmarsh":10704,"ĠPercepatan":10705,"Ġmeyakini":10706,"Ġmeyakinkan":10707,"Ġrangkumannya":10708,"Ġprotes":10709,"Ġbox":10710,"ĠSariEditor":10711,"ĠClare":10712,"Ġrestoran":10713,"ĠPramud":10714,"ĠBhayangkara":10715,"ĠIMX":10716,"ĠDermies":10717,"ĠCyber":10718,"Ġpenyalah":10719,"ĠUNESCO":10720,"ĠWinter":10721,"Ġutara":10722,"Ġscrub":10723,"Ġsahabat":10724,"ĠPlayoff":10725,"ĠKriyanusa":10726,"ebaskan":10727,"Ġgugur":10728,"ĠYahya":10729,"ĠAndriy":10730,"Ġdiaspora":10731,"Ġmengundurkan":10732,"ĠWenzhou":10733,"ĠWahid":10734,"Ġkonsultasi":10735,"ĠAbdu":10736,"botol":10737,"Ġtekstil":10738,"ĠPegunungan":10739,"Ġhoaks":10740,"ĠTerlebih":10741,"Ġeksekusi":10742,"Ġbeasiswa":10743,"Ġkesiapan":10744,"Ġhybrid":10745,"ĠGalatasaray":10746,"Ġeyeliner":10747,"ĠAmerican":10748,"erminkan":10749,"ĠRujak":10750,"Ġpenyaluran":10751,"ĠFormula":10752,"ĠFullkrug":10753,"Ġnotes":10754,"alizaEditor":10755,"Ġview":10756,"ĠYunani":10757,"Ġdipinjamkan":10758,"Ġtrendi":10759,"Ġpenciptaan":10760,"ĠNurhalizaEditor":10761,"ĠPersikabo":10762,"ĠPedrosa":10763,"horst":10764,"sedur":10765,"Ġtransisi":10766,"ĠScarlet":10767,"ĠPranowo":10768,"Ġtersisa":10769,"Ġlantaran":10770,"imuljono":10771,"ĠCamon":10772,"Ġpendaftaran":10773,"andatanganan":10774,"ĠProdusen":10775,"ĠLocker":10776,"FIDE":10777,"Ġdijuluki":10778,"Ġdiawali":10779,"Ġpenolakan":10780,"ĠHAE":10781,"ĠMaguire":10782,"ĠExpress":10783,"Ġterhindar":10784,"Beijing":10785,"EETING":10786,"Tampilkan":10787,"alitharan":10788,"ĠSpotify":10789,"ĠPegad":10790,"Ġbertahap":10791,"ĠMunich":10792,"ĠDjauhari":10793,"Ġleluasa":10794,"Ġlimbah":10795,"ĠCarnando":10796,"Ġreruntuhan":10797,"ĠLorient":10798,"ĠGambir":10799,"ĠGundogan":10800,"ĠFTSE":10801,"Ġmerosot":10802,"ĠWeghorst":10803,"Ġkedaluwarsa":10804,"ĠArrizabalaga":10805,"ĠMarthin":10806,"Ġkelembaban":10807,"Ġketidaknyamanan":10808,"Ġobligasi":10809,"ĠResearch":10810,"ĠSonokwijenan":10811,"ĠMusyawarah":10812,"ĠOratmangun":10813,"ĠFANMEETING":10814,"075":10815,"Bay":10816,"DA":10817,"IV":10818,"IHSG":10819,"Jadi":10820,"KK":10821,"Kayano":10822,"London":10823,"Mo":10824,"NA":10825,"NC":10826,"Pri":10827,"Pemp":10828,"RW":10829,"Rom":10830,"SA":10831,"ST":10832,"Sat":10833,"Spanyol":10834,"Tek":10835,"WP":10836,"aus":10837,"bus":10838,"bol":10839,"beda":10840,"biani":10841,"cu":10842,"cing":10843,"cia":10844,"cita":10845,"cic":10846,"curkan":10847,"ein":10848,"eon":10849,"fik":10850,"ful":10851,"fare":10852,"garan":10853,"hdad":10854,"ibu":10855,"jari":10856,"kara":10857,"kunya":10858,"koh":10859,"kadang":10860,"lurkan":10861,"mati":10862,"oT":10863,"oali":10864,"ogram":10865,"pong":10866,"raksi":10867,"sentials":10868,"til":10869,"uy":10870,"vers":10871,"vice":10872,"wood":10873,"xing":10874,"yun":10875,"yati":10876,"yudi":10877,"yback":10878,"zel":10879,"Ġen":10880,"erus":10881,"erob":10882,"ening":10883,"Ġdum":10884,"Ġdakwa":10885,"Ġmark":10886,"Ġmundur":10887,"Ġpra":10888,"Ġpewarta":10889,"Ġpag":10890,"Ġpebalap":10891,"inamb":10892,"injauan":10893,"Ġsangg":10894,"Ġsind":10895,"Ġstasiun":10896,"Ġsandal":10897,"Ġsungai":10898,"Ġkak":10899,"Ġkir":10900,"Ġkanc":10901,"Ġkenalkan":10902,"Ġkajian":10903,"Ġknot":10904,"Ġkubik":10905,"Ġkolagen":10906,"akum":10907,"akeh":10908,"Ġbla":10909,"Ġbara":10910,"Ġbib":10911,"Ġbatasan":10912,"Ġbarisan":10913,"Ġtali":10914,"Ġtaw":10915,"Ġtunjuk":10916,"Ġtilang":10917,"Ġtelap":10918,"Ġtelak":10919,"sianya":10920,"emuk":10921,"emuan":10922,"untuk":10923,"unjang":10924,"Ġdiar":10925,"Ġditarik":10926,"Ġdianulir":10927,"adukan":10928,"tui":10929,"turan":10930,"aly":10931,"amen":10932,"onia":10933,"onologi":10934,"ĠSq":10935,"ĠSol":10936,"ĠSeg":10937,"ĠSec":10938,"ĠSpe":10939,"ĠSengg":10940,"ĠSven":10941,"ĠSustain":10942,"Ġsecepat":10943,"ahasan":10944,"ahlian":10945,"asari":10946,"asumber":10947,"ĠPj":10948,"ĠPad":10949,"ĠPart":10950,"ĠPuncak":10951,"ĠPimpinan":10952,"ĠPNM":10953,"ĠAyu":10954,"eling":10955,"elut":10956,"ĠBeg":10957,"ĠBelum":10958,"ĠBahan":10959,"ĠBav":10960,"ĠBall":10961,"ĠBord":10962,"ĠBono":10963,"ĠBPR":10964,"ĠBabi":10965,"orak":10966,"orca":10967,"Ġbertuk":10968,"Ġberper":10969,"Ġberny":10970,"Ġberguna":10971,"Ġberbayar":10972,"Ġberobat":10973,"Ġketur":10974,"Ġketua":10975,"Ġkeahlian":10976,"ĠMK":10977,"ĠMT":10978,"ĠMain":10979,"ĠMika":10980,"ĠMuti":10981,"ĠMisalnya":10982,"ese":10983,"ĠKela":10984,"ĠKara":10985,"ĠKet":10986,"ĠKarn":10987,"ĠKlaim":10988,"ĠKurn":10989,"ĠKLHK":10990,"Ġperinta":10991,"Ġperencanaan":10992,"Ġperlawanan":10993,"Ġteratur":10994,"arim":10995,"asien":10996,"Ġmemanggil":10997,"Ġjurn":10998,"adai":10999,"Ġhel":11000,"Ġhobi":11001,"itz":11002,"itri":11003,"ĠIvan":11004,"ĠIbanez":11005,"olok":11006,"ĠDam":11007,"ĠDri":11008,"ĠDita":11009,"ĠDesi":11010,"ĠDamai":11011,"ĠDancing":11012,"Ġlip":11013,"Ġliv":11014,"irc":11015,"imbang":11016,"ĠRid":11017,"ĠRai":11018,"ĠRama":11019,"ĠRio":11020,"ĠRiy":11021,"ĠRangkaian":11022,"ĠRace":11023,"ĠTuan":11024,"ĠTag":11025,"ĠTjah":11026,"ĠTPA":11027,"ĠToner":11028,"ungkan":11029,"Ġmengel":11030,"Ġmengukur":11031,"Ġmengunci":11032,"Ġmengemudi":11033,"Ġmengemas":11034,"Ġmengering":11035,"Ġmengutip":11036,"Ġmengintegrasikan":11037,"ĠCG":11038,"ĠCoto":11039,"ĠCold":11040,"ĠCerita":11041,"Ġinklusif":11042,"Ġinstrumen":11043,"ĠJor":11044,"ĠJis":11045,"ĠJabar":11046,"ĠJombang":11047,"ukus":11048,"actur":11049,"Ġran":11050,"Ġrokok":11051,"Ġrasio":11052,"ulator":11053,"omentari":11054,"ĠLul":11055,"ĠInt":11056,"ĠInovasi":11057,"ĠInvestment":11058,"bao":11059,"road":11060,"Ġpenutupan":11061,"iawan":11062,"etooth":11063,"anduan":11064,"andera":11065,"udang":11066,"ĠGD":11067,"ĠGand":11068,"ĠGos":11069,"ĠGelar":11070,"ĠGilang":11071,"ebo":11072,"edul":11073,"edikasikan":11074,"edonia":11075,"Ġgetah":11076,"Ġgreen":11077,"Ġgrafis":11078,"utra":11079,"utaran":11080,"epit":11081,"epahaman":11082,"âĢĵ":11083,"ĠNio":11084,"ĠNatas":11085,"ĠNarkoba":11086,"ĠNVIDIA":11087,"ĠHY":11088,"ĠHi":11089,"ĠHid":11090,"ĠHello":11091,"rie":11092,"upayakan":11093,"ĠFard":11094,"ĠFei":11095,"ĠFlow":11096,"embunyikan":11097,"perin":11098,"ampP":11099,"amping":11100,"Ġnol":11101,"Ġnetr":11102,"Ġnits":11103,"Ġmeri":11104,"Ġmerencanakan":11105,"Ġmerinci":11106,"seok":11107,"Ġfr":11108,"Ġflash":11109,"Ġcon":11110,"Ġcok":11111,"oku":11112,"oker":11113,"ĠUr":11114,"Ġje":11115,"Ġjembatan":11116,"Ġwor":11117,"Ġwarisan":11118,"ewengan":11119,"uaan":11120,"ĠEc":11121,"ĠEt":11122,"ĠWe":11123,"ĠWilli":11124,"Ġpemusatan":11125,"otret":11126,"abah":11127,"ablan":11128,"egu":11129,"egon":11130,"egaran":11131,"Ġagr":11132,"Ġprosedur":11133,"tru":11134,"Ġmembalik":11135,"angkir":11136,"Ġakui":11137,"Ġakurasi":11138,"Ġpos":11139,"Ġmenyerahkan":11140,"Ġmendekati":11141,"Ġmendongkrak":11142,"Ġkonden":11143,"Ġkontrol":11144,"Ġsemester":11145,"opan":11146,"opang":11147,"ople":11148,"opec":11149,"Ġtimbul":11150,"aransi":11151,"ipuan":11152,"oble":11153,"obatkan":11154,"ĠPerangkat":11155,"ĠPeranc":11156,"ĠPertumbuhan":11157,"ĠPertemuan":11158,"Ġadu":11159,"guchi":11160,"Ġusianya":11161,"ĠChart":11162,"Ġ300":11163,"Ġ350":11164,"Ġseru":11165,"Ġseragam":11166,"ĠAni":11167,"ĠAnto":11168,"ayangkan":11169,"Ġbahagi":11170,"ilas":11171,"Ġmencerminkan":11172,"Ġmencolok":11173,"Ġsekedar":11174,"ication":11175,"Ġsatuan":11176,"kage":11177,"Ġmelarang":11178,"Ġmelenggang":11179,"Ġgaet":11180,"Ġberke":11181,"pansi":11182,"Ġpelembab":11183,"ambah":11184,"ĠVel":11185,"ĠVol":11186,"ĠVersi":11187,"Ġharapkan":11188,"odetabek":11189,"Ġbersepeda":11190,"onstruksi":11191,"Ġmengawali":11192,"Ġvegan":11193,"Ġatrak":11194,"Ġatraksi":11195,"Ġ56":11196,"Ġ59":11197,"ĠYak":11198,"ĠYuli":11199,"Ġasp":11200,"Ġasuh":11201,"Ġasosiasi":11202,"Ġasupan":11203,"ĠZu":11204,"ĠZain":11205,"temukan":11206,"ĠAlber":11207,"Ġgolnya":11208,"eck":11209,"ecuti":11210,"ecast":11211,"ensity":11212,"Ġpoint":11213,"Ġbaiknya":11214,"mbang":11215,"ĠProses":11216,"bakin":11217,"Ġekonom":11218,"Ġberhenti":11219,"Ġpenyerahan":11220,"Ġanj":11221,"Ġanyar":11222,"aniah":11223,"Ġhanyalah":11224,"Ġdisahkan":11225,"Ġdisediakan":11226,"Ġdisepakati":11227,"Ġdibantu":11228,"Ġdibintangi":11229,"ĠSepeda":11230,"Ġ66":11231,"Ġ67":11232,"Ġ68":11233,"owdrop":11234,"ĠBarbie":11235,"Ġorangtua":11236,"Ġpesaing":11237,"Ġdipanggil":11238,"Ġtrik":11239,"undangan":11240,"Ġmendapati":11241,"Ġsibuk":11242,"Ġ72":11243,"Ġ76":11244,"Ġpembaca":11245,"Ġpembatasan":11246,"Ġpembinaan":11247,"Ġpembahasan":11248,"Ġsepekan":11249,"Ġberbalik":11250,"Ġibukota":11251,"usial":11252,"Ġkonsentrasi":11253,"Ġgrand":11254,"ifli":11255,"ĠKompetisi":11256,"Ġfinalis":11257,"Ġberpesan":11258,"Ġpanu":11259,"Ġmenghorm":11260,"Ġmenghargai":11261,"Ġmenyalip":11262,"ĠSenegal":11263,"ĠSenior":11264,"Ġ85":11265,"Ġpelajaran":11266,"Ġpunah":11267,"Ġpred":11268,"Ġmenggunakannya":11269,"Ġarsitektur":11270,"Ġketergant":11271,"Ġdiperluas":11272,"ories":11273,"orientasi":11274,"target":11275,"ersihkan":11276,"Ġbijak":11277,"Ġbiji":11278,"ĠLaz":11279,"ĠLagi":11280,"ĠLaLiga":11281,"timen":11282,"ffenheim":11283,"Ġ93":11284,"Ġkeseimbangan":11285,"ĠAsh":11286,"menit":11287,"ĠAdam":11288,"Ġterlepas":11289,"Ġstres":11290,"Ġ1980":11291,"Ġ1973":11292,"Ġditinggal":11293,"Ġditunjukkan":11294,"terior":11295,"Ġpengamanan":11296,"egiatan":11297,"ĠPria":11298,"ourism":11299,"ĠiPad":11300,"Ġkamu":11301,"Ġkamer":11302,"Ġrekonstruksi":11303,"uaskan":11304,"ĠFau":11305,"Ġearbud":11306,"ĠIskandar":11307,"Ġdollar":11308,"Ġsosialnya":11309,"Ġpencinta":11310,"ĠGoT":11311,"point":11312,"sistensi":11313,"150":11314,"ancaran":11315,"Ġimbal":11316,"ĠRomeo":11317,"Ġstiker":11318,"Ġbaku":11319,"ĠMercedes":11320,"Ġjalanan":11321,"ĠStep":11322,"ĠStef":11323,"ĠState":11324,"tois":11325,"ĠUnion":11326,"Ġterbarukan":11327,"Ġmasuknya":11328,"ucation":11329,"ĠEnergi":11330,"Ġpenghasil":11331,"Ġpenghasilan":11332,"iller":11333,"gabungkan":11334,"ĠBrasil":11335,"ĠidEA":11336,"ĠLeon":11337,"Ġmewarnai":11338,"ĠYoga":11339,"Ġ2006":11340,"stalasi":11341,"Ġberlabuh":11342,"ĠSatria":11343,"ishui":11344,"Ġmenyamping":11345,"Ġikonik":11346,"ĠKedatangan":11347,"older":11348,"ĠSekolah":11349,"orobud":11350,"Ġkronologi":11351,"Ġkrusial":11352,"Ġkurangnya":11353,"abisan":11354,"Ġpopulasi":11355,"okteran":11356,"ĠAustin":11357,"ĠKonro":11358,"ĠKontrak":11359,"Ġmengutamakan":11360,"ĠCoC":11361,"ĠJune":11362,"izinkan":11363,"ĠMatt":11364,"âĢĻ),":11365,"ĠSuyudi":11366,"ĠExecuti":11367,"ĠPerserang":11368,"ĠPenyelamatan":11369,"inary":11370,"ĠSnowdrop":11371,"ĠRonaldy":11372,"MNS":11373,"Ġtiang":11374,"Ġkaum":11375,"Ġkabut":11376,"jurnas":11377,"ĠComics":11378,"Ind":11379,"ĠMahasiswa":11380,"ĠDepok":11381,"ĠUsai":11382,"Ġtelinga":11383,"ĠStruick":11384,"ĠJamrud":11385,"diano":11386,"Ġkarakteristik":11387,"Ġpeduli":11388,"Ġpedoman":11389,"Ġpamungkas":11390,"Ġtripoin":11391,"sentif":11392,"ensinya":11393,"Ġpanggil":11394,"Ġsusunan":11395,"Ġmemerangi":11396,"ĠGunawan":11397,"Ġmenandakan":11398,"Ġperlomba":11399,"ĠOrang":11400,"Ġdiperkenalkan":11401,"ĠKasablan":11402,"ombakan":11403,"antasan":11404,"Ġcuci":11405,"ĠDenmark":11406,"Ġkilogram":11407,"ĠSuku":11408,"ĠSukam":11409,"Ġperekaman":11410,"ĠBionic":11411,"gnan":11412,"Ġkampus":11413,"ĠBagian":11414,"ĠDoni":11415,"ĠDonny":11416,"ĠHadimuljono":11417,"ĠFransis":11418,"ĠEmirat":11419,"atuhkan":11420,"ĠIbrahim":11421,"Ġfinish":11422,"Ġindividual":11423,"Ġcapaian":11424,"Ġsign":11425,"Ġtorehkan":11426,"Ġpergantian":11427,"Ġmengejutkan":11428,"Ġmenginjak":11429,"ĠCelsius":11430,"ĠLights":11431,"ĠLightning":11432,"ĠUlang":11433,"Ġsebabkan":11434,"Ġsebabnya":11435,"ĠPPh":11436,"ĠModern":11437,"ĠWarfare":11438,"UNZ":11439,"Ġangkasa":11440,"Ġstart":11441,"Ġbertambahnya":11442,"ĠTourister":11443,"ĠGuangzhou":11444,"ĠProduksi":11445,"ĠBaghdad":11446,"inggit":11447,"ĠVerona":11448,"Ġ1997":11449,"Ġtampaknya":11450,"Ġrutinitas":11451,"TCH":11452,"ĠMallorca":11453,"Ġrelatif":11454,"ĠLux":11455,"ĠKapolres":11456,"Ġpromosikan":11457,"Ġmusuh":11458,"Ġtergantung":11459,"ĠRekor":11460,"Ġdaun":11461,"ĠBahru":11462,"ĠGerakan":11463,"erbal":11464,"akeup":11465,"Ġditerapkan":11466,"Ġmenggambarkan":11467,"Ġmengantongi":11468,"Ġkonfigurasi":11469,"Ġ????â":11470,"Ġtrauma":11471,"ĠParekraf":11472,"ĠRien":11473,"Ġmenyerap":11474,"Ġmenyertakan":11475,"Anders":11476,"ĠDimensity":11477,"Ġinstansi":11478,"ĠIndustrial":11479,"Ġmiras":11480,"Ġdimintai":11481,"Ġsatgas":11482,"Ġnarasumber":11483,"Ġmembenarkan":11484,"ademy":11485,"ĠKCJB":11486,"Ġberkesinamb":11487,"ĠAustralian":11488,"bekistan":11489,"ĠGusti":11490,"Ġcaps":11491,"ĠPercasi":11492,"Ġsayangnya":11493,"ĠMaliq":11494,"ĠPenjelasan":11495,"Ġdigagas":11496,"Ġpemasangan":11497,"Ġpemasok":11498,"ĠChromebook":11499,"ĠChromecast":11500,"ĠEngine":11501,"Ġtukar":11502,"Ġdikirimkan":11503,"ĠArisandy":11504,"Ġpengantin":11505,"Ġkolektif":11506,"ĠPurw":11507,"Ġmelesatkan":11508,"Ġistilah":11509,"ĠFredy":11510,"ĠPenggemar":11511,"ĠRisbiani":11512,"ĠPerkasa":11513,"Ġserbaguna":11514,"ĠArkham":11515,"dikbudristek":11516,"ĠPemberdayaan":11517,"ĠBNPB":11518,"Ġhormon":11519,"ĠRaine":11520,"ĠTujuan":11521,"Ġrelawan":11522,"Ġkesenjangan":11523,"sterling":11524,"ĠTehbotol":11525,"ĠUzbekistan":11526,"Orva":11527,"posal":11528,"Ġentry":11529,"Ġpartikel":11530,"Ġperilisan":11531,"ĠCilegon":11532,"Ġcasing":11533,"ĠWatford":11534,"ĠAssass":11535,"Ġhektare":11536,"Sumut":11537,"connect":11538,"mosfer":11539,"Ġestetika":11540,"Ġdiabetes":11541,"Ġsetimnya":11542,"ĠAstro":11543,"ĠBonucci":11544,"ĠKubur":11545,"ĠIkuei":11546,"ĠRupiah":11547,"ĠGakuen":11548,"Ġmerangkul":11549,"Ġdosen":11550,"Ġbonus":11551,"ĠAyoconnect":11552,"Ġkeyakinan":11553,"Ġgencar":11554,"Ġnasabah":11555,"ĠChildren":11556,"ĠVogue":11557,"Ġekstra":11558,"ĠSpectr":11559,"Ġmustahik":11560,"ĠZulkifli":11561,"Mohammad":11562,"litter":11563,"sonalisasi":11564,"Ġdapur":11565,"Ġspeaker":11566,"ĠMCP":11567,"Ġmemajukan":11568,"Ġmeminim":11569,"ĠCempo":11570,"ĠCentre":11571,"ĠJacob":11572,"ĠHeaven":11573,"Ġpengolahan":11574,"Ġkompetitif":11575,"Ġeliminasi":11576,"ĠCancelo":11577,"Ġpenyalahgunaan":11578,"ĠScarlett":11579,"ĠPegadaian":11580,"Pemprov":11581,"kohol":11582,"oalisi":11583,"Ġdumbel":11584,"Ġdakwaan":11585,"Ġmarket":11586,"Ġpagelaran":11587,"Ġsanggup":11588,"Ġkancah":11589,"akeholder":11590,"Ġtelapak":11591,"ĠSenggol":11592,"ĠBallon":11593,"ĠBabies":11594,"Ġbertukar":11595,"Ġbernyanyi":11596,"Ġketurunan":11597,"ĠRamaj":11598,"ĠColdplay":11599,"ĠNatasha":11600,"ĠFardaniah":11601,"Ġagregat":11602,"Ġmembalikkan":11603,"Ġkondensat":11604,"opecia":11605,"ĠPerancis":11606,"Ġbahagia":11607,"Ġatraktif":11608,"ĠAlberto":11609,"Ġketergantungan":11610,"orobudur":11611,"ĠExecutive":11612,"Ġperlombaan":11613,"ĠKasablanka":11614,"Ġberkesinambungan":11615,"):":11616,"--":11617,".âĢĭâĢĭâĢĭâĢĭâĢĭâĢĭâĢĭ":11618,"07":11619,"48":11620,"63":11621,"800":11622,"98":11623,"939":11624,"Aku":11625,"Aqsa":11626,"Bo":11627,"Bat":11628,"CE":11629,"Che":11630,"City":11631,"DO":11632,"Dj":11633,"Dalam":11634,"DTT":11635,"EV":11636,"FXGT":11637,"Go":11638,"HI":11639,"Hal":11640,"IX":11641,"JS":11642,"Kar":11643,"Kas":11644,"LS":11645,"Link":11646,"NG":11647,"NS":11648,"PH":11649,"Pada":11650,"PER":11651,"Real":11652,"Round":11653,"Set":11654,"Sky":11655,"Siksa":11656,"Shut":11657,"Selatan":11658,"TO":11659,"UCL":11660,"YNC":11661,"ail":11662,"bur":11663,"barkan":11664,"bish":11665,"batasan":11666,"cy":11667,"cuhan":11668,"caro":11669,"cayakan":11670,"flame":11671,"gel":11672,"huk":11673,"hib":11674,"jati":11675,"jaman":11676,"kali":11677,"klub":11678,"krip":11679,"len":11680,"lon":11681,"lil":11682,"lew":11683,"linya":11684,"list":11685,"later":11686,"mah":11687,"mit":11688,"mener":11689,"muka":11690,"nik":11691,"net":11692,"neo":11693,"nley":11694,"oo":11695,"oakan":11696,"pr":11697,"pun":11698,"peng":11699,"pes":11700,"pela":11701,"qi":11702,"run":11703,"rap":11704,"sela":11705,"tinggal":11706,"uv":11707,"uatan":11708,"uci":11709,"vir":11710,"vensi":11711,"wor":11712,"watan":11713,"wig":11714,"yp":11715,"yin":11716,"zburg":11717,"Ġ,":11718,"Ġam":11719,"Ġikan":11720,"Ġubah":11721,"Ġusung":11722,"ĥ£":11723,"ania":11724,"anjang":11725,"anisasi":11726,"erre":11727,"eruan":11728,"enalan":11729,"enyum":11730,"enario":11731,"Ġdeh":11732,"Ġdurasi":11733,"arak":11734,"armasi":11735,"Ġmut":11736,"Ġmaj":11737,"Ġmuka":11738,"Ġmanggung":11739,"Ġmohon":11740,"Ġmasif":11741,"Ġmigran":11742,"Ġmedium":11743,"Ġping":11744,"Ġpac":11745,"Ġpangan":11746,"Ġpandang":11747,"Ġpekat":11748,"Ġpiano":11749,"atap":11750,"atalkan":11751,"informasi":11752,"Ġsara":11753,"Ġsarang":11754,"Ġskuat":11755,"Ġsoroti":11756,"Ġsiaga":11757,"Ġsungguh":11758,"Ġkant":11759,"Ġkapan":11760,"Ġkunjung":11761,"Ġklin":11762,"Ġkadar":11763,"Ġklien":11764,"lain":11765,"Ġbad":11766,"Ġbot":11767,"Ġbund":11768,"Ġbilang":11769,"Ġback":11770,"Ġblack":11771,"Ġbinaan":11772,"Ġbincang":11773,"Ġblock":11774,"Ġtet":11775,"Ġtong":11776,"Ġteam":11777,"Ġtechnology":11778,"Ġteleskop":11779,"sial":11780,"emahkan":11781,"ematkan":11782,"Ġdiatur":11783,"Ġditamb":11784,"Ġditarget":11785,"Ġmeneg":11786,"Ġmenetap":11787,"Ġmenangi":11788,"Ġmenteri":11789,"taq":11790,"kanan":11791,"aduk":11792,"yagi":11793,"ale":11794,"alem":11795,"aminya":11796,"amusim":11797,"ony":11798,"ĠSc":11799,"ĠSik":11800,"ĠSti":11801,"ĠSung":11802,"ĠSong":11803,"ĠSaw":11804,"ĠSiri":11805,"ĠSci":11806,"ĠSarin":11807,"ĠSPB":11808,"ĠSlack":11809,"ĠSleep":11810,"ĠSUNZ":11811,"Ġseku":11812,"ahat":11813,"asai":11814,"astra":11815,"Ġyuan":11816,"ĠPon":11817,"ĠPala":11818,"ĠPemen":11819,"ĠPlat":11820,"ĠPantai":11821,"ĠPidana":11822,"ĠPost":11823,"ĠPosisi":11824,"ĠPsik":11825,"ĠPlant":11826,"ĠPasien":11827,"ĠPDTT":11828,"ĠAud":11829,"ĠAtas":11830,"ĠAgar":11831,"ĠAcap":11832,"ĠAins":11833,"ĠANF":11834,"eld":11835,"elat":11836,"elcome":11837,"ĠBla":11838,"ĠBri":11839,"ĠBra":11840,"ĠBos":11841,"ĠBont":11842,"ĠBalo":11843,"ĠBody":11844,"ĠBIDR":11845,"ĠBorobudur":11846,"juti":11847,"orter":11848,"Ġberbuah":11849,"Ġbereksp":11850,"Ġkej":11851,"Ġkeadilan":11852,"ingo":11853,"ikalisme":11854,"ĠMY":11855,"ĠMakan":11856,"ĠMom":11857,"ĠMai":11858,"ĠMena":11859,"ĠMudah":11860,"ĠMeksi":11861,"ĠMangga":11862,"istribusi":11863,"esak":11864,"essi":11865,"eskrim":11866,"ĠKamp":11867,"ĠKos":11868,"ĠKola":11869,"ĠKris":11870,"ĠKate":11871,"ĠKulus":11872,"Ġperamp":11873,"Ġperaga":11874,"Ġperesmian":11875,"Ġtermo":11876,"iler":11877,"ilon":11878,"ilian":11879,"ury":11880,"urbish":11881,"titusi":11882,"Ġmemat":11883,"Ġmemakan":11884,"Ġmemera":11885,"Ġmemuncul":11886,"Ġmemengaruhi":11887,"Ġmemuaskan":11888,"Ġhandal":11889,"ĠIasi":11890,"ĠIman":11891,"ĠIKA":11892,"ole":11893,"olu":11894,"olil":11895,"ĠDor":11896,"ĠDur":11897,"ĠDokumen":11898,"Ġlum":11899,"Ġlangganan":11900,"irst":11901,"iringi":11902,"Ġdengannya":11903,"imas":11904,"imeter":11905,"ĠRambut":11906,"ĠRey":11907,"ĠRGB":11908,"ĠRead":11909,"ĠRoll":11910,"ĠTC":11911,"ĠTP":11912,"ĠTy":11913,"ĠTed":11914,"ĠTent":11915,"ĠTinggal":11916,"ĠTech":11917,"ĠTrofi":11918,"umo":11919,"umma":11920,"unge":11921,"Ġmengan":11922,"Ġmengis":11923,"Ġmengikat":11924,"Ġmengungg":11925,"Ġmengunggah":11926,"Ġmengerjakan":11927,"Ġmengulangi":11928,"Ġmenggali":11929,"Ġmengemuk":11930,"Ġmenggabungkan":11931,"ĠCen":11932,"ĠCah":11933,"ĠCari":11934,"ĠCila":11935,"ĠCle":11936,"ĠCinta":11937,"ĠCore":11938,"ĠCrist":11939,"ĠCatatan":11940,"ĠCirc":11941,"Ġinstalasi":11942,"ĠJeri":11943,"ĠJedi":11944,"ukul":11945,"ukunan":11946,"ukainya":11947,"Ġrok":11948,"Ġrampung":11949,"Ġretro":11950,"Ġrumput":11951,"Ġrincian":11952,"Ġrencananya":11953,"Ġramping":11954,"Ġringgit":11955,"ult":11956,"ularan":11957,"ularitas":11958,"idal":11959,"idillah":11960,"ĠLari":11961,"ĠLewat":11962,"ĠLuka":11963,"ĠLampir":11964,"ĠLower":11965,"ĠLishui":11966,"ĠInves":11967,"Ġlambung":11968,"Ġlawatan":11969,"ihal":11970,"rotan":11971,"rops":11972,"Ġpenunda":11973,"Ġpenuaan":11974,"Ġpenipuan":11975,"Ġpenularan":11976,"ety":11977,"andangan":11978,"ĠGat":11979,"ĠGad":11980,"ĠGula":11981,"ĠGPU":11982,"ĠGuru":11983,"ĠGonc":11984,"ĠGonz":11985,"ĠGWh":11986,"eban":11987,"edja":11988,"edukasi":11989,"Ġgunc":11990,"Ġgitar":11991,"Ġgatal":11992,"Ġgempuran":11993,"Ġglitter":11994,"uten":11995,"utat":11996,"epasan":11997,"eplay":11998,"âĢ¦":11999,"âĢľ":12000,"ĠNS":12001,"ĠNa":12002,"ĠNana":12003,"ĠNanti":12004,"ĠNTB":12005,"ĠHakan":12006,"ĠHuman":12007,"ĠHMNS":12008,"riot":12009,"rioritas":12010,"aight":12011,"ĠFab":12012,"ĠFranc":12013,"ĠFernandez":12014,"embe":12015,"emburg":12016,"embiraan":12017,"terstock":12018,"Ġny":12019,"Ġmerapat":12020,"Ġmerumput":12021,"Ġmeramaikan":12022,"Ġfol":12023,"Ġfinan":12024,"Ġfisk":12025,"Ġcipta":12026,"Ġmenjajak":12027,"Ġmenjangkau":12028,"oka":12029,"ĠUD":12030,"ĠUMI":12031,"ĠUdin":12032,"ĠUPT":12033,"Ġjabatan":12034,"Ġjaksa":12035,"Ġjago":12036,"Ġwarn":12037,"Ġwayang":12038,"Ġwihara":12039,"ewakan":12040,"ĠEy":12041,"ĠEet":12042,"ĠEdi":12043,"ĠEgo":12044,"ĠWa":12045,"ĠWas":12046,"ĠWes":12047,"ĠWerd":12048,"ĠWaspada":12049,"ĠWarisan":12050,"Ġpemantauan":12051,"Ġpemutaran":12052,"otongan":12053,"antun":12054,"egar":12055,"egri":12056,"ehan":12057,"Ġmelambung":12058,"wafoto":12059,"Ġaw":12060,"Ġaerob":12061,"Ġproyeksi":12062,"Ġprogres":12063,"Ġprobiotik":12064,"isic":12065,"isisi":12066,"isiasi":12067,"trik":12068,"trac":12069,"Ġmembesar":12070,"Ġmembedakan":12071,"Ġmembicarakan":12072,"Ġmembantah":12073,"Ġmembebaskan":12074,"Ġmembersihkan":12075,"ĠOsta":12076,"ĠOJK":12077,"angkas":12078,"Ġakademi":12079,"Ġmenyandang":12080,"Ġmenyikat":12081,"Ġmenyuguhkan":12082,"Ġmassa":12083,"Ġkarang":12084,"Ġmutu":12085,"Ġmendesak":12086,"Ġsemula":12087,"Ġsemisal":12088,"Ġseminar":12089,"ongho":12090,"ongkar":12091,"GHIT":12092,"ingkali":12093,"hanog":12094,"iprah":12095,"ĠPeraih":12096,"ĠPerempuan":12097,"Ġuc":12098,"ĠCharly":12099,"daerah":12100,"Ġseraya":12101,"Ġsertifikasi":12102,"Ġseringkali":12103,"entik":12104,"ayan":12105,"ayana":12106,"duki":12107,"Ġmencerahkan":12108,"jaring":12109,"Ġpersatuan":12110,"Ġsekretaris":12111,"ices":12112,"Ġsebelah":12113,"Ġsebentar":12114,"Ġkepastian":12115,"Ġkepedul":12116,"diam":12117,"Ġberkesan":12118,"Ġpelec":12119,"Ġpelepasan":12120,"ĠVoli":12121,"ĠVinc":12122,"ĠVice":12123,"ĠVision":12124,"Ġharmon":12125,"odgk":12126,"anggeng":12127,"miah":12128,"Ġberselang":12129,"Ġkemelut":12130,"Ġmengawal":12131,"Ġmengabadi":12132,"Ġmengabarkan":12133,"Ġvok":12134,"Ġvaks":12135,"Ġvonis":12136,"Ġatmosfer":12137,"Ġ5000":12138,"ĠYordan":12139,"Ġdiajak":12140,"Ġkerangka":12141,"Ġmempererat":12142,"Ġmemperingati":12143,"Ġmempertemukan":12144,"asihat":12145,"ĠAlter":12146,"ĠAlonso":12147,"ĠAldiano":12148,"Ġ47":12149,"Ġ49":12150,"ĠMenko":12151,"ensio":12152,"Ġkomersi":12153,"ĠAres":12154,"2010":12155,"2014":12156,"inder":12157,"indra":12158,"Ġsangatlah":12159,"mbar":12160,"mbah":12161,"tural":12162,"ungkus":12163,"evski":12164,"osito":12165,"Ġpenyidikan":12166,"sting":12167,"style":12168,"ĠMarzuki":12169,"ĠKetum":12170,"Ġdisel":12171,"Ġdisambar":12172,"ĠSesi":12173,"Ġdiberitakan":12174,"ĠBerry":12175,"elarus":12176,"ĠPencegahan":12177,"ĠSha":12178,"ĠShel":12179,"Ġsedih":12180,"Ġkeliling":12181,"ĠPemasaran":12182,"Ġ61":12183,"Ġ69":12184,"ĠBareskrim":12185,"ĠduniaPewarta":12186,"empurn":12187,"Ġdipro":12188,"Ġdipamerkan":12189,"Ġdipopuler":12190,"Ġtruk":12191,"undai":12192,"Ġkecuali":12193,"Ġkecanduan":12194,"lie":12195,"Ġpendapat":12196,"efleksi":12197,"Ġpembebasan":12198,"ĠManuf":12199,"enerasi":12200,"Ġdilanda":12201,"usif":12202,"Ġhalf":12203,"iful":12204,"ific":12205,"ĠKomis":12206,"Ġapparel":12207,"udianaEditor":12208,"Ġberpindah":12209,"Ġterduga":12210,"Ġterdeteksi":12211,"Ġ04":12212,"Ġmenghidup":12213,"Ġmenghemat":12214,"Ġmenghidrasi":12215,"Ġmenghubungkan":12216,"Ġalur":12217,"Ġalokasi":12218,"Ġalopecia":12219,"engkapan":12220,"Ġmenyala":12221,"Ġmenyalurkan":12222,"Ġ2011":12223,"Ġpelabuhan":12224,"Ġtersenyum":12225,"penko":12226,"Ġprediksi":12227,"Ġpramusim":12228,"Ġketerbatasan":12229,"ĠXinhua":12230,"Ġtentara":12231,"Ġdiperoleh":12232,"Ġdiperiksa":12233,"udie":12234,"Ġteknik":12235,"ĠKeputusan":12236,"wich":12237,"Ġseluruhnya":12238,"ĠSerdang":12239,"ĠSerpong":12240,"ĠAsep":12241,"ĠAssist":12242,"ĠAsensio":12243,"ĠKamera":12244,"ĠAdv":12245,"ĠAdmin":12246,"ĠPSDS":12247,"Ġ1999":12248,"Ġditunda":12249,"Ġditenagai":12250,"Ġdirasakan":12251,"Ġmusikus":12252,"lanjuti":12253,"Ġmodem":12254,"Ġdidirikan":12255,"Ġmenggel":12256,"Ġmenggenggam":12257,"Ġmenggerakkan":12258,"Ġtampilkan":12259,"leting":12260,"utube":12261,"ĠMaduro":12262,"ĠMaddis":12263,"ĠTertinggal":12264,"Ġmancan":12265,"artan":12266,"Ġdirikan":12267,"Ġkamar":12268,"Ġ160":12269,"loud":12270,"entuan":12271,"eza":12272,"ĠMasing":12273,"ĠMasduki":12274,"ĠPengemudi":12275,"Ġberdurasi":12276,"Ġpencairan":12277,"Ġkualitasnya":12278,"Ġterke":12279,"naia":12280,"ĠRomero":12281,"Ġsty":12282,"agita":12283,"Ġkondisinya":12284,"Ġkondusif":12285,"Ġantarmuka":12286,"ĠItalian":12287,"ĠQuali":12288,"erankan":12289,"erantas":12290,"ĠStan":12291,"eligi":12292,"128":12293,"Ġterpaksa":12294,"Ġterpenting":12295,"Ġsisir":12296,"ucu":12297,"ĠKarina":12298,"ĠSamud":12299,"ĠEnembe":12300,"Ġpenghormatan":12301,"ufa":12302,"ĠAksi":12303,"ĠAkbar":12304,"ĠBrand":12305,"Ġidentifikasi":12306,"Ġ250":12307,"Ġoptik":12308,"Ġdinobatkan":12309,"Ġ170":12310,"Ġdaratan":12311,"ugerah":12312,"anser":12313,"Ġmewaspadai":12314,"Ġkenakan":12315,"Ġkental":12316,"Ġ2003":12317,"Ġbermutu":12318,"Ġbermuatan":12319,"ĠTurnamen":12320,"ĠKemitraan":12321,"ĠAcademy":12322,"ĠAngke":12323,"Ġsoft":12324,"PUI":12325,"ĠSalim":12326,"ĠSalzburg":12327,"Ġmatte":12328,"ĠBoom":12329,"ĠThread":12330,"Ġjazz":12331,"Ġpetani":12332,"Ġpetunjuk":12333,"ĠSektor":12334,"Ġrilisan":12335,"Ġkritik":12336,"Ġdicari":12337,"Ġdicapai":12338,"ĠMedical":12339,"Ġporta":12340,"Ġparah":12341,"eroy":12342,"karhutla":12343,"Ġdisimak":12344,"ĠSpPD":12345,"Ġkelasnya":12346,"Ġspesifik":12347,"ĠDanny":12348,"ĠJunas":12349,"ĠMath":12350,"vention":12351,"ĠMenggunakan":12352,"ĠTransJakarta":12353,"ĠValve":12354,"Ġintel":12355,"ĠAIoT":12356,"ĠSancho":12357,"Ġbalas":12358,"ĠDrake":12359,"ĠConvention":12360,"ĠElektr":12361,"huttle":12362,"Ġpenyelewengan":12363,"AKTI":12364,"ĠLeao":12365,"Ġmilenial":12366,"Ġmilimeter":12367,"Ġkaos":12368,"juring":12369,"ĠSumbag":12370,"ĠSummit":12371,"perankan":12372,"Ġtemukan":12373,"Ġtumit":12374,"ĠMahendra":12375,"Ġtelefoto":12376,"ĠStrategis":12377,"ĠItulah":12378,"ĠMonza":12379,"Ġkarakternya":12380,"usulkan":12381,"ĠShofi":12382,"Ġsalurkan":12383,"ĠMelihat":12384,"ĠMulyadi":12385,"ĠKonsens":12386,"ĠTiongho":12387,"Ġdikontrak":12388,"Ġbracket":12389,"Ġbrilian":12390,"Ġbusiness":12391,"Ġsemprotan":12392,"Untitled":12393,"Ġtinggalkan":12394,"Ġformula":12395,"ĠTrello":12396,"Ġpemerk":12397,"Ġmenandai":12398,"Ġperlengkapan":12399,"ĠHamdani":12400,"ĠPCINU":12401,"ĠGarcia":12402,"256":12403,"ĠDenzel":12404,"Ġkilat":12405,"Ġfasilitasi":12406,"ĠNetIX":12407,"Ġkonteks":12408,"ĠBurnley":12409,"ĠDoncic":12410,"ĠDisc":12411,"ĠDitlantas":12412,"ĠHadju":12413,"Ġmengadopsi":12414,"ĠOlympus":12415,"PLAY":12416,"ĠBorneo":12417,"ĠLayover":12418,"ĠSemuaEditor":12419,"utradarai":12420,"abrikan":12421,"Ġabad":12422,"Ġmenginspirasi":12423,"Ġrunning":12424,"Ġelektrik":12425,"UNT":12426,"reneur":12427,"Ġplastik":12428,"Ġkandidat":12429,"ĠPhil":12430,"ĠPelajar":12431,"ĠKramat":12432,"Ġjawaban":12433,"Ġpadamkan":12434,"ĠPetugas":12435,"ĠBagnaia":12436,"ĠOnic":12437,"Ġpelaksanaannya":12438,"TION":12439,"ĠHoffenheim":12440,"Ġkarirnya":12441,"ĠSehat":12442,"Ġjangkauan":12443,"2009":12444,"Ġdiwujudkan":12445,"Ġdisebutkan":12446,"ĠBluetooth":12447,"ĠPiece":12448,"ĠPierre":12449,"ĠBahlil":12450,"ĠHyundai":12451,"ĠFinals":12452,"ĠYusuf":12453,"Ġditerbitkan":12454,"ĠCanva":12455,"Ġekspresi":12456,"Ġeksplorasi":12457,"ĠParfum":12458,"ĠRSUD":12459,"Ġpesepakbola":12460,"Ġmanajer":12461,"tigasi":12462,"Ġmerespons":12463,"Ġmeresmikan":12464,"ĠOffice":12465,"Ġpilot":12466,"ĠAkane":12467,"ĠDaruss":12468,"ĠJuly":12469,"Ġrealistis":12470,"Ġpecah":12471,"ĠMiyagi":12472,"ĠDevil":12473,"Ġmengecek":12474,"ĠCATCH":12475,"ĠMendy":12476,"Ġmengendarai":12477,"ĠNugraha":12478,"ĠPermana":12479,"Ġpipanisasi":12480,"untut":12481,"ĠPanama":12482,"ĠLucas":12483,"dayakan":12484,"ĠPulisic":12485,"ĠPresent":12486,"ĠBambu":12487,"ĠKCIC":12488,"ĠPerhubungan":12489,"KCK":12490,"Ġdoa":12491,"Ġpaylater":12492,"Ġcampuran":12493,"IIAS":12494,"Ġbendungan":12495,"ĠEksekutif":12496,"ĠSometh":12497,"ĠGascaro":12498,"Ġpemadam":12499,"vance":12500,"Ġtukang":12501,"ĠMoreno":12502,"ĠCape":12503,"Ġpungkasnya":12504,"ĠPilpres":12505,"ĠMediaTek":12506,"ĠCalhanog":12507,"ĠEVNNE":12508,"Ġkericuhan":12509,"ĠSitus":12510,"ĠTrade":12511,"ĠJatim":12512,"ĠGianyar":12513,"ĠFerdinan":12514,"Ġkompetensi":12515,"ĠSouthampton":12516,"Ġpsikologis":12517,"Ġkeragaman":12518,"ĠPackage":12519,"ĠPekerjaan":12520,"ĠPurnomo":12521,"ĠTianli":12522,"Ġmenghantam":12523,"ĠJabodetabek":12524,"ĠGladies":12525,"ĠHDR":12526,"ĠOperasional":12527,"osofi":12528,"Ġanimasi":12529,"ĠAngkatan":12530,"ï¸ıâļ½":12531,"ï¸ıâĥ£":12532,"Ġpaparan":12533,"Ġbobot":12534,"Ġdiungkapkan":12535,"ĠSTNK":12536,"ĠPayet":12537,"ĠAyudianaEditor":12538,"ĠBapak":12539,"ĠDewi":12540,"ĠCourtois":12541,"Ġmenyatukan":12542,"eaux":12543,"Ġketertinggalan":12544,"ĠIsmail":12545,"Ditreskrimsus":12546,"fries":12547,"ĠBMW":12548,"ĠRohmanEditor":12549,"ĠOriflame":12550,"ĠChairul":12551,"icipi":12552,"Ġkontestasi":12553,"Ġdijalankan":12554,"Ġkegembiraan":12555,"ĠDreamy":12556,"Ġremot":12557,"Ġradikal":12558,"Ġpenegakan":12559,"ĠUbaidillah":12560,"Ġpascab":12561,"ĠDonnarumma":12562,"Ġcleansheets":12563,"ĠElectronics":12564,"Konbes":12565,"angsungan":12566,"Ġdiaplikasikan":12567,"ĠBangkok":12568,"Ġhamil":12569,"Ġhipertensi":12570,"ĠDAX":12571,"ĠDumfries":12572,"ĠRecord":12573,"Ġmengonfirmasi":12574,"Ġrahasia":12575,"ĠFastCharge":12576,"Ġmencontohkan":12577,"ĠAbbey":12578,"ĠSpring":12579,"ĠNicolas":12580,"Barcelona":12581,"utaan":12582,"eriken":12583,"Ġmisteri":12584,"Ġkolaboratif":12585,"Ġblue":12586,"ĠPenajam":12587,"ĠPictures":12588,"ĠArea":12589,"istrikan":12590,"ĠKONI":12591,"Ġinklusivitas":12592,"Ġneraca":12593,"ĠWAUNT":12594,"ĠWonder":12595,"ĠMarshel":12596,"ĠSelangor":12597,"ĠPraktisi":12598,"ĠBooyah":12599,"Ġmarshall":12600,"Bayern":12601,"Romano":12602,"Ġsindikat":12603,"ĠBordeaux":12604,"ĠDrive":12605,"ĠDitambah":12606,"ĠGDW":12607,"eboard":12608,"Ġworkshop":12609,"ĠEconom":12610,"ĠWilliam":12611,"ĠAntoine":12612,"Ġanjlok":12613,"Ġpredikat":12614,"Indonesia":12615,"ĠLuxemburg":12616,"ĠAssassins":12617,"ĠSpectre":12618,"Setelah":12619,"Shutterstock":12620,"hukam":12621,"menerus":12622,"Ġpinggul":12623,"Ġsaraf":12624,"Ġtonggak":12625,"Ġditambahkan":12626,"Ġditargetkan":12627,"ĠSarinah":12628,"ĠAinsley":12629,"ĠANFR":12630,"ĠBontang":12631,"ĠBalogun":12632,"ĠMeksiko":12633,"ĠManggala":12634,"istribusikan":12635,"ĠKolase":12636,"ĠKulusevski":12637,"Ġtermotivasi":12638,"urbished":12639,"Ġmemeragakan":12640,"Ġmemunculkan":12641,"Ġmengungguli":12642,"Ġmengemukakan":12643,"ĠJericho":12644,"Ġpenundaan":12645,"rioritaskan":12646,"Ġfiskal":12647,"Ġmenjajaki":12648,"Ġwarnanya":12649,"ĠOstapenko":12650,"Ġkepedulian":12651,"odgkin":12652,"Ġmengabadikan":12653,"ĠYordania":12654,"Ġdipopulerkan":12655,"ĠManufactur":12656,"ĠAdministrasi":12657,"ĠMaddison":12658,"Ġmancanegara":12659,"ĠThreads":12660,"ĠElektronik":12661,"ĠSumbagsel":12662,"ĠKonsensus":12663,"ĠTionghoa":12664,"ĠDarussalam":12665,"ĠCATCHPLAY":12666,"ĠCalhanoglu":12667,")-":12668,"02":12669,"120":12670,"41":12671,"71":12672,"700":12673,"890":12674,"94":12675,"Bel":12676,"BPBD":12677,"Book":12678,"Com":12679,"Cart":12680,"DR":12681,"Dari":12682,"EK":12683,"FL":12684,"FT":12685,"Fer":12686,"Fitra":12687,"Fabrizio":12688,"Gs":12689,"Get":12690,"HS":12691,"JD":12692,"Jika":12693,"JACX":12694,"Ke":12695,"KPU":12696,"KJRI":12697,"Lia":12698,"Let":12699,"Labuan":12700,"Life":12701,"MS":12702,"Mar":12703,"Mas":12704,"NO":12705,"Pad":12706,"Pal":12707,"Pro":12708,"Pop":12709,"PMK":12710,"Quran":12711,"SP":12712,"Sun":12713,"Sela":12714,"Sep":12715,"Sports":12716,"TD":12717,"Ta":12718,"Trans":12719,"TIC":12720,"Uni":12721,"au":12722,"aungan":12723,"ble":12724,"benda":12725,"bass":12726,"buru":12727,"belak":12728,"bincang":12729,"col":12730,"code":12731,"dengan":12732,"dui":12733,"dney":12734,"fol":12735,"ftar":12736,"fektur":12737,"gh":12738,"gate":12739,"guhnya":12740,"ground":12741,"hu":12742,"hasil":12743,"iasi":12744,"igu":12745,"janya":12746,"jelang":12747,"kh":12748,"kk":12749,"kam":12750,"king":12751,"kina":12752,"mn":12753,"manya":12754,"mila":12755,"masa":12756,"nomor":12757,"oter":12758,"oja":12759,"otif":12760,"pg":12761,"rih":12762,"ralph":12763,"sar":12764,"sari":12765,"samp":12766,"sleting":12767,"tengah":12768,"tomo":12769,"uat":12770,"uilon":12771,"wala":12772,"wasi":12773,"wac":12774,"wid":12775,"work":12776,"yon":12777,"yim":12778,"yna":12779,"year":12780,"zinan":12781,"Â®":12782,"Ġ$":12783,"Ġ.":12784,"Ġasi":12785,"Ġit":12786,"Ġud":12787,"Ġudah":12788,"Ġima":12789,"Ġamun":12790,"Ġangkat":12791,"Ġenter":12792,"Ġamat":12793,"Ġingatkan":12794,"ļª":12795,"anas":12796,"anic":12797,"anfaatan":12798,"erak":12799,"erol":12800,"enangan":12801,"ennia":12802,"enoble":12803,"Ġduka":12804,"Ġdown":12805,"Ġdress":12806,"Ġdraw":12807,"Ġdkk":12808,"ared":12809,"arangkan":12810,"arPods":12811,"Ġmari":12812,"Ġmandi":12813,"Ġpi":12814,"Ġpal":12815,"Ġpid":12816,"Ġpew":12817,"Ġpav":12818,"Ġpujian":12819,"Ġpulih":12820,"Ġpingg":12821,"Ġpapar":12822,"Ġpijat":12823,"ataran":12824,"attri":12825,"inam":12826,"inum":12827,"Ġsalam":12828,"Ġsaran":12829,"Ġsaw":12830,"Ġsusah":12831,"Ġsumbang":12832,"Ġsopan":12833,"Ġswafoto":12834,"angis":12835,"Ġkg":12836,"Ġkok":12837,"Ġkena":12838,"Ġkatakan":12839,"Ġkuda":12840,"Ġklip":12841,"Ġkadang":12842,"Ġkoper":12843,"Ġkutik":12844,"Ġkoalisi":12845,"lap":12846,"lamb":12847,"lausul":12848,"lauren":12849,"akak":12850,"Ġbl":12851,"Ġbia":12852,"Ġbali":12853,"Ġbelang":12854,"Ġbelasan":12855,"Ġbintangi":12856,"Ġbetul":12857,"Ġtopi":12858,"Ġtawarkan":12859,"Ġtegaskan":12860,"Ġtoner":12861,"Ġtinjauan":12862,"sif":12863,"emik":12864,"unas":12865,"unis":12866,"unit":12867,"Ġdilah":12868,"Ġdisa":12869,"Ġdist":12870,"Ġdiundang":12871,"Ġditentu":12872,"Ġdiandalkan":12873,"Ġdiimbangi":12874,"gawa":12875,"game":12876,"Ġmenum":12877,"Ġmenanti":12878,"Ġmenenangkan":12879,"Ġmenanyakan":12880,"adak":12881,"adolu":12882,"tul":12883,"tuti":12884,"alanya":12885,"aldo":12886,"aluskan":12887,"ameter":12888,"ontor":12889,"onjakan":12890,"ĠSD":12891,"ĠSm":12892,"ĠSid":12893,"ĠSup":12894,"ĠSua":12895,"ĠSulit":12896,"ĠSanti":12897,"ĠSeksi":12898,"ĠSich":12899,"ĠStandar":12900,"ĠStanding":12901,"ĠSoria":12902,"ĠSutradara":12903,"ĠSipil":12904,"ĠSanggeng":12905,"ĠSKCK":12906,"Ġsesung":12907,"Ġseason":12908,"Ġseimbang":12909,"ahu":12910,"ahit":12911,"ahabat":12912,"asti":12913,"asbour":12914,"asuna":12915,"ĠPos":12916,"ĠPura":12917,"ĠPotensi":12918,"ĠPesan":12919,"ĠPenting":12920,"ĠAul":12921,"ĠAhad":12922,"ĠAha":12923,"ĠAlam":12924,"ĠAPR":12925,"ĠACL":12926,"ĠAgama":12927,"ĠAcho":12928,"ĠAtase":12929,"ĠAturan":12930,"ĠAufa":12931,"els":12932,"elus":12933,"elangan":12934,"elompok":12935,"ĠBil":12936,"ĠBaw":12937,"ĠBli":12938,"ĠBisa":12939,"ĠBicara":12940,"ĠBolog":12941,"ĠBins":12942,"ĠBSD":12943,"ĠBilli":12944,"ĠBlancos":12945,"ĠBPUI":12946,"orangan":12947,"oros":12948,"Ġberjar":12949,"Ġberni":12950,"Ġberdag":12951,"Ġbermin":12952,"Ġberisti":12953,"Ġberorientasi":12954,"Ġketa":12955,"Ġketinggi":12956,"inger":12957,"ingsih":12958,"iki":12959,"ikiran":12960,"ĠMada":12961,"ĠMeg":12962,"ĠMold":12963,"ĠMost":12964,"ĠMigran":12965,"ĠMidd":12966,"app":12967,"apak":12968,"apol":12969,"aparkan":12970,"apasan":12971,"aplikasi":12972,"apasar":12973,"ison":12974,"iska":12975,"islat":12976,"eso":12977,"esus":12978,"esco":12979,"ĠKB":12980,"ĠKang":12981,"ĠKew":12982,"ĠKamb":12983,"ĠKeter":12984,"ĠKopi":12985,"ĠKanta":12986,"ĠKyle":12987,"ĠKiat":12988,"ĠKampus":12989,"Ġperang":12990,"Ġperjalan":12991,"Ġperihal":12992,"Ġperorangan":12993,"Ġterapi":12994,"Ġterapkan":12995,"Ġterkuat":12996,"Ġterumbu":12997,"usantara":12998,"ariat":12999,"arikan":13000,"urai":13001,"tig":13002,"Ġmemikat":13003,"Ġmemuka":13004,"Ġmemaks":13005,"Ġmemutar":13006,"Ġmematikan":13007,"Ġmemulihkan":13008,"Ġmemaparkan":13009,"Ġhas":13010,"Ġhib":13011,"Ġhanc":13012,"Ġhead":13013,"Ġhitungan":13014,"itr":13015,"ĠIma":13016,"ĠIohan":13017,"olet":13018,"olong":13019,"olina":13020,"ĠDol":13021,"ĠDid":13022,"ĠDup":13023,"ĠDip":13024,"ĠDow":13025,"ĠDebut":13026,"ĠDeli":13027,"ĠDual":13028,"ĠDAK":13029,"ekom":13030,"Ġlans":13031,"Ġlower":13032,"Ġlurus":13033,"Ġlogo":13034,"Ġlarangan":13035,"Ġlonjakan":13036,"irin":13037,"Ġuniv":13038,"Ġuntil":13039,"ĠRela":13040,"ĠRac":13041,"ĠRui":13042,"ĠRencana":13043,"ĠRate":13044,"ĠRach":13045,"ĠRegional":13046,"ĠReza":13047,"ĠReligi":13048,"ĠTs":13049,"ĠTec":13050,"ĠTenc":13051,"ĠTiti":13052,"ĠTunjung":13053,"ĠTze":13054,"ĠTangkapan":13055,"ĠTwo":13056,"ĠTingginya":13057,"ĠTambahan":13058,"umdes":13059,"Ġmengor":13060,"Ġmenggu":13061,"Ġmengeks":13062,"Ġmengkon":13063,"Ġmengerti":13064,"Ġmengutar":13065,"Ġmengembalikan":13066,"Ġmengoptimalkan":13067,"ĠCr":13068,"ĠCer":13069,"ĠCib":13070,"ĠCare":13071,"ĠCraz":13072,"Ġinvasi":13073,"Ġintui":13074,"Ġinsentif":13075,"Ġuntuknya":13076,"ĠJapan":13077,"ĠJACX":13078,"acc":13079,"Ġred":13080,"Ġruas":13081,"Ġront":13082,"Ġrantai":13083,"gie":13084,"gian":13085,"ultas":13086,"iden":13087,"identifikasi":13088,"omer":13089,"ĠLQ":13090,"ĠLadi":13091,"ĠLaw":13092,"ĠList":13093,"ĠLegi":13094,"ĠListrik":13095,"ĠLaks":13096,"ĠLlor":13097,"ĠLimfoma":13098,"ĠLifestyle":13099,"ĠLtd":13100,"ĠInc":13101,"ĠInsti":13102,"Ġlaju":13103,"atau":13104,"Ġpenanggulangan":13105,"Ġpenetapan":13106,"Ġpenelus":13107,"iao":13108,"eting":13109,"etoria":13110,"acao":13111,"udmila":13112,"ĠGy":13113,"ĠGaya":13114,"ĠGra":13115,"ĠGade":13116,"ĠGabri":13117,"ĠGvar":13118,"ebolan":13119,"edisi":13120,"Ġgeng":13121,"Ġ112":13122,"epsi":13123,"ĠNama":13124,"ĠNagita":13125,"ĠHu":13126,"ĠHen":13127,"ĠHitu":13128,"ĠHeri":13129,"ĠHutan":13130,"ĠHold":13131,"ĠHalal":13132,"ĠHalaman":13133,"ĠHipotiroid":13134,"ĠHome":13135,"ĠHealth":13136,"ribusi":13137,"rique":13138,"atanan":13139,"ĠFan":13140,"ĠFas":13141,"ĠFall":13142,"ĠFIN":13143,"ĠFumi":13144,"ĠFisik":13145,"ĠFootball":13146,"ĠFHD":13147,"embap":13148,"pertandingan":13149,"Ġbayar":13150,"Ġnota":13151,"Ġnov":13152,"Ġnow":13153,"Ġnaungan":13154,"Ġnusantara":13155,"Ġmered":13156,"Ġmerch":13157,"Ġmerob":13158,"sey":13159,"seimbangan":13160,"Ġfarmasi":13161,"Ġcm":13162,"Ġcar":13163,"Ġcol":13164,"Ġcek":13165,"Ġciv":13166,"Ġcairan":13167,"Ġciam":13168,"Ġcross":13169,"Ġmenjebol":13170,"ĠUb":13171,"ĠUus":13172,"ĠUeda":13173,"ĠUtomo":13174,"alisir":13175,"Ġjen":13176,"Ġjala":13177,"Ġjahat":13178,"Ġjeriken":13179,"Ġwangi":13180,"Ġwarnai":13181,"Ġwatt":13182,"Ġwargan":13183,"ĠER":13184,"ĠEU":13185,"ĠEp":13186,"ĠEditor":13187,"ĠElim":13188,"ĠEBT":13189,"ĠEarPods":13190,"ĠWis":13191,"ĠWil":13192,"ĠWij":13193,"ĠWaduk":13194,"Ġpemuda":13195,"Ġpembawa":13196,"Ġpemulangan":13197,"Ġpemakaian":13198,"itaan":13199,"Ġpengec":13200,"Ġpengikut":13201,"Ġpengedar":13202,"endak":13203,"endam":13204,"amaguchi":13205,"erikan":13206,"bagaimana":13207,"anyaan":13208,"jaitan":13209,"trasi":13210,"Ġmembidik":13211,"Ġmembatasi":13212,"Ġmemboyong":13213,"ĠOton":13214,"anafi":13215,"Ġakomodasi":13216,"Ġpower":13217,"lahat":13218,"lahovic":13219,"Ġmenyel":13220,"Ġmenyed":13221,"Ġmenyimp":13222,"Ġmenyebar":13223,"Ġmenyukses":13224,"Ġmenyusun":13225,"Ġmenyembunyikan":13226,"Ġmenyukainya":13227,"Ġmenyarangkan":13228,"Ġkarate":13229,"Ġmendarat":13230,"Ġmendatar":13231,"Ġmendeteksi":13232,"Ġmendaft":13233,"Ġmendoakan":13234,"Ġkontingen":13235,"oss":13236,"osaan":13237,"olehkan":13238,"che":13239,"chan":13240,"change":13241,"oppa":13242,"ingkus":13243,"obia":13244,"obos":13245,"obekan":13246,"obrak":13247,"obrol":13248,"obike":13249,"ubdit":13250,"ĠPerwakilan":13251,"ĠPeristiwa":13252,"ĠPerbakin":13253,"Ġadik":13254,"Ġaduan":13255,"Ġadaptasi":13256,"reak":13257,"reasi":13258,"reement":13259,"ĠCher":13260,"ĠCholil":13261,"daul":13262,"Ġserahkan":13263,"ĠAntar":13264,"ĠAnugerah":13265,"ĠAnadolu":13266,"ayo":13267,"ayanya":13268,"ilauan":13269,"Ġmencuci":13270,"Ġperson":13271,"Ġperspek":13272,"Ġpersediaan":13273,"Ġsekian":13274,"Ġsekilas":13275,"Ġmelu":13276,"Ġmelompat":13277,"Ġmelancarkan":13278,"olali":13279,"Ġgalah":13280,"dio":13281,"diol":13282,"diyin":13283,"diperankan":13284,"Ġberked":13285,"Ġberkali":13286,"Ġberkons":13287,"Ġberkilau":13288,"ĠVisi":13289,"Ġhard":13290,"anggakan":13291,"anggilan":13292,"migrasi":13293,"Ġbersalah":13294,"Ġbersatu":13295,"Ġbersinar":13296,"eragaman":13297,"ransit":13298,"Ġmengas":13299,"Ġmengabulkan":13300,"Ġmengacu":13301,"Ġmengawasi":13302,"Ġveter":13303,"ibaku":13304,"sabu":13305,"Ġ51":13306,"Ġmembuang":13307,"ĠYann":13308,"Ġdiagnosis":13309,"ĠbaruPewarta":13310,"Ġkeren":13311,"Ġkerukunan":13312,"Ġaslinya":13313,"Ġseleksi":13314,"Ġselangkah":13315,"Ġselebar":13316,"Ġdikur":13317,"Ġdikembalikan":13318,"ĠAllan":13319,"ĠAlfa":13320,"ĠAless":13321,"ĠAldy":13322,"unculan":13323,"uncaki":13324,"Ġ41":13325,"Ġgolongan":13326,"ecepatan":13327,"ĠASN":13328,"ĠMenuju":13329,"ĠMenembak":13330,"ĠMenanggapi":13331,"ĠMenjelang":13332,"ensial":13333,"Ġresesi":13334,"Ġkomisi":13335,"ĠArth":13336,"ĠArtinya":13337,"ĠAryna":13338,"2015":13339,"garis":13340,"garet":13341,"ungkapan":13342,"Ġeksistensi":13343,"Ġberhubungan":13344,"Ġpenyediaan":13345,"ĠMariska":13346,"ĠKeempat":13347,"ĠKeys":13348,"Ġdisusul":13349,"Ġdisaksikan":13350,"Ġdisumbangkan":13351,"Ġterberat":13352,"ĠSebagian":13353,"Ġdibilang":13354,"Ġdibentuk":13355,"Ġpasukan":13356,"ĠBerawal":13357,"antiasa":13358,"ĠPengam":13359,"ĠPenyi":13360,"ĠPenurunan":13361,"ĠSelandia":13362,"Ġsentimen":13363,"Ġsenantiasa":13364,"Ġkelola":13365,"Ġkelebihan":13366,"Ġkelancaran":13367,"ĠPemimpin":13368,"ĠPemanfaatan":13369,"Ġ600":13370,"ĠApar":13371,"ĠApabila":13372,"ency":13373,"encia":13374,"ĠBarelang":13375,"ologies":13376,"Ġpesona":13377,"Ġdipegang":13378,"Ġdipotong":13379,"Ġdipadukan":13380,"Ġtrek":13381,"Ġklubnya":13382,"ikannya":13383,"Ġpendiri":13384,"Ġpendatang":13385,"Ġpendinginan":13386,"Ġ71":13387,"Ġ74":13388,"Ġseparuh":13389,"Ġdilangsungkan":13390,"Ġberbanding":13391,"Ġberbunyi":13392,"Ġberbekal":13393,"Ġmeningkatnya":13394,"ohi":13395,"Ġskin":13396,"Ġskenario":13397,"gasan":13398,"usik":13399,"Ġkonstruk":13400,"Ġketinggalan":13401,"Ġapem":13402,"baiknya":13403,"Ġkebers":13404,"Ġkebuntu":13405,"Ġberlatar":13406,"Ġberlokasi":13407,"Ġ06":13408,"ĠKemenperin":13409,"Ġalkohol":13410,"Ġmenyapa":13411,"Ġmenyasar":13412,"Ġ82":13413,"Ġ89":13414,"Ġtakluk":13415,"Ġ151":13416,"Ġmendapatkannya":13417,"Ġartificial":13418,"ĠXX":13419,"ĠXin":13420,"Ġdiperbarui":13421,"Ġdiperuntuk":13422,"Ġdipersonalisasi":13423,"ardy":13424,"ĠGrenoble":13425,"ĠKepastian":13426,"ersih":13427,"ĠKotabaru":13428,"cius":13429,"cient":13430,"Ġdemam":13431,"arisma":13432,"Ġ98":13433,"Ġpernapasan":13434,"ĠAsy":13435,"fier":13436,"Ġkekalahannya":13437,"ĠPSS":13438,"Ġstraight":13439,"Ġ1970":13440,"Ġditangkap":13441,"Ġpengadilan":13442,"ition":13443,"lanet":13444,"Ġmenggeser":13445,"ĠMadu":13446,"ĠPersiapan":13447,"asisme":13448,"ĠTerb":13449,"ĠTerbaru":13450,"Ġekspansi":13451,"ĠPrinc":13452,"ĠPretoria":13453,"Ġlokapasar":13454,"Ġlapak":13455,"Ġkasar":13456,"Ġkaset":13457,"Ġbulanan":13458,"ĠStade":13459,"Ġriil":13460,"ĠOliv":13461,"ĠReally":13462,"ĠPastikan":13463,"umpulan":13464,"enamkan":13465,"Ġbuyback":13466,"ĠMasuk":13467,"ĠMasohi":13468,"ĠPenggunaan":13469,"Ġberdua":13470,"Ġpencarian":13471,"Ġpencalon":13472,"Ġpencetakan":13473,"niscient":13474,"etulan":13475,"ondong":13476,"Ġsisanya":13477,"Ġkendala":13478,"Ġdigantikan":13479,"Ġsiapapun":13480,"anced":13481,"Ġterkend":13482,"esis":13483,"Ġstakeholder":13484,"capil":13485,"Ġdihindari":13486,"Ġdihentikan":13487,"ĠIniesta":13488,"ampaknya":13489,"ĠPelita":13490,"ĠPelangg":13491,"ĠPelindo":13492,"inasikan":13493,"Ġterakhirnya":13494,"Ġmemprakirakan":13495,"ĠSeminar":13496,"Ġmengenali":13497,"199":13498,"Ġkomplek":13499,"Ġkomputasi":13500,"ĠStev":13501,"ĠKalsel":13502,"ĠKorban":13503,"Ġterpuruk":13504,"Ġ149":13505,"ĠMeat":13506,"ĠMeeting":13507,"Ġrambutnya":13508,"arger":13509,"ĠEner":13510,"zzard":13511,"antap":13512,"ĠAkh":13513,"ĠAkses":13514,"ĠBryan":13515,"ĠBruy":13516,"ĠBella":13517,"ĠSurvei":13518,"Ġkalender":13519,"Ġmenangis":13520,"ĠLeSports":13521,"ĠNurul":13522,"Ġbelakangan":13523,"Ġsurvei":13524,"Ġperkara":13525,"ĠYoanita":13526,"ĠYoutube":13527,"versitas":13528,"Ġ2004":13529,"Ġbermotif":13530,"ĠRaze":13531,"Ġkorupsi":13532,"ĠKemerdekaan":13533,"ĠEddi":13534,"ĠAngela":13535,"ĠKedokteran":13536,"ĠKedutaan":13537,"PUPR":13538,"ĠSalisu":13539,"Ġfokusnya":13540,"Ġsuaminya":13541,"Ġeditor":13542,"Ġeducation":13543,"Ġtangani":13544,"ĠBox":13545,"Ġpermudah":13546,"iyung":13547,"Ġtropis":13548,"SIC":13549,"imbangkan":13550,"Ġkriminal":13551,"Ġdiciptakan":13552,"ĠBeni":13553,"ĠBenardy":13554,"raft":13555,"Ġakuisisi":13556,"Ġpopularitas":13557,"Ġparameter":13558,"ĠAbidal":13559,"Ġpuncaknya":13560,"Ġbertenaga":13561,"ĠKualitas":13562,"Ġmaksimalkan":13563,"ĠSpider":13564,"Ġstaf":13565,"ĠKonten":13566,"Ġmenguatkan":13567,"PSSI":13568,"Ġbernomor":13569,"ĠMatch":13570,"ĠMatto":13571,"ĠMaterazz":13572,"ĠPLC":13573,"ĠDjohan":13574,"ĠSuzuki":13575,"ĠSyam":13576,"ĠTransportasi":13577,"ĠValencia":13578,"ĠSimanic":13579,"ĠSanxing":13580,"ĠPlaystation":13581,"ĠMuch":13582,"ĠDrama":13583,"ĠConc":13584,"ĠConnect":13585,"Ġoptimisme":13586,"ĠKharisma":13587,"ĠRahabi":13588,"Ġtipe":13589,"jurkan":13590,"ĠMemories":13591,"Ġefektivitas":13592,"liskan":13593,"ĠSummer":13594,"ĠTeluk":13595,"Ġtumor":13596,"Ġtumbuhan":13597,"Ġmenurunnya":13598,"ĠOPD":13599,"ĠSusanto":13600,"ĠStrasbour":13601,"Ġditulis":13602,"ĠMoon":13603,"Ġpanduan":13604,"Ġsale":13605,"ĠGolden":13606,"lyn":13607,"anjung":13608,"Ġpresentasi":13609,"Ġbasah":13610,"ĠTren":13611,"ĠLogam":13612,"Ġkeberadaan":13613,"ĠWidy":13614,"Ġdominasi":13615,"ĠKasat":13616,"ombinasikan":13617,"aceuti":13618,"Ġbawaan":13619,"ĠBeatlew":13620,"Ġdiragukan":13621,"ĠBaid":13622,"Ġprofesionalnya":13623,"PKLU":13624,"Ġenggan":13625,"Ġpemberantasan":13626,"Ġdugaan":13627,"astawa":13628,"ĠNahdiyin":13629,"ĠTablet":13630,"Ġrefer":13631,"Ġrefurbished":13632,"Ġmelewatkan":13633,"Ġmenunda":13634,"Ġmenuntaskan":13635,"ĠAKP":13636,"Ġpertanyaan":13637,"ĠIslamof":13638,"CAEXPO":13639,"Ġpergelangan":13640,"Ġlook":13641,"Ġmenginisiasi":13642,"ĠFery":13643,"Ġvirus":13644,"ĠPharm":13645,"ĠPesantren":13646,"ĠPelabuhan":13647,"Ġtrebel":13648,"Ġdiadopsi":13649,"ĠGuitar":13650,"Ġmelemahnya":13651,"ĠFaisalEditor":13652,"Ġsambangi":13653,"Ġberjibaku":13654,"ĠColleg":13655,"ĠKapolri":13656,"Ġpatah":13657,"Ġdiwaspadai":13658,"ĠMcCart":13659,"Ġterganggu":13660,"ĠCream":13661,"acamata":13662,"iansyahEditor":13663,"ĠOsasuna":13664,"Ġtoleransi":13665,"ĠAgensi":13666,"ĠBundaran":13667,"chool":13668,"stonia":13669,"ĠBerbeda":13670,"Ġekspedisi":13671,"ĠAbdullah":13672,"rush":13673,"ĠStudios":13674,"Ġkelainan":13675,"Ġkelautan":13676,"ĠRizal":13677,"Ġintensif":13678,"Menkominfo":13679,"SMA":13680,"hyun":13681,"ĠMuralitharan":13682,"ĠOfficial":13683,"ĠDarmawan":13684,"Ġreproduksi":13685,"ĠHastry":13686,"ĠHasyim":13687,"echnologies":13688,"Ġbertuliskan":13689,"ĠMiami":13690,"Ġmengarahkan":13691,"Ġmengecoh":13692,"ĠJusuf":13693,"ĠSleman":13694,"ĠCiputat":13695,"Ġrupanya":13696,"Ġwearab":13697,"Ġdokumenter":13698,"Ġpipa":13699,"Ġpipi":13700,"Ġhilangnya":13701,"ollroad":13702,"ekuensi":13703,"TEM":13704,"Ġslogan":13705,"ĠKCNA":13706,"ĠRaditya":13707,"ĠCorpor":13708,"Ġmatching":13709,"ĠCakrawala":13710,"Ġterminal":13711,"ĠDekai":13712,"ĠTOUR":13713,"ĠGustian":13714,"ĠFakta":13715,"ĠFakultas":13716,"ĠEurobike":13717,"Ġpendamping":13718,"Ġoksi":13719,"ĠBilllie":13720,"Ġpemanasan":13721,"Ġproteksi":13722,"Ġberkarier":13723,"ĠPasaribuEditor":13724,"ĠSommer":13725,"ĠPresisi":13726,"ĠAwaluddin":13727,"ĠViewpoint":13728,"ĠSunscreen":13729,"ĠCSR":13730,"embatani":13731,"Ġnaturalisasi":13732,"Ġadministrasi":13733,"Ġvariasi":13734,"Ġvariatif":13735,"agamaan":13736,"Ġpermukiman":13737,"TEArizer":13738,"ĠPlaza":13739,"ĠBakrie":13740,"ĠMembahas":13741,"ĠDiana":13742,"ĠReguilon":13743,"ĠCuracao":13744,"Ġgugup":13745,"ĠEstate":13746,"etulnya":13747,"Ġistirahat":13748,"Mercedes":13749,"Ġampas":13750,"Ġmakna":13751,"Ġkeriput":13752,"Ġdiasuh":13753,"ĠTrading":13754,"Ġmengunduh":13755,"ĠJateng":13756,"Ġgarapan":13757,"ĠFreedom":13758,"ĠFerdiansyahEditor":13759,"ĠChristop":13760,"ĠChristine":13761,"ĠArkhan":13762,"Ġdipilihnya":13763,"Ġkompeten":13764,"ĠSouthgate":13765,"ĠKonsulat":13766,"www":13767,"Ġengsel":13768,"ĠPacific":13769,"ĠTianjin":13770,"Ġcoat":13771,"ĠPencemaran":13772,"ĠAtletik":13773,"ĠValente":13774,"ĠValentino":13775,"BEI":13776,"Polri":13777,"lantis":13778,"Ġdiungkap":13779,"ĠSiregar":13780,"ĠMuttaq":13781,"Ġhanduk":13782,"ĠBernardo":13783,"Ġmenonjolkan":13784,"diredja":13785,"ĠPangeran":13786,"Ġlembap":13787,"ĠRasmus":13788,"ĠLakers":13789,"ĠHistori":13790,"ĠHistory":13791,"ĠFoundation":13792,"ĠProduct":13793,"Ġdiplomasi":13794,"ĠHarrison":13795,"Denmark":13796,"Timnas":13797,"hinha":13798,"akhstan":13799,"Ġmeneken":13800,"ĠSampai":13801,"ĠBIGHIT":13802,"ĠMABAR":13803,"ĠMatsani":13804,"ĠRevolt":13805,"ĠTUF":13806,"Ġrehat":13807,"ĠFernandes":13808,"ĠWibowo":13809,"Ġkompatib":13810,"ĠAkhirnya":13811,"ĠCommunity":13812,"ĠPrasetyo":13813,"Diskominfo":13814,"Ġilmiah":13815,"Ġditandai":13816,"Ġmenempel":13817,"ĠPrefektur":13818,"ĠBuchori":13819,"Ġkeyboard":13820,"ĠKadin":13821,"ĠKuping":13822,"Ġperformanya":13823,"Ġterpantau":13824,"Ġpenampungan":13825,"ĠFuzhou":13826,"Ġpoundsterling":13827,"ĠCountry":13828,"ĠTrebel":13829,"ĠBanjarbaru":13830,"drums":13831,"keyboard":13832,"Ġdiresmikan":13833,"ĠSayid":13834,"ĠPerizinan":13835,"ĠKroos":13836,"Ġmengatasinya":13837,"ĠGabungan":13838,"abinet":13839,"ĠOverwatch":13840,"Ġaksesibilitas":13841,"ĠPerguruan":13842,"ĠYuliani":13843,"Ġselebriti":13844,"ĠMarquez":13845,"gejala":13846,"ĠSofyan":13847,"ĠSupercoppa":13848,"ĠMoisTEArizer":13849,"ĠMilkLife":13850,"ĠPramudya":13851,"erusalem":13852,"Ġkakinya":13853,"Ġtawuran":13854,"ĠSpeed":13855,"ĠKurniawan":13856,"Ġperintah":13857,"ĠDesign":13858,"Ġlivery":13859,"ĠCGV":13860,"ĠJisoo":13861,"ĠLulur":13862,"ĠGandaria":13863,"ĠHidayat":13864,"Ġnetral":13865,"Ġcoklat":13866,"ĠZuyi":13867,"ĠZainal":13868,"Ġmenghormati":13869,"ĠGoTransit":13870,"ĠStephen":13871,"ĠMatteo":13872,"Batam":13873,"hibition":13874,"Ġmutlak":13875,"Ġtetangga":13876,"ĠScience":13877,"ĠAcapella":13878,"Ġperagaan":13879,"ĠRGBW":13880,"ĠTentunya":13881,"ĠCilacap":13882,"ĠCircuit":13883,"ĠGoncalo":13884,"ĠNSYNC":13885,"ĠFabio":13886,"Ġfinansial":13887,"Ġawet":13888,"Ġaerobatik":13889,"Ġvaksin":13890,"Ġkomersial":13891,"ĠShelton":13892,"Ġdiproyeksi":13893,"ĠKomisaris":13894,"ĠXinhuaEditor":13895,"ĠAssistant":13896,"Ġterkejut":13897,"Ġstylish":13898,"ĠQualifier":13899,"ĠSamudra":13900,"ĠBoomerang":13901,"Ġportabel":13902,"Ġpemerkosaan":13903,"ĠSomething":13904,"Ġpascabencana":13905,"FabrizioRomano":13906,"Letters":13907,"Universitas":13908,"ralphlauren":13909,"Ġitem":13910,"Ġudaranya":13911,"Ġdrawing":13912,"Ġpalsu":13913,"Ġpaviliun":13914,"attrick":13915,"Ġkutikula":13916,"lambatan":13917,"Ġdilahirkan":13918,"Ġdisajikan":13919,"Ġdistribusi":13920,"Ġditentukan":13921,"ĠSantiago":13922,"ĠSichuan":13923,"Ġsesungguhnya":13924,"ĠAulia":13925,"ĠAhau":13926,"ĠBilbao":13927,"ĠBlizzard":13928,"ĠBologna":13929,"ĠBinsar":13930,"Ġberjarak":13931,"Ġberniat":13932,"Ġberdagang":13933,"Ġberistirahat":13934,"Ġketinggian":13935,"islator":13936,"ĠKamboja":13937,"ĠKantadiredja":13938,"Ġmemukau":13939,"ĠIohannis":13940,"ĠDuplantis":13941,"ekomunikasi":13942,"ĠTencent":13943,"Ġmengutarakan":13944,"Ġintuitif":13945,"ĠJACXEditor":13946,"Ġrontok":13947,"ĠLadies":13948,"ĠLegian":13949,"Ġpenelusuran":13950,"ĠGvardiol":13951,"Ġciamik":13952,"Ġcrossover":13953,"Ġwarganet":13954,"ĠWijaya":13955,"ĠOtonomi":13956,"Ġmenyukseskan":13957,"Ġmendaftarkan":13958,"Ġperspektif":13959,"Ġveteran":13960,"ĠAlessandro":13961,"ĠArthur":13962,"ĠPengamat":13963,"Ġkebersamaan":13964,"Ġkebuntuan":13965,"Ġdiperuntukkan":13966,"Ġpencalonan":13967,"ĠBruyne":13968,"ĠLeSportsac":13969,"ĠMaterazzi":13970,"ĠDjohanEditor":13971,"ĠSanxingdui":13972,"ĠStrasbourg":13973,"ĠBeatleweek":13974,"ĠIslamofobia":13975,"ĠMcCartney":13976,"ĠHastryka":13977,"ĠMuttaqin":13978,"01":13979,"015":13980,"113":13981,"37":13982,"44":13983,"400":13984,"51":13985,"52":13986,"61":13987,"799":13988,"899":13989,"91":13990,"Ada":13991,"BO":13992,"Ber":13993,"BPS":13994,"CI":13995,"DB":13996,"Dan":13997,"DOTA":13998,"EI":13999,"Ed":14000,"En":14001,"Es":14002,"Eti":14003,"FG":14004,"FS":14005,"Food":14006,"GK":14007,"HP":14008,"Ha":14009,"Home":14010,"Hyun":14011,"Is":14012,"Ital":14013,"Jokowi":14014,"KT":14015,"KU":14016,"Kr":14017,"Kal":14018,"LH":14019,"LL":14020,"Lay":14021,"MA":14022,"MY":14023,"Mifi":14024,"NPL":14025,"Next":14026,"One":14027,"Pj":14028,"Pus":14029,"Paris":14030,"PMI":14031,"PFA":14032,"Prov":14033,"RO":14034,"Ride":14035,"Ser":14036,"Sam":14037,"Sek":14038,"Saat":14039,"Surabaya":14040,"Smart":14041,"Seven":14042,"TV":14043,"Ter":14044,"Tapi":14045,"Thailand":14046,"Teori":14047,"UU":14048,"UHP":14049,"VC":14050,"VSI":14051,"Weng":14052,"Welcome":14053,"Xi":14054,"bat":14055,"bas":14056,"bdian":14057,"bersih":14058,"cta":14059,"duh":14060,"ebu":14061,"etisi":14062,"fak":14063,"ftus":14064,"fif":14065,"gt":14066,"gat":14067,"gara":14068,"gend":14069,"hing":14070,"his":14071,"hot":14072,"hlas":14073,"hargaan":14074,"hitung":14075,"iac":14076,"je":14077,"jian":14078,"kis":14079,"kul":14080,"lib":14081,
[...]
